{
  "version": "1.0",
  "truncation": null,
  "padding": null,
  "added_tokens": [
    {
      "id": 0,
      "content": "<|endoftext|>",
      "single_word": false,
      "lstrip": false,
      "rstrip": false,
      "normalized": false,
      "special": true
    },
    {
      "id": 1,
      "content": "<pad>",
      "single_word": false,
      "lstrip": false,
      "rstrip": false,
      "normalized": false,
      "special": true
    }
  ],
  "normalizer": null,
  "pre_tokenizer": {
    "type": "ByteLevel",
    "add_prefix_space": false,
    "trim_offsets": true,
    "use_regex": true
  },
  "post_processor": {
    "type": "ByteLevel",
    "add_prefix_space": true,
    "trim_offsets": true,
    "use_regex": true
  },
  "decoder": {
    "type": "ByteLevel",
    "add_prefix_space": true,
    "trim_offsets": true,
    "use_regex": true
  },
  "model": {
    "type": "BPE",
    "dropout": null,
    "unk_token": null,
    "continuing_subword_prefix": null,
    "end_of_word_suffix": null,
    "fuse_unk": false,
    "byte_fallback": false,
    "ignore_merges": false,
    "vocab": {
      "<|endoftext|>": 0,
      "<pad>": 1,
      "!": 2,
      "\"": 3,
      "#": 4,
      "$": 5,
      "%": 6,
      "&": 7,
      "'": 8,
      "(": 9,
      ")": 10,
      "*": 11,
      "+": 12,
      ",": 13,
      "-": 14,
      ".": 15,
      "/": 16,
      "0": 17,
      "1": 18,
      "2": 19,
      "3": 20,
      "4": 21,
      "5": 22,
      "6": 23,
      "7": 24,
      "8": 25,
      "9": 26,
      ":": 27,
      ";": 28,
      "<": 29,
      "=": 30,
      ">": 31,
      "?": 32,
      "@": 33,
      "A": 34,
      "B": 35,
      "C": 36,
      "D": 37,
      "E": 38,
      "F": 39,
      "G": 40,
      "H": 41,
      "I": 42,
      "J": 43,
      "K": 44,
      "L": 45,
      "M": 46,
      "N": 47,
      "O": 48,
      "P": 49,
      "Q": 50,
      "R": 51,
      "S": 52,
      "T": 53,
      "U": 54,
      "V": 55,
      "W": 56,
      "X": 57,
      "Y": 58,
      "Z": 59,
      "[": 60,
      "\\": 61,
      "]": 62,
      "^": 63,
      "_": 64,
      "`": 65,
      "a": 66,
      "b": 67,
      "c": 68,
      "d": 69,
      "e": 70,
      "f": 71,
      "g": 72,
      "h": 73,
      "i": 74,
      "j": 75,
      "k": 76,
      "l": 77,
      "m": 78,
      "n": 79,
      "o": 80,
      "p": 81,
      "q": 82,
      "r": 83,
      "s": 84,
      "t": 85,
      "u": 86,
      "v": 87,
      "w": 88,
      "x": 89,
      "y": 90,
      "z": 91,
      "{": 92,
      "|": 93,
      "}": 94,
      "~": 95,
      "¡": 96,
      "¢": 97,
      "£": 98,
      "¤": 99,
      "¥": 100,
      "¦": 101,
      "§": 102,
      "¨": 103,
      "©": 104,
      "ª": 105,
      "«": 106,
      "¬": 107,
      "®": 108,
      "¯": 109,
      "°": 110,
      "±": 111,
      "²": 112,
      "³": 113,
      "´": 114,
      "µ": 115,
      "¶": 116,
      "·": 117,
      "¸": 118,
      "¹": 119,
      "º": 120,
      "»": 121,
      "¼": 122,
      "½": 123,
      "¾": 124,
      "¿": 125,
      "À": 126,
      "Á": 127,
      "Â": 128,
      "Ã": 129,
      "Ä": 130,
      "Å": 131,
      "Æ": 132,
      "Ç": 133,
      "È": 134,
      "É": 135,
      "Ê": 136,
      "Ë": 137,
      "Ì": 138,
      "Í": 139,
      "Î": 140,
      "Ï": 141,
      "Ð": 142,
      "Ñ": 143,
      "Ò": 144,
      "Ó": 145,
      "Ô": 146,
      "Õ": 147,
      "Ö": 148,
      "×": 149,
      "Ø": 150,
      "Ù": 151,
      "Ú": 152,
      "Û": 153,
      "Ü": 154,
      "Ý": 155,
      "Þ": 156,
      "ß": 157,
      "à": 158,
      "á": 159,
      "â": 160,
      "ã": 161,
      "ä": 162,
      "å": 163,
      "æ": 164,
      "ç": 165,
      "è": 166,
      "é": 167,
      "ê": 168,
      "ë": 169,
      "ì": 170,
      "í": 171,
      "î": 172,
      "ï": 173,
      "ð": 174,
      "ñ": 175,
      "ò": 176,
      "ó": 177,
      "ô": 178,
      "õ": 179,
      "ö": 180,
      "÷": 181,
      "ø": 182,
      "ù": 183,
      "ú": 184,
      "û": 185,
      "ü": 186,
      "ý": 187,
      "þ": 188,
      "ÿ": 189,
      "Ā": 190,
      "ā": 191,
      "Ă": 192,
      "ă": 193,
      "Ą": 194,
      "ą": 195,
      "Ć": 196,
      "ć": 197,
      "Ĉ": 198,
      "ĉ": 199,
      "Ċ": 200,
      "ċ": 201,
      "Č": 202,
      "č": 203,
      "Ď": 204,
      "ď": 205,
      "Đ": 206,
      "đ": 207,
      "Ē": 208,
      "ē": 209,
      "Ĕ": 210,
      "ĕ": 211,
      "Ė": 212,
      "ė": 213,
      "Ę": 214,
      "ę": 215,
      "Ě": 216,
      "ě": 217,
      "Ĝ": 218,
      "ĝ": 219,
      "Ğ": 220,
      "ğ": 221,
      "Ġ": 222,
      "ġ": 223,
      "Ģ": 224,
      "ģ": 225,
      "Ĥ": 226,
      "ĥ": 227,
      "Ħ": 228,
      "ħ": 229,
      "Ĩ": 230,
      "ĩ": 231,
      "Ī": 232,
      "ī": 233,
      "Ĭ": 234,
      "ĭ": 235,
      "Į": 236,
      "į": 237,
      "İ": 238,
      "ı": 239,
      "Ĳ": 240,
      "ĳ": 241,
      "Ĵ": 242,
      "ĵ": 243,
      "Ķ": 244,
      "ķ": 245,
      "ĸ": 246,
      "Ĺ": 247,
      "ĺ": 248,
      "Ļ": 249,
      "ļ": 250,
      "Ľ": 251,
      "ľ": 252,
      "Ŀ": 253,
      "ŀ": 254,
      "Ł": 255,
      "ł": 256,
      "Ń": 257,
      "Ġt": 258,
      "he": 259,
      "Ġa": 260,
      "in": 261,
      "Ġthe": 262,
      "er": 263,
      "on": 264,
      "Ġ,": 265,
      "re": 266,
      "Ġs": 267,
      "ed": 268,
      "Ġw": 269,
      "Ġo": 270,
      "nd": 271,
      "at": 272,
      "Ġ.": 273,
      "or": 274,
      "en": 275,
      "Ġc": 276,
      "it": 277,
      "Ġf": 278,
      "es": 279,
      "is": 280,
      "Ġb": 281,
      "ar": 282,
      "Ġof": 283,
      "an": 284,
      "Ġin": 285,
      "al": 286,
      "ing": 287,
      "Ġp": 288,
      "as": 289,
      "Ġand": 290,
      "Ġto": 291,
      "ic": 292,
      "ro": 293,
      "Ġm": 294,
      "Ġd": 295,
      "Ġh": 296,
      "ion": 297,
      "le": 298,
      "ou": 299,
      "Ġre": 300,
      "ĠT": 301,
      "ent": 302,
      "il": 303,
      "Ġth": 304,
      "Ġ\"": 305,
      "ĠS": 306,
      "Ġ1": 307,
      "ĠA": 308,
      "st": 309,
      "Ġl": 310,
      "Ġe": 311,
      "Ġ@": 312,
      "el": 313,
      "om": 314,
      "am": 315,
      "Ġn": 316,
      "ĠC": 317,
      "Ġwas": 318,
      "ad": 319,
      "ac": 320,
      "ĠM": 321,
      "Ġon": 322,
      "ly": 323,
      "ec": 324,
      "ur": 325,
      "Ġg": 326,
      "et": 327,
      "Ġ'": 328,
      "id": 329,
      "ol": 330,
      "ĠB": 331,
      "im": 332,
      "ir": 333,
      "-@": 334,
      "Ġ@-@": 335,
      "Ġfor": 336,
      "iv": 337,
      "ig": 338,
      "ot": 339,
      "ter": 340,
      "ĠThe": 341,
      "ĠI": 342,
      "ut": 343,
      "Ġas": 344,
      "ow": 345,
      "us": 346,
      "ĠH": 347,
      "ith": 348,
      "Ġst": 349,
      "ay": 350,
      "ver": 351,
      "Ġ2": 352,
      "Ġhe": 353,
      "Ġthat": 354,
      "Ġwith": 355,
      "Ġbe": 356,
      "ation": 357,
      "ĠP": 358,
      "ce": 359,
      "un": 360,
      "Ġwh": 361,
      "em": 362,
      "ĠR": 363,
      "ĠD": 364,
      "Ġby": 365,
      "ch": 366,
      "Ġal": 367,
      "ul": 368,
      "th": 369,
      "Ġis": 370,
      "Ġcon": 371,
      "Ġat": 372,
      "ĠW": 373,
      "ers": 374,
      "ct": 375,
      "ra": 376,
      "ĠF": 377,
      "Ġ)": 378,
      "Ġ(": 379,
      "ĠG": 380,
      "Ġan": 381,
      "os": 382,
      "Ġit": 383,
      "ĠN": 384,
      "ĠL": 385,
      "her": 386,
      "rom": 387,
      "um": 388,
      "Ġ19": 389,
      "and": 390,
      "est": 391,
      "00": 392,
      "Ġhis": 393,
      "ĠJ": 394,
      "ag": 395,
      "ain": 396,
      "av": 397,
      "ri": 398,
      "od": 399,
      "Ġfrom": 400,
      "ĠE": 401,
      "Ġcom": 402,
      "ist": 403,
      "Ġpro": 404,
      "Ġv": 405,
      "op": 406,
      "ld": 407,
      "ore": 408,
      "if": 409,
      "Ġr": 410,
      "ies": 411,
      "up": 412,
      "ere": 413,
      "ill": 414,
      "ĠO": 415,
      "ew": 416,
      "res": 417,
      "igh": 418,
      "ort": 419,
      "Ġwere": 420,
      "Ġde": 421,
      "Ġse": 422,
      "ich": 423,
      "art": 424,
      "all": 425,
      "ber": 426,
      "ard": 427,
      "ate": 428,
      "ak": 429,
      "ant": 430,
      "ong": 431,
      "qu": 432,
      "Ġor": 433,
      "ud": 434,
      "Ġex": 435,
      "gh": 436,
      "Ġpl": 437,
      "ap": 438,
      "ab": 439,
      "oc": 440,
      "Ġch": 441,
      "ame": 442,
      "ated": 443,
      "ear": 444,
      "ess": 445,
      "Ġsh": 446,
      "ity": 447,
      "ive": 448,
      "Ġhad": 449,
      "ip": 450,
      "ĠU": 451,
      "ĠIn": 452,
      "ect": 453,
      "Ġsu": 454,
      "ĠK": 455,
      "se": 456,
      "Ġk": 457,
      "Ġwhich": 458,
      "red": 459,
      "Ġare": 460,
      "ack": 461,
      "ge": 462,
      "ast": 463,
      "und": 464,
      "Ġle": 465,
      "ment": 466,
      "Ġsp": 467,
      "ian": 468,
      "our": 469,
      "ally": 470,
      "Ġnot": 471,
      "Ġâ": 472,
      "Ġy": 473,
      "ell": 474,
      "ov": 475,
      "ĠSt": 476,
      "ĠâĢ": 477,
      "rit": 478,
      "ost": 479,
      "ord": 480,
      "ight": 481,
      "ther": 482,
      "ia": 483,
      "ine": 484,
      "ary": 485,
      "oun": 486,
      "pt": 487,
      "ave": 488,
      "Ġ3": 489,
      "ust": 490,
      "Ġun": 491,
      "pp": 492,
      "cc": 493,
      "Ġinc": 494,
      "irst": 495,
      "Ġbut": 496,
      "ial": 497,
      "ous": 498,
      "ish": 499,
      "ould": 500,
      "fter": 501,
      "Ġ200": 502,
      "Ġcomp": 503,
      "ĠCh": 504,
      "Ġint": 505,
      "so": 506,
      "Ġcont": 507,
      "ĠV": 508,
      "Ġtheir": 509,
      "ub": 510,
      "Ġwhe": 511,
      "ions": 512,
      "Ġfirst": 513,
      "ide": 514,
      "ff": 515,
      "Ġar": 516,
      "out": 517,
      "Ġro": 518,
      "Ġits": 519,
      "ure": 520,
      "Ġ;": 521,
      "wo": 522,
      "ue": 523,
      "ie": 524,
      "ok": 525,
      "ical": 526,
      "ign": 527,
      "ass": 528,
      "ĠHe": 529,
      "Ġcl": 530,
      "Ġ20": 531,
      "og": 532,
      "Ġus": 533,
      "hed": 534,
      "end": 535,
      "Ġab": 536,
      "Ġres": 537,
      "Ġalso": 538,
      "ran": 539,
      "ork": 540,
      "mer": 541,
      "ater": 542,
      "ome": 543,
      "Ġad": 544,
      "Ġher": 545,
      "ond": 546,
      "own": 547,
      "ry": 548,
      "ru": 549,
      "ire": 550,
      "Ġ4": 551,
      "Ġone": 552,
      "orm": 553,
      ".@": 554,
      "Ġ@.@": 555,
      "per": 556,
      "Ġ18": 557,
      "ime": 558,
      "Ġhave": 559,
      "Ġper": 560,
      "Ġwho": 561,
      "age": 562,
      "Ġrec": 563,
      "du": 564,
      "ted": 565,
      "pl": 566,
      "Ġ5": 567,
      "low": 568,
      "ile": 569,
      "The": 570,
      "ugh": 571,
      "port": 572,
      "ric": 573,
      "iz": 574,
      "ĠTh": 575,
      "Ġsc": 576,
      "ree": 577,
      "Ġtwo": 578,
      "Ġbeen": 579,
      "ough": 580,
      "ts": 581,
      "ĠâĢĵ": 582,
      "uring": 583,
      "Ġhas": 584,
      ",@": 585,
      "Ġ@,@": 586,
      "Ġbec": 587,
      "ence": 588,
      "Ġag": 589,
      "Ġthis": 590,
      "Ġdis": 591,
      "ely": 592,
      "Ġyear": 593,
      "land": 594,
      "Ġen": 595,
      "ition": 596,
      "Ġover": 597,
      "Ġj": 598,
      "Ġapp": 599,
      "Ġpart": 600,
      "lud": 601,
      "Ġser": 602,
      "Ġoff": 603,
      "Ġplay": 604,
      "ations": 605,
      "ke": 606,
      "Ġ:": 607,
      "Ġdes": 608,
      "Ġup": 609,
      "Ġother": 610,
      "Ġman": 611,
      "Ġthey": 612,
      "ach": 613,
      "over": 614,
      "ound": 615,
      "ade": 616,
      "ren": 617,
      "Ġafter": 618,
      "ice": 619,
      "ory": 620,
      "ember": 621,
      "Ġ201": 622,
      "ĠAl": 623,
      "Ġout": 624,
      "ace": 625,
      "Ġim": 626,
      "wn": 627,
      "ib": 628,
      "ĠIt": 629,
      "Ġatt": 630,
      "ction": 631,
      "ult": 632,
      "ark": 633,
      "ance": 634,
      "urn": 635,
      "Ġinclud": 636,
      "ress": 637,
      "act": 638,
      "ced": 639,
      "ens": 640,
      "te": 641,
      "ite": 642,
      "Ġpre": 643,
      "Ġtime": 644,
      "ph": 645,
      "Ġhim": 646,
      "ĠY": 647,
      "man": 648,
      "Ġinto": 649,
      "we": 650,
      "ount": 651,
      "Ġwould": 652,
      "Ġte": 653,
      "Ġne": 654,
      "les": 655,
      "Ġwe": 656,
      "ĠUn": 657,
      "Ġev": 658,
      "Ġ6": 659,
      "vel": 660,
      "ind": 661,
      "ited": 662,
      "ates": 663,
      "rough": 664,
      "Ġcomm": 665,
      "ased": 666,
      "oin": 667,
      "ey": 668,
      "Ġmore": 669,
      "ied": 670,
      "ang": 671,
      "Ġall": 672,
      "ors": 673,
      "ward": 674,
      "Ġinter": 675,
      "ings": 676,
      "Ġshe": 677,
      "oy": 678,
      "are": 679,
      "able": 680,
      "ep": 681,
      "amp": 682,
      "ered": 683,
      "old": 684,
      "ood": 685,
      "Ġ7": 686,
      "ose": 687,
      "rib": 688,
      "Ġwork": 689,
      "ons": 690,
      "ase": 691,
      "ail": 692,
      "Ġbet": 693,
      "Ġgame": 694,
      "ents": 695,
      "ild": 696,
      "iss": 697,
      "Ġnew": 698,
      "Ġwhen": 699,
      "ces": 700,
      "ious": 701,
      "Ġfe": 702,
      "Ġsec": 703,
      "ubl": 704,
      "Ġtr": 705,
      "fer": 706,
      "way": 707,
      "ft": 708,
      "Ġ8": 709,
      "Ġcons": 710,
      "one": 711,
      "form": 712,
      "gan": 713,
      "Ġcent": 714,
      "aus": 715,
      "Ġrem": 716,
      "ick": 717,
      "reat": 718,
      "Ġund": 719,
      "inal": 720,
      "Ġdec": 721,
      "ved": 722,
      "ake": 723,
      "Ġgro": 724,
      "Ġthem": 725,
      "Ġmost": 726,
      "Ġonly": 727,
      "Ġduring": 728,
      "ween": 729,
      "att": 730,
      "ason": 731,
      "ix": 732,
      "Ġear": 733,
      "Ġkn": 734,
      "aw": 735,
      "Ġthan": 736,
      "Ġsup": 737,
      "ug": 738,
      "Ġ9": 739,
      "oth": 740,
      "Ġabout": 741,
      "orth": 742,
      "Ġagain": 743,
      "Ġsong": 744,
      "Ġcan": 745,
      "rop": 746,
      "ron": 747,
      "ans": 748,
      "Ġbetween": 749,
      "ollow": 750,
      "ĠOn": 751,
      "ĠSe": 752,
      "ss": 753,
      "ath": 754,
      "lect": 755,
      "ĠAn": 756,
      "ĠMar": 757,
      "Ġcol": 758,
      "Ġchar": 759,
      "Ġfl": 760,
      "Ġlater": 761,
      "hip": 762,
      "Ġ00": 763,
      "Ġthree": 764,
      "Ġunder": 765,
      "Ġprodu": 766,
      "Ġthrough": 767,
      "ve": 768,
      "fore": 769,
      "Ġret": 770,
      "Ġme": 771,
      "tern": 772,
      "iew": 773,
      "Ġact": 774,
      "ational": 775,
      "Ġra": 776,
      "Ġqu": 777,
      "ilm": 778,
      "ames": 779,
      "ob": 780,
      "orn": 781,
      "outh": 782,
      "Ġnum": 783,
      "als": 784,
      "Ġrel": 785,
      "ĠNew": 786,
      "Ġbu": 787,
      "Ġso": 788,
      "ict": 789,
      "Ġ199": 790,
      "Ġpr": 791,
      "ook": 792,
      "Ġend": 793,
      "Ġreg": 794,
      "Ġwhile": 795,
      "Ġacc": 796,
      "ton": 797,
      "Ġrele": 798,
      "orld": 799,
      "Ġver": 800,
      "ular": 801,
      "meric": 802,
      "ever": 803,
      "hn": 804,
      "ener": 805,
      "ished": 806,
      "ĠAmeric": 807,
      "Ġpe": 808,
      "ĠEn": 809,
      "ĠAr": 810,
      "ating": 811,
      "Ġpos": 812,
      "Ġspec": 813,
      "ived": 814,
      "Ġmade": 815,
      "ock": 816,
      "Ġrecord": 817,
      "Ġwrit": 818,
      "Ġsub": 819,
      "ĠCom": 820,
      "In": 821,
      "Ġday": 822,
      "Ġwhere": 823,
      "bum": 824,
      "ters": 825,
      "Ġ000": 826,
      "Ġform": 827,
      "Ġass": 828,
      "Ġep": 829,
      "Ġsecond": 830,
      "Ġsuch": 831,
      "Ġseason": 832,
      "Ġac": 833,
      "ool": 834,
      "Ġam": 835,
      "hen": 836,
      "hes": 837,
      "Ġsome": 838,
      "Ġfour": 839,
      "ral": 840,
      "aid": 841,
      "Ġlar": 842,
      "Ġpubl": 843,
      "Ġfilm": 844,
      "Ġthere": 845,
      "ision": 846,
      "round": 847,
      "Ġfollow": 848,
      "Ġcall": 849,
      "ike": 850,
      "ics": 851,
      "ning": 852,
      "Ġbefore": 853,
      "io": 854,
      "Ġalbum": 855,
      "Ġmus": 856,
      "Ġused": 857,
      "ode": 858,
      "ific": 859,
      "Ġyears": 860,
      "Ġind": 861,
      "Ġmov": 862,
      "Ġmon": 863,
      "ĠThis": 864,
      "iel": 865,
      "Ġtra": 866,
      "son": 867,
      "Ġdef": 868,
      "ll": 869,
      "Ġhigh": 870,
      "owever": 871,
      "ury": 872,
      "Ġepis": 873,
      "ual": 874,
      "Ġ/": 875,
      "ily": 876,
      "Ġ10": 877,
      "Ġent": 878,
      "ident": 879,
      "Ġbeing": 880,
      "ĠLe": 881,
      "Ġno": 882,
      "Ġsy": 883,
      "Ġdo": 884,
      "Ġsur": 885,
      "Ġ17": 886,
      "ten": 887,
      "ĠSp": 888,
      "aj": 889,
      "ank": 890,
      "Ġset": 891,
      "Ġloc": 892,
      "Ġexp": 893,
      "Ġthen": 894,
      "ained": 895,
      "ĠJo": 896,
      "Ġnumber": 897,
      "ek": 898,
      "rans": 899,
      "Ġpres": 900,
      "ĠAt": 901,
      "Ġfound": 902,
      "velop": 903,
      "Ġbl": 904,
      "uc": 905,
      "ĠBrit": 906,
      "air": 907,
      "ram": 908,
      "ines": 909,
      "ised": 910,
      "ale": 911,
      "other": 912,
      "ause": 913,
      "Ġwell": 914,
      "Ġinv": 915,
      "ik": 916,
      "ject": 917,
      "Ġsing": 918,
      "ars": 919,
      "Ġagainst": 920,
      "Ġbecame": 921,
      "Ġseries": 922,
      "Ġcharac": 923,
      "Ġ0": 924,
      "ĠSh": 925,
      "Ġshow": 926,
      "Ġmet": 927,
      "ĠUnited": 928,
      "ather": 929,
      "iver": 930,
      "Ġsever": 931,
      "ĠRe": 932,
      "Ġteam": 933,
      "Ġboth": 934,
      "its": 935,
      "any": 936,
      "Ġrep": 937,
      "ince": 938,
      "Ġadd": 939,
      "Ġincluding": 940,
      "ities": 941,
      "Ġcap": 942,
      "ise": 943,
      "Ġmain": 944,
      "Ġem": 945,
      "pen": 946,
      "Ġco": 947,
      "Ġrece": 948,
      "Ġback": 949,
      "Ġpol": 950,
      "ird": 951,
      "Ġ12": 952,
      "ĠAs": 953,
      "ower": 954,
      "ĠEng": 955,
      "enn": 956,
      "ier": 957,
      "Ġdid": 958,
      "ane": 959,
      "Ġdevelop": 960,
      "Ġlong": 961,
      "ired": 962,
      "ley": 963,
      "led": 964,
      "ĠInd": 965,
      "overn": 966,
      "ĠâĢĶ": 967,
      "ement": 968,
      "ures": 969,
      "ann": 970,
      "Ġcre": 971,
      "Ġmany": 972,
      "ting": 973,
      "though": 974,
      "Ġ16": 975,
      "Ġlead": 976,
      "ife": 977,
      "Ġknown": 978,
      "Ġ15": 979,
      "Ġepisode": 980,
      "ober": 981,
      "iet": 982,
      "erm": 983,
      "Ġship": 984,
      "ful": 985,
      "ins": 986,
      "ven": 987,
      "Ġcould": 988,
      "ield": 989,
      "Ġgo": 990,
      "Ġimp": 991,
      "uch": 992,
      "Ġbro": 993,
      "az": 994,
      "ative": 995,
      "Ġsm": 996,
      "Ġstud": 997,
      "elf": 998,
      "ared": 999,
      "Ġmin": 1000,
      "olog": 1001,
      "Ġperform": 1002,
      "Ġ198": 1003,
      "Ġtrans": 1004,
      "Ġcar": 1005,
      "Ġorig": 1006,
      "irect": 1007,
      "ĠShe": 1008,
      "ern": 1009,
      "ivers": 1010,
      "til": 1011,
      "Ġcomple": 1012,
      "Ġest": 1013,
      "ually": 1014,
      "Ġpop": 1015,
      "Ġ194": 1016,
      "Ġdesc": 1017,
      "Ġcontin": 1018,
      "emb": 1019,
      "ĠZ": 1020,
      "Ġdep": 1021,
      "ized": 1022,
      "Ġwar": 1023,
      "ah": 1024,
      "Ġdif": 1025,
      "Ġmill": 1026,
      "Ġseveral": 1027,
      "ĠSc": 1028,
      "ash": 1029,
      "Ġconc": 1030,
      "der": 1031,
      "ĠAmerican": 1032,
      "Ġob": 1033,
      "Ġsaid": 1034,
      "Ġair": 1035,
      "Ġrun": 1036,
      "Ġ11": 1037,
      "Ġinst": 1038,
      "rid": 1039,
      "ued": 1040,
      "ert": 1041,
      "Ġcalled": 1042,
      "Ġext": 1043,
      "Ġbegan": 1044,
      "ĠCon": 1045,
      "view": 1046,
      "ross": 1047,
      "Ġdist": 1048,
      "ĠJohn": 1049,
      "Ġany": 1050,
      "ute": 1051,
      "ople": 1052,
      "oot": 1053,
      "Ġnear": 1054,
      "ty": 1055,
      "iam": 1056,
      "my": 1057,
      "Ġpass": 1058,
      "aking": 1059,
      "Ġreturn": 1060,
      "ccess": 1061,
      "imes": 1062,
      "Ġdisc": 1063,
      "Ġsign": 1064,
      "Ġdesign": 1065,
      "ided": 1066,
      "Ġdown": 1067,
      "Ġmat": 1068,
      "Ġearly": 1069,
      "Ġprov": 1070,
      "Ġgener": 1071,
      "ĠWh": 1072,
      "Ġbel": 1073,
      "Ġuntil": 1074,
      "ments": 1075,
      "ouse": 1076,
      "Ġcrit": 1077,
      "Ġoffic": 1078,
      "une": 1079,
      "chool": 1080,
      "Ġeff": 1081,
      "Ã©": 1082,
      "Ġresp": 1083,
      "ium": 1084,
      "ĠWar": 1085,
      "ĠBritish": 1086,
      "Ġfin": 1087,
      "ĠMay": 1088,
      "Ġreleased": 1089,
      "Ġ197": 1090,
      "Ġmay": 1091,
      "Ġuse": 1092,
      "Ġmusic": 1093,
      "Ġown": 1094,
      "Ġfeat": 1095,
      "Ġinf": 1096,
      "Ġthese": 1097,
      "ĠCar": 1098,
      "ĠBl": 1099,
      "Ġcount": 1100,
      "Ġdirect": 1101,
      "Ġ196": 1102,
      "Ġdescrib": 1103,
      "pr": 1104,
      "ially": 1105,
      "ists": 1106,
      "ism": 1107,
      "Ġgroup": 1108,
      "ured": 1109,
      "xt": 1110,
      "Ġsame": 1111,
      "Ġalong": 1112,
      "Ġph": 1113,
      "ĠCl": 1114,
      "Ġconst": 1115,
      "Ġsim": 1116,
      "Ġland": 1117,
      "Ġart": 1118,
      "ĠAfter": 1119,
      "Ġmil": 1120,
      "Ġins": 1121,
      "cept": 1122,
      "ajor": 1123,
      "yp": 1124,
      "ull": 1125,
      "gg": 1126,
      "Ġfam": 1127,
      "Ġopen": 1128,
      "Ġprev": 1129,
      "Ġstart": 1130,
      "Ġgovern": 1131,
      "ution": 1132,
      "ange": 1133,
      "ible": 1134,
      "Ġsuccess": 1135,
      "osed": 1136,
      "stem": 1137,
      "Ġocc": 1138,
      "amed": 1139,
      "Ġ13": 1140,
      "ĠAust": 1141,
      "Ġpeople": 1142,
      "erv": 1143,
      "Ġcentury": 1144,
      "ĠCol": 1145,
      "Ġthough": 1146,
      "els": 1147,
      "ruct": 1148,
      "erman": 1149,
      "ets": 1150,
      "Ġpoin": 1151,
      "ĠStates": 1152,
      "erson": 1153,
      "ris": 1154,
      "Ġoper": 1155,
      "Ġhist": 1156,
      "Ġlike": 1157,
      "Ġmillion": 1158,
      "ove": 1159,
      "ina": 1160,
      "Ġbecause": 1161,
      "ants": 1162,
      "Ġmod": 1163,
      "Ġ%": 1164,
      "ĠAug": 1165,
      "Ġpo": 1166,
      "ĠSept": 1167,
      "Ġcharacter": 1168,
      "ĠAugust": 1169,
      "Ġ195": 1170,
      "Ġsmall": 1171,
      "ĠWorld": 1172,
      "ended": 1173,
      "anc": 1174,
      "Ġconsid": 1175,
      "ĠSeptember": 1176,
      "Ġaround": 1177,
      "ck": 1178,
      "ink": 1179,
      "Ġeach": 1180,
      "Ġbuild": 1181,
      "Ġ$": 1182,
      "ger": 1183,
      "rist": 1184,
      "Ġcity": 1185,
      "Ġsix": 1186,
      "Ġkm": 1187,
      "ales": 1188,
      "oss": 1189,
      "ĠFran": 1190,
      "Ġ14": 1191,
      "Ġwin": 1192,
      "Ġgu": 1193,
      "ĠIs": 1194,
      "Ġever": 1195,
      "Ġsupport": 1196,
      "aced": 1197,
      "Ġ191": 1198,
      "eb": 1199,
      "Ġele": 1200,
      "ĠUS": 1201,
      "ined": 1202,
      "Ġtook": 1203,
      "ĠAd": 1204,
      "Ġappear": 1205,
      "ax": 1206,
      "ged": 1207,
      "Ġgr": 1208,
      "Ġed": 1209,
      "Ġ193": 1210,
      "ys": 1211,
      "ĠThey": 1212,
      "Ġaut": 1213,
      "Ġattack": 1214,
      "aving": 1215,
      "Ġreport": 1216,
      "Ġfive": 1217,
      "Ġnorth": 1218,
      "ĠPl": 1219,
      "ĠJu": 1220,
      "ues": 1221,
      "ored": 1222,
      "tle": 1223,
      "ĠHowever": 1224,
      "Ġfinal": 1225,
      "urch": 1226,
      "Ġweek": 1227,
      "Ġstate": 1228,
      "Ġreceived": 1229,
      "Ġelect": 1230,
      "Ġarea": 1231,
      "Ġserv": 1232,
      "Ġvar": 1233,
      "Ġpublic": 1234,
      "Ġann": 1235,
      "Ġfollowing": 1236,
      "Ġhead": 1237,
      "Ġprom": 1238,
      "Ġclass": 1239,
      "Ġpartic": 1240,
      "Ġwill": 1241,
      "esp": 1242,
      "ilt": 1243,
      "ĠGerman": 1244,
      "Ġadv": 1245,
      "ring": 1246,
      "ĠQ": 1247,
      "ains": 1248,
      "ĠFor": 1249,
      "wards": 1250,
      "ately": 1251,
      "Ġmajor": 1252,
      "ives": 1253,
      "med": 1254,
      "get": 1255,
      "iving": 1256,
      "ility": 1257,
      "ĠDe": 1258,
      "ission": 1259,
      "ĠOct": 1260,
      "ording": 1261,
      "ĠAll": 1262,
      "Ġlarge": 1263,
      "Ġconf": 1264,
      "ient": 1265,
      "Ġsystem": 1266,
      "Ġtri": 1267,
      "Ġsingle": 1268,
      "yl": 1269,
      "ĠJune": 1270,
      "Ġsince": 1271,
      "ĠCan": 1272,
      "ĠNov": 1273,
      "ural": 1274,
      "ĠOctober": 1275,
      "Ġbo": 1276,
      "ble": 1277,
      "Ġbatt": 1278,
      "ĠJan": 1279,
      "ians": 1280,
      "Ġcontro": 1281,
      "ĠComm": 1282,
      "lish": 1283,
      "ional": 1284,
      "Ġmed": 1285,
      "ped": 1286,
      "raft": 1287,
      "ĠAustral": 1288,
      "Ġ]": 1289,
      "omet": 1290,
      "gin": 1291,
      "ling": 1292,
      "ats": 1293,
      "Ġmar": 1294,
      "ĠDec": 1295,
      "ner": 1296,
      "Ġref": 1297,
      "Ġhel": 1298,
      "ĠNorth": 1299,
      "ex": 1300,
      "ively": 1301,
      "ene": 1302,
      "sion": 1303,
      "Ġ[": 1304,
      "Ġleft": 1305,
      "Ġallow": 1306,
      "uary": 1307,
      "Ġlast": 1308,
      "Ġcamp": 1309,
      "row": 1310,
      "Ġworld": 1311,
      "Ġrest": 1312,
      "Ġbook": 1313,
      "Ġincre": 1314,
      "ĠJuly": 1315,
      "Ġold": 1316,
      "ection": 1317,
      "Ġdet": 1318,
      "aim": 1319,
      "por": 1320,
      "Ġjust": 1321,
      "Ġplayed": 1322,
      "ected": 1323,
      "raph": 1324,
      "ified": 1325,
      "Ġsl": 1326,
      "rote": 1327,
      "Ġmuch": 1328,
      "empt": 1329,
      "ret": 1330,
      "ball": 1331,
      "Ġdue": 1332,
      "ves": 1333,
      "ĠApr": 1334,
      "ĠApril": 1335,
      "ĠSouth": 1336,
      "Ġwhat": 1337,
      "..": 1338,
      "ĠMc": 1339,
      "Ġdescribed": 1340,
      "Ġline": 1341,
      "ĠYork": 1342,
      "Ġlit": 1343,
      "cl": 1344,
      "ean": 1345,
      "Ġspecies": 1346,
      "ple": 1347,
      "Ġanother": 1348,
      "ĠMarch": 1349,
      "ĠKing": 1350,
      "Ġtit": 1351,
      "Ġband": 1352,
      "ĠNovember": 1353,
      "Ġmonth": 1354,
      "Ġdiffer": 1355,
      "Ġif": 1356,
      "ĠBe": 1357,
      "Ġstr": 1358,
      "ically": 1359,
      "Ġwrote": 1360,
      "Ġ25": 1361,
      "Ġgovernment": 1362,
      "Ġshort": 1363,
      "ont": 1364,
      "Ġsouth": 1365,
      "ĠEu": 1366,
      "ital": 1367,
      "ently": 1368,
      "ody": 1369,
      "Ġschool": 1370,
      "ĠPh": 1371,
      "Ġbased": 1372,
      "Ġ30": 1373,
      "Ġrequ": 1374,
      "ĠJanuary": 1375,
      "Ġevent": 1376,
      "Ġexpl": 1377,
      "Ġvis": 1378,
      "Ġplace": 1379,
      "alk": 1380,
      "ĠBro": 1381,
      "Ġnow": 1382,
      "ague": 1383,
      "Ġ...": 1384,
      "Ġappro": 1385,
      "Ġthird": 1386,
      "Ġprog": 1387,
      "Ġlife": 1388,
      "inc": 1389,
      "Ġname": 1390,
      "ĠDecember": 1391,
      "Ġdr": 1392,
      "Ġtrack": 1393,
      "ĠGu": 1394,
      "hest": 1395,
      "Ġdeath": 1396,
      "Ġbre": 1397,
      "rand": 1398,
      "Ġreview": 1399,
      "oman": 1400,
      "Ġincluded": 1401,
      "ilar": 1402,
      "ony": 1403,
      "Ġnamed": 1404,
      "Ġposs": 1405,
      "Ġpower": 1406,
      "ideo": 1407,
      "Ġled": 1408,
      "Ġturn": 1409,
      "Ġport": 1410,
      "ĠPro": 1411,
      "Ġwon": 1412,
      "Ġprot": 1413,
      "Ġtown": 1414,
      "iod": 1415,
      "Ġmark": 1416,
      "Ġcare": 1417,
      "Ġhome": 1418,
      "Ġattempt": 1419,
      "Ġstory": 1420,
      "ĠII": 1421,
      "ages": 1422,
      "Ġright": 1423,
      "Ġgames": 1424,
      "Ġbuilt": 1425,
      "ister": 1426,
      "rent": 1427,
      "Ġway": 1428,
      "Ġdam": 1429,
      "apan": 1430,
      "ĠÂ": 1431,
      "Ġsold": 1432,
      "Ġorgan": 1433,
      "eng": 1434,
      "Ġfamily": 1435,
      "Ġprevious": 1436,
      "rew": 1437,
      "rench": 1438,
      "ĠJapan": 1439,
      "Ġalthough": 1440,
      "Ġtop": 1441,
      "Ġbelie": 1442,
      "ched": 1443,
      "Ġmake": 1444,
      "Ġkill": 1445,
      "urther": 1446,
      "alf": 1447,
      "Ġhand": 1448,
      "Ġoriginal": 1449,
      "Ġeven": 1450,
      "Ġterm": 1451,
      "Ġdem": 1452,
      "Ġestab": 1453,
      "Ġpar": 1454,
      "Ġvery": 1455,
      "Ġlate": 1456,
      "Ġperson": 1457,
      "by": 1458,
      "Ġbest": 1459,
      "Ġmen": 1460,
      "ĠEurop": 1461,
      "Ġwithin": 1462,
      "Ġstill": 1463,
      "ĠChrist": 1464,
      "ĠMan": 1465,
      "avy": 1466,
      "Ġcommand": 1467,
      "ience": 1468,
      "Ġthose": 1469,
      "ĠHer": 1470,
      "ached": 1471,
      "Ġview": 1472,
      "ham": 1473,
      "omin": 1474,
      "Ġeng": 1475,
      "ards": 1476,
      "Ġmemb": 1477,
      "Ġ100": 1478,
      "ature": 1479,
      "iversity": 1480,
      "Ġstorm": 1481,
      "ĠHar": 1482,
      "ĠPr": 1483,
      "ides": 1484,
      "Ġiss": 1485,
      "ulation": 1486,
      "ĠHis": 1487,
      "tain": 1488,
      "ention": 1489,
      "Ġeffect": 1490,
      "Ġ192": 1491,
      "ropical": 1492,
      "ĠBr": 1493,
      "enc": 1494,
      "Ġleg": 1495,
      "Ġperiod": 1496,
      "ior": 1497,
      "ĠFrench": 1498,
      "af": 1499,
      "Ġopp": 1500,
      "Ġrepl": 1501,
      "ridge": 1502,
      "ness": 1503,
      "Ġnext": 1504,
      "Ġreal": 1505,
      "ĠWill": 1506,
      "hor": 1507,
      "Ġgun": 1508,
      "Ġsk": 1509,
      "iven": 1510,
      "Ġtyp": 1511,
      "Ġgreat": 1512,
      "ense": 1513,
      "itions": 1514,
      "ĠEd": 1515,
      "ĠMin": 1516,
      "mp": 1517,
      "ented": 1518,
      "gy": 1519,
      "ne": 1520,
      "au": 1521,
      "Ġdeb": 1522,
      "ĠRo": 1523,
      "Ġchild": 1524,
      "Ġcour": 1525,
      "Ġmag": 1526,
      "ott": 1527,
      "hel": 1528,
      "Ġexper": 1529,
      "ruction": 1530,
      "uss": 1531,
      "ĠPar": 1532,
      "Ġcur": 1533,
      "Ġprop": 1534,
      "ĠWest": 1535,
      "idd": 1536,
      "Ġaddition": 1537,
      "Ġrole": 1538,
      "aken": 1539,
      "lu": 1540,
      "Ġvideo": 1541,
      "Ġ2010": 1542,
      "ĠWhen": 1543,
      "itary": 1544,
      "ival": 1545,
      "ĠGe": 1546,
      "ead": 1547,
      "sh": 1548,
      "oci": 1549,
      "elt": 1550,
      "Ġdest": 1551,
      "uted": 1552,
      "isted": 1553,
      "riend": 1554,
      "ivision": 1555,
      "ances": 1556,
      "ech": 1557,
      "oon": 1558,
      "self": 1559,
      "Ġhum": 1560,
      "Ġpolit": 1561,
      "ĠBy": 1562,
      "Ġsimilar": 1563,
      "Ġinit": 1564,
      "ĠNational": 1565,
      "reen": 1566,
      "Ġfew": 1567,
      "lev": 1568,
      "ences": 1569,
      "read": 1570,
      "Ġheld": 1571,
      "Ġtw": 1572,
      "Ġformer": 1573,
      "Ġmembers": 1574,
      "Ġ21": 1575,
      "Ġdays": 1576,
      "Ġconsidered": 1577,
      "Ġlocal": 1578,
      "Ġcontinued": 1579,
      "Ġcaus": 1580,
      "Ġoften": 1581,
      "Ġcame": 1582,
      "eter": 1583,
      "ĠWe": 1584,
      "atic": 1585,
      "Ġcover": 1586,
      "ĠCount": 1587,
      "Ġfre": 1588,
      "Ġamong": 1589,
      "bo": 1590,
      "aster": 1591,
      "Ġspe": 1592,
      "ĠEngland": 1593,
      "Ġdra": 1594,
      "ĠBar": 1595,
      "Ġ&": 1596,
      "ms": 1597,
      "Ġresult": 1598,
      "ĠAnd": 1599,
      "akes": 1600,
      "ried": 1601,
      "ae": 1602,
      "ories": 1603,
      "Ġsent": 1604,
      "ĠRiver": 1605,
      "Ġwater": 1606,
      "que": 1607,
      "ĠOr": 1608,
      "ps": 1609,
      "Ġstand": 1610,
      "ĠAm": 1611,
      "Ġwind": 1612,
      "Ġjoin": 1613,
      "Ġhowever": 1614,
      "Ġsay": 1615,
      "dom": 1616,
      "aged": 1617,
      "ĠFl": 1618,
      "Ġmoved": 1619,
      "Ġclaim": 1620,
      "ebru": 1621,
      "Ġgen": 1622,
      "Ġdel": 1623,
      "Ġevery": 1624,
      "line": 1625,
      "side": 1626,
      "Ġav": 1627,
      "ung": 1628,
      "let": 1629,
      "ize": 1630,
      "ĠMich": 1631,
      "Ġcr": 1632,
      "Ġplayer": 1633,
      "ĠFebru": 1634,
      "ĠFebruary": 1635,
      "urs": 1636,
      "sp": 1637,
      "Ġconv": 1638,
      "augh": 1639,
      "Ġside": 1640,
      "Ġversion": 1641,
      "Ġwithout": 1642,
      "Ġmy": 1643,
      "ĠCity": 1644,
      "ract": 1645,
      "Ġyou": 1646,
      "Ġdifferent": 1647,
      "ls": 1648,
      "par": 1649,
      "Ġfurther": 1650,
      "Ġbeh": 1651,
      "ested": 1652,
      "tal": 1653,
      "ering": 1654,
      "ops": 1655,
      "Ġ2008": 1656,
      "ĠDuring": 1657,
      "Ġhalf": 1658,
      "Ġ2009": 1659,
      "Ġtrad": 1660,
      "Ġpublished": 1661,
      "ches": 1662,
      "ĠCanad": 1663,
      "estern": 1664,
      "ĠThere": 1665,
      "Ġarr": 1666,
      "Ġ24": 1667,
      "Ġstar": 1668,
      "Ġpost": 1669,
      "Ġequ": 1670,
      "Ġfore": 1671,
      "ole": 1672,
      "Ġlevel": 1673,
      "Ġrelease": 1674,
      "ĠEnglish": 1675,
      "bs": 1676,
      "Ġtake": 1677,
      "Ġ22": 1678,
      "atter": 1679,
      "Ġorder": 1680,
      "Ġsoc": 1681,
      "ots": 1682,
      "Ġ23": 1683,
      "Ġimport": 1684,
      "Ġ2007": 1685,
      "rodu": 1686,
      "Ġwritten": 1687,
      "Ġtem": 1688,
      "aining": 1689,
      "Ġroad": 1690,
      "ai": 1691,
      "ator": 1692,
      "ĠBo": 1693,
      "ese": 1694,
      "Ġprof": 1695,
      "yn": 1696,
      "Ġbecome": 1697,
      "ĠMus": 1698,
      "ler": 1699,
      "Ġhaving": 1700,
      "ĠGener": 1701,
      "ĠNo": 1702,
      "ology": 1703,
      "Ġbas": 1704,
      "Ġsugg": 1705,
      "Ġrecorded": 1706,
      "Ġrepres": 1707,
      "iety": 1708,
      "Ġ2011": 1709,
      "Ġcommon": 1710,
      "Ġproduced": 1711,
      "reet": 1712,
      "Ġfar": 1713,
      "Ġant": 1714,
      "Ġreturned": 1715,
      "Ġfoot": 1716,
      "ney": 1717,
      "ĠCal": 1718,
      "Ġlow": 1719,
      "Ġcor": 1720,
      "Ġgave": 1721,
      "irc": 1722,
      "Ġpoint": 1723,
      "amb": 1724,
      "ĠAf": 1725,
      "Ġless": 1726,
      "ĠChar": 1727,
      "Ġstrong": 1728,
      "ondon": 1729,
      "Ġinvol": 1730,
      "urric": 1731,
      "Ġinflu": 1732,
      "Ġcommun": 1733,
      "Ġparticular": 1734,
      "ĠLondon": 1735,
      "Ġvict": 1736,
      "ones": 1737,
      "ours": 1738,
      "Ġcomb": 1739,
      "ĠWilliam": 1740,
      "ograph": 1741,
      "ĠPark": 1742,
      "esc": 1743,
      "ices": 1744,
      "Ġnever": 1745,
      "Ġcompany": 1746,
      "aul": 1747,
      "ript": 1748,
      "Ġtotal": 1749,
      "ration": 1750,
      "Ġpress": 1751,
      "Ġadm": 1752,
      "Ġappe": 1753,
      "hem": 1754,
      "outher": 1755,
      "int": 1756,
      "Ġfield": 1757,
      "anted": 1758,
      "ests": 1759,
      "app": 1760,
      "Ġchang": 1761,
      "Ġlarg": 1762,
      "Ġcountry": 1763,
      "Ġcapt": 1764,
      "Ġfind": 1765,
      "sequ": 1766,
      "Ġclub": 1767,
      "Ġsound": 1768,
      "outhern": 1769,
      "Ġrefer": 1770,
      "Ġprogram": 1771,
      "Ġsol": 1772,
      "Ġhig": 1773,
      "Ġeight": 1774,
      "aur": 1775,
      "Ġmatch": 1776,
      "oung": 1777,
      "Ġhistory": 1778,
      "ining": 1779,
      "ĠCent": 1780,
      "Ġposition": 1781,
      "Ġwest": 1782,
      "roy": 1783,
      "Ġreported": 1784,
      "Ġlight": 1785,
      "echn": 1786,
      "Ġneed": 1787,
      "yle": 1788,
      "arn": 1789,
      "ĠX": 1790,
      "ront": 1791,
      "ĠBatt": 1792,
      "On": 1793,
      "ĠOne": 1794,
      "Ġ2012": 1795,
      "Ġlaw": 1796,
      "Ġinclude": 1797,
      "Ġwent": 1798,
      "levision": 1799,
      "ief": 1800,
      "Ġmilitary": 1801,
      "ĠGeneral": 1802,
      "Ġaff": 1803,
      "astern": 1804,
      "omen": 1805,
      "osp": 1806,
      "Ġproject": 1807,
      "Ġplan": 1808,
      "ploy": 1809,
      "ĠAir": 1810,
      "Ġgood": 1811,
      "Ġsomet": 1812,
      "Ġorigin": 1813,
      "Ġbuilding": 1814,
      "Ġhouse": 1815,
      "Ġeast": 1816,
      "Ġcareer": 1817,
      "Ġcompet": 1818,
      "Ġsongs": 1819,
      "cess": 1820,
      "Ġer": 1821,
      "ailed": 1822,
      "aign": 1823,
      "ford": 1824,
      "Ġter": 1825,
      "ably": 1826,
      "Ġsqu": 1827,
      "Ġfun": 1828,
      "ccording": 1829,
      "lear": 1830,
      "craft": 1831,
      "ising": 1832,
      "Ġ190": 1833,
      "Ġships": 1834,
      "used": 1835,
      "ĠEl": 1836,
      "Ġhow": 1837,
      "Ġproduction": 1838,
      "ĠDav": 1839,
      "Ġfriend": 1840,
      "Ġstated": 1841,
      "Ġla": 1842,
      "Ġ26": 1843,
      "Ġ50": 1844,
      "Ġusing": 1845,
      "Ġgiven": 1846,
      "ĠAss": 1847,
      "Ġnort": 1848,
      "Ġauthor": 1849,
      "ery": 1850,
      "eder": 1851,
      "Ġchart": 1852,
      "aff": 1853,
      "ĠNe": 1854,
      "Ġred": 1855,
      "ĠComp": 1856,
      "ĠUniversity": 1857,
      "Ġsurv": 1858,
      "ĠGeor": 1859,
      "Ġannoun": 1860,
      "hing": 1861,
      "ĠMon": 1862,
      "Ġstat": 1863,
      "Ġcritic": 1864,
      "Ġread": 1865,
      "atch": 1866,
      "ape": 1867,
      "Ġtro": 1868,
      "ream": 1869,
      "Ġmaking": 1870,
      "urricane": 1871,
      "Ġsit": 1872,
      "ĠHigh": 1873,
      "Ġfact": 1874,
      "Ġisland": 1875,
      "Ġord": 1876,
      "ges": 1877,
      "Ġshould": 1878,
      "Ġhimself": 1879,
      "Ġrad": 1880,
      "rick": 1881,
      "omb": 1882,
      "ĠAfric": 1883,
      "Ġfather": 1884,
      "ĠAb": 1885,
      "ĠTr": 1886,
      "Ġdevelopment": 1887,
      "Ġnoted": 1888,
      "ĠThese": 1889,
      "Ġ2006": 1890,
      "Ġ28": 1891,
      "ĠCounty": 1892,
      "Ġlost": 1893,
      "Ġide": 1894,
      "Ġtitle": 1895,
      "con": 1896,
      "Ġke": 1897,
      "Ġfire": 1898,
      "Ġdefe": 1899,
      "Ġtimes": 1900,
      "ampions": 1901,
      "Ġlim": 1902,
      "rem": 1903,
      "utes": 1904,
      "Ġobs": 1905,
      "rie": 1906,
      "ĠEx": 1907,
      "Ġft": 1908,
      "Ġten": 1909,
      "oyal": 1910,
      "ither": 1911,
      "ensive": 1912,
      "ĠCo": 1913,
      "Ġacross": 1914,
      "aces": 1915,
      "Ġblack": 1916,
      "lished": 1917,
      "itive": 1918,
      "Ġsignific": 1919,
      "ald": 1920,
      "ington": 1921,
      "Ġfelt": 1922,
      "ĠCor": 1923,
      "Ġnov": 1924,
      "play": 1925,
      "ĠState": 1926,
      "Ġpra": 1927,
      "ffic": 1928,
      "Ġdeveloped": 1929,
      "Ġ189": 1930,
      "Ġofficial": 1931,
      "fic": 1932,
      "Ġel": 1933,
      "Ġbus": 1934,
      "Ġpopular": 1935,
      "Ġpat": 1936,
      "ĠAlthough": 1937,
      "ille": 1938,
      "Ġremained": 1939,
      "Ġhistor": 1940,
      "ĠWith": 1941,
      "ĠIndian": 1942,
      "Ġ40": 1943,
      "Ġintrodu": 1944,
      "Ġcy": 1945,
      "Ġintern": 1946,
      "Ġcontrol": 1947,
      "ks": 1948,
      "Ġcampaign": 1949,
      "Ġtour": 1950,
      "Ġground": 1951,
      "Ġrank": 1952,
      "Ġestablished": 1953,
      "iness": 1954,
      "Ġcast": 1955,
      "iment": 1956,
      "work": 1957,
      "Ġwhite": 1958,
      "Ġmonths": 1959,
      "itted": 1960,
      "Ġfem": 1961,
      "Ġson": 1962,
      "ĠJames": 1963,
      "Ġbr": 1964,
      "hern": 1965,
      "Ġthroughout": 1966,
      "isc": 1967,
      "Ġareas": 1968,
      "Ġaircraft": 1969,
      "ries": 1970,
      "Ġ27": 1971,
      "Ġdied": 1972,
      "Ġsw": 1973,
      "ope": 1974,
      "Ġwriting": 1975,
      "ĠArmy": 1976,
      "ĠAng": 1977,
      "Ġ2013": 1978,
      "Ġpolitical": 1979,
      "ĠAmerica": 1980,
      "Ġdestroy": 1981,
      "ee": 1982,
      "ĠSw": 1983,
      "ĠGl": 1984,
      "Ġaway": 1985,
      "Ġpresent": 1986,
      "Ġsuccessful": 1987,
      "Ġcond": 1988,
      "most": 1989,
      "ĠSec": 1990,
      "Ġget": 1991,
      "Ġseen": 1992,
      "Ġreached": 1993,
      "odes": 1994,
      "ĠPer": 1995,
      "Ġtelevision": 1996,
      "Ġwid": 1997,
      "Ġste": 1998,
      "ression": 1999,
      "Ġaward": 2000,
      "Ġ29": 2001,
      "Ġtechn": 2002,
      "alth": 2003,
      "ĠSm": 2004,
      "Ġlist": 2005,
      "Ġdecl": 2006,
      "Ġvarious": 2007,
      "abor": 2008,
      "Ġnational": 2009,
      "vers": 2010,
      "oll": 2011,
      "ĠâĢĻ": 2012,
      "Ġcharacters": 2013,
      "aval": 2014,
      "Ġrelations": 2015,
      "Ġtropical": 2016,
      "Ġaver": 2017,
      "Ġproduc": 2018,
      "rest": 2019,
      "Ġdiscover": 2020,
      "ana": 2021,
      "gr": 2022,
      "Ġpopulation": 2023,
      "Ġlittle": 2024,
      "Ġservice": 2025,
      "cast": 2026,
      "ressed": 2027,
      "Ġcross": 2028,
      "Ġseven": 2029,
      "Ġanim": 2030,
      "Ġprim": 2031,
      "field": 2032,
      "ination": 2033,
      "ĠSte": 2034,
      "idence": 2035,
      "ĠAustralia": 2036,
      "Ġage": 2037,
      "Ġdiv": 2038,
      "Ġsum": 2039,
      "imately": 2040,
      "Ġbegin": 2041,
      "Ġmid": 2042,
      "ĠLeague": 2043,
      "ox": 2044,
      "na": 2045,
      "ĠJack": 2046,
      "ways": 2047,
      "Ġforces": 2048,
      "Ġlet": 2049,
      "Ġsignificant": 2050,
      "Ġtoo": 2051,
      "Ġrev": 2052,
      "Ġplayers": 2053,
      "Ġfull": 2054,
      "Ġgl": 2055,
      "ords": 2056,
      "for": 2057,
      "Ġenc": 2058,
      "ublic": 2059,
      "Ġpromot": 2060,
      "ization": 2061,
      "Ġserved": 2062,
      "Ġcreated": 2063,
      "ency": 2064,
      "Ġconstruction": 2065,
      "Ġstarted": 2066,
      "alt": 2067,
      "Ġfav": 2068,
      "ĠDivision": 2069,
      "Ġgrow": 2070,
      "ett": 2071,
      "Ġmanag": 2072,
      "ases": 2073,
      "Ġmeet": 2074,
      "Ġchildren": 2075,
      "Ġcirc": 2076,
      "elling": 2077,
      "ĠWhile": 2078,
      "Ġval": 2079,
      "ray": 2080,
      "Ġthought": 2081,
      "less": 2082,
      "iting": 2083,
      "Ġve": 2084,
      "Ġsee": 2085,
      "Ġearl": 2086,
      "iber": 2087,
      "Ġarch": 2088,
      "Ġprocess": 2089,
      "reek": 2090,
      "Ġfeet": 2091,
      "Ġoccur": 2092,
      "olution": 2093,
      "Ġbattle": 2094,
      "Ġcost": 2095,
      "Ġstruct": 2096,
      "ĠRober": 2097,
      "asing": 2098,
      "Ġput": 2099,
      "Ġforce": 2100,
      "aint": 2101,
      "Ġimportant": 2102,
      "Ġnight": 2103,
      "Ġrange": 2104,
      "Ġmiles": 2105,
      "ĠJapanese": 2106,
      "Ġmm": 2107,
      "Ġstyle": 2108,
      "Ġvol": 2109,
      "ael": 2110,
      "ster": 2111,
      "Ġcoll": 2112,
      "vent": 2113,
      "Ġbody": 2114,
      "Ġfollowed": 2115,
      "Ġperformed": 2116,
      "Ġformed": 2117,
      "Ġbecom": 2118,
      "Ġcop": 2119,
      "Ġstation": 2120,
      "Ġbroad": 2121,
      "Ġsite": 2122,
      "ĠSim": 2123,
      "oph": 2124,
      "ĠAccording": 2125,
      "ament": 2126,
      "iers": 2127,
      "Ġmot": 2128,
      "Ġcolle": 2129,
      "Ġentire": 2130,
      "Ġable": 2131,
      "Ġlocated": 2132,
      "Ġmodern": 2133,
      "iec": 2134,
      "Ġlook": 2135,
      "eth": 2136,
      "ought": 2137,
      "Ġdoes": 2138,
      "Ġcult": 2139,
      "Ġhit": 2140,
      "ivil": 2141,
      "ison": 2142,
      "Ġnon": 2143,
      "Ġtoget": 2144,
      "ĠRep": 2145,
      "ĠEast": 2146,
      "Ġtogether": 2147,
      "Ġspecial": 2148,
      "ampionship": 2149,
      "Ġyoung": 2150,
      "Ġconn": 2151,
      "ĠReg": 2152,
      "ĠPort": 2153,
      "Ġimpro": 2154,
      "ogn": 2155,
      "Ġperformance": 2156,
      "Ġkilled": 2157,
      "Ġident": 2158,
      "ky": 2159,
      "Ã¡": 2160,
      "enced": 2161,
      "ĠRec": 2162,
      "ĠBlack": 2163,
      "Ġbar": 2164,
      "Ġhelp": 2165,
      "Ġfle": 2166,
      "ĠRich": 2167,
      "ĠPres": 2168,
      "ĠTe": 2169,
      "Ġannounced": 2170,
      "Ġball": 2171,
      "Ġactiv": 2172,
      "Ġcompleted": 2173,
      "ertain": 2174,
      "ĠEar": 2175,
      "Ġredu": 2176,
      "omp": 2177,
      "ument": 2178,
      "lected": 2179,
      "ality": 2180,
      "ades": 2181,
      "Ġagre": 2182,
      "Ġlik": 2183,
      "Ġ188": 2184,
      "Ġdecided": 2185,
      "Ġcoun": 2186,
      "Ġround": 2187,
      "Ġmember": 2188,
      "Ġmiss": 2189,
      "Ġaud": 2190,
      "Ġpri": 2191,
      "rict": 2192,
      "ids": 2193,
      "Ġgeneral": 2194,
      "ĠRoad": 2195,
      "ĠMo": 2196,
      "Ġfac": 2197,
      "urb": 2198,
      "Ġ2005": 2199,
      "Ġcaused": 2200,
      "itar": 2201,
      "Ġothers": 2202,
      "Ġarm": 2203,
      "Ġtaken": 2204,
      "aly": 2205,
      "Ġinstead": 2206,
      "Ġrock": 2207,
      "adron": 2208,
      "ĠFrance": 2209,
      "Ġmix": 2210,
      "ills": 2211,
      "Ġscored": 2212,
      "Ġloss": 2213,
      "omm": 2214,
      "ĠCro": 2215,
      "ying": 2216,
      "oice": 2217,
      "Ġbase": 2218,
      "ned": 2219,
      "ĠIsland": 2220,
      "Ġstri": 2221,
      "Ġ186": 2222,
      "Ġappeared": 2223,
      "day": 2224,
      "antic": 2225,
      "Ġcoast": 2226,
      "reg": 2227,
      "Ġleast": 2228,
      "sc": 2229,
      "wood": 2230,
      "rought": 2231,
      "ĠSer": 2232,
      "ĠPol": 2233,
      "ĠYou": 2234,
      "ample": 2235,
      "iron": 2236,
      "ĠBill": 2237,
      "ĠSup": 2238,
      "ĠSy": 2239,
      "ivid": 2240,
      "ceed": 2241,
      "duct": 2242,
      "Ġpeak": 2243,
      "ĠAct": 2244,
      "ecut": 2245,
      "unk": 2246,
      "ĠRoyal": 2247,
      "Ġarg": 2248,
      "Ġwomen": 2249,
      "ells": 2250,
      "rac": 2251,
      "ming": 2252,
      "ĠStreet": 2253,
      "Ġcrew": 2254,
      "ficult": 2255,
      "epend": 2256,
      "Ġcut": 2257,
      "itch": 2258,
      "orse": 2259,
      "Ġfig": 2260,
      "Ġ2004": 2261,
      "Ġadded": 2262,
      "Ġlive": 2263,
      "Ġknow": 2264,
      "Ġcomment": 2265,
      "aching": 2266,
      "Ġdifficult": 2267,
      "Ġcreat": 2268,
      "emy": 2269,
      "Ġplaying": 2270,
      "Ġinsp": 2271,
      "Ġbehind": 2272,
      "Ġsepar": 2273,
      "Ġfeatures": 2274,
      "Ġhuman": 2275,
      "Ġhy": 2276,
      "Ġappoin": 2277,
      "ĠEurope": 2278,
      "ĠMed": 2279,
      "azine": 2280,
      "Ġborn": 2281,
      "here": 2282,
      "icated": 2283,
      "Ġmater": 2284,
      "aper": 2285,
      "Ġsaw": 2286,
      "Ġonce": 2287,
      "ĠAtl": 2288,
      "Ġopened": 2289,
      "Ġupon": 2290,
      "Ġnovel": 2291,
      "Ġpred": 2292,
      "bert": 2293,
      "Ġrelationship": 2294,
      "Ġmer": 2295,
      "Ġeventually": 2296,
      "pped": 2297,
      "Ġfif": 2298,
      "Ġrespect": 2299,
      "Ġallowed": 2300,
      "ength": 2301,
      "rap": 2302,
      "Ġvill": 2303,
      "Ġinform": 2304,
      "ica": 2305,
      "Ġevents": 2306,
      "Ġregion": 2307,
      "Ġgenerally": 2308,
      "ico": 2309,
      "conom": 2310,
      "Ġtre": 2311,
      "ements": 2312,
      "ked": 2313,
      "iddle": 2314,
      "Ġ31": 2315,
      "lo": 2316,
      "Ġroute": 2317,
      "ĠAustralian": 2318,
      "Ġcou": 2319,
      "ara": 2320,
      "Ġtradition": 2321,
      "Ġhold": 2322,
      "umb": 2323,
      "Ġproble": 2324,
      "Ġcritics": 2325,
      "ĠMe": 2326,
      "ĠMor": 2327,
      "Ġrather": 2328,
      "ĠMad": 2329,
      "ĠGeorge": 2330,
      "ĠPhil": 2331,
      "Ġestim": 2332,
      "Ġlack": 2333,
      "ĠIntern": 2334,
      "Ġ!": 2335,
      "ĠHouse": 2336,
      "rison": 2337,
      "Ġlaun": 2338,
      "Ġalmost": 2339,
      "Ġworked": 2340,
      "Ġprofess": 2341,
      "medi": 2342,
      "chie": 2343,
      "Ġfourth": 2344,
      "Ġclos": 2345,
      "ĠTo": 2346,
      "Ġweeks": 2347,
      "head": 2348,
      "ĠSqu": 2349,
      "Ġreb": 2350,
      "Ġruns": 2351,
      "Ġhon": 2352,
      "Ġtravel": 2353,
      "Ġvoc": 2354,
      "ĠPe": 2355,
      "Ġprovided": 2356,
      "cil": 2357,
      "men": 2358,
      "Ġrecogn": 2359,
      "Ġsuff": 2360,
      "oring": 2361,
      "ending": 2362,
      "Ġsubsequ": 2363,
      "ĠMcC": 2364,
      "ĠKingdom": 2365,
      "Ġren": 2366,
      "Ġoriginally": 2367,
      "Ġfront": 2368,
      "ĠBut": 2369,
      "Ġemploy": 2370,
      "ata": 2371,
      "iding": 2372,
      "board": 2373,
      "Ġz": 2374,
      "Ġmult": 2375,
      "Ġmass": 2376,
      "Ġindivid": 2377,
      "Ġpoints": 2378,
      "ators": 2379,
      "ĠDu": 2380,
      "Ġleading": 2381,
      "Ġaction": 2382,
      "Ġbrought": 2383,
      "aps": 2384,
      "Ġfall": 2385,
      "ects": 2386,
      "Ġassoci": 2387,
      "ays": 2388,
      "Ġhost": 2389,
      "Ġstage": 2390,
      "Ġcase": 2391,
      "ule": 2392,
      "Ġrace": 2393,
      "Ġunits": 2394,
      "ush": 2395,
      "nder": 2396,
      "Ġbelieved": 2397,
      "Ġclose": 2398,
      "Ġaccept": 2399,
      "Ġce": 2400,
      "Ġregular": 2401,
      "Ġesc": 2402,
      "ama": 2403,
      "orts": 2404,
      "Ġlength": 2405,
      "Ġrepresent": 2406,
      "ential": 2407,
      "Ġexample": 2408,
      "igned": 2409,
      "ĠOld": 2410,
      "Ġbrother": 2411,
      "ological": 2412,
      "Ġaverage": 2413,
      "Ġdou": 2414,
      "Ġguns": 2415,
      "Ġplaced": 2416,
      "Ġ500": 2417,
      "arch": 2418,
      "Ġlo": 2419,
      "Ġfoc": 2420,
      "ĠSchool": 2421,
      "ĠCompany": 2422,
      "Ġwanted": 2423,
      "Ġeither": 2424,
      "Ġworking": 2425,
      "Ġfight": 2426,
      "ĠGro": 2427,
      "Ġexc": 2428,
      "Ġfund": 2429,
      "Ġmaterial": 2430,
      "uel": 2431,
      "ĠKe": 2432,
      "go": 2433,
      "Ġ185": 2434,
      "artment": 2435,
      "Ġsouthern": 2436,
      "ened": 2437,
      "ĠChurch": 2438,
      "ĠPlay": 2439,
      "ĠSan": 2440,
      "iff": 2441,
      "ĠChristian": 2442,
      "ĠDavid": 2443,
      "Ġneg": 2444,
      "ollowing": 2445,
      "Ġflight": 2446,
      "Ġsour": 2447,
      "ĠRed": 2448,
      "Ġdev": 2449,
      "Ġ2014": 2450,
      "iol": 2451,
      "Ġwall": 2452,
      "Ġmother": 2453,
      "Ġly": 2454,
      "Ġ2000": 2455,
      "Ġsequ": 2456,
      "Ġworks": 2457,
      "to": 2458,
      "Ġchurch": 2459,
      "Ġeconom": 2460,
      "rag": 2461,
      "urg": 2462,
      "Ġ187": 2463,
      "uk": 2464,
      "ĠRoman": 2465,
      "ĠEm": 2466,
      "ĠCap": 2467,
      "ĠHen": 2468,
      "ĠPal": 2469,
      "ius": 2470,
      "ĠSong": 2471,
      "Ġ2003": 2472,
      "Ġsoon": 2473,
      "Ġfeatured": 2474,
      "Ġwife": 2475,
      "ĠMiss": 2476,
      "Ġvot": 2477,
      "ĠCanada": 2478,
      "ze": 2479,
      "angu": 2480,
      "Ġdesigned": 2481,
      "ĠMex": 2482,
      "Ġquick": 2483,
      "Ġengine": 2484,
      "espite": 2485,
      "cent": 2486,
      "istic": 2487,
      "ĠThom": 2488,
      "Ġfinished": 2489,
      "Ġfell": 2490,
      "ĠPart": 2491,
      "Ġindust": 2492,
      "rated": 2493,
      "Ġheavy": 2494,
      "Ġdesp": 2495,
      "Ġpresident": 2496,
      "Ġinvest": 2497,
      "ĠQu": 2498,
      "Ġcurrent": 2499,
      "iction": 2500,
      "Ġsaying": 2501,
      "Ġvictory": 2502,
      "Ġtowards": 2503,
      "Ġarmy": 2504,
      "den": 2505,
      "onst": 2506,
      "oul": 2507,
      "ĠÂ°": 2508,
      "Ġbird": 2509,
      "ully": 2510,
      "ino": 2511,
      "ĠMil": 2512,
      "Ġinterest": 2513,
      "Ġdamage": 2514,
      "ulf": 2515,
      "Ġbusiness": 2516,
      "com": 2517,
      "anish": 2518,
      "Ġhurricane": 2519,
      "aves": 2520,
      "Ġstru": 2521,
      "Ġcommer": 2522,
      "Ġparticularly": 2523,
      "Ġopening": 2524,
      "Ġhours": 2525,
      "Ġking": 2526,
      "ourn": 2527,
      "Ġ2015": 2528,
      "ems": 2529,
      "inist": 2530,
      "Ġsocial": 2531,
      "ores": 2532,
      "Ġsuper": 2533,
      "Ġprob": 2534,
      "Ġ35": 2535,
      "Ġpract": 2536,
      "After": 2537,
      "ude": 2538,
      "Ġgoal": 2539,
      "lic": 2540,
      "ĠLa": 2541,
      "ishing": 2542,
      "Ġnar": 2543,
      "fall": 2544,
      "co": 2545,
      "Ġill": 2546,
      "ĠHam": 2547,
      "Ġquar": 2548,
      "Ġfree": 2549,
      "Ġinj": 2550,
      "ĠIr": 2551,
      "ĠVir": 2552,
      "Ġquest": 2553,
      "Ġpriv": 2554,
      "Ġmph": 2555,
      "ago": 2556,
      "ply": 2557,
      "ĠHall": 2558,
      "Ġresul": 2559,
      "Ġscene": 2560,
      "ĠBrown": 2561,
      "Ġlargest": 2562,
      "ving": 2563,
      "ship": 2564,
      "Ġsex": 2565,
      "ump": 2566,
      "Ġresear": 2567,
      "Ġpossible": 2568,
      "Ġjoined": 2569,
      "ĠMichael": 2570,
      "west": 2571,
      "ĠQue": 2572,
      "Ġavail": 2573,
      "ique": 2574,
      "rain": 2575,
      "ĠGame": 2576,
      "ĠPresident": 2577,
      "Ġregard": 2578,
      "ĠEuropean": 2579,
      "Ġmeas": 2580,
      "Ġrespons": 2581,
      "Ġtroops": 2582,
      "erous": 2583,
      "arm": 2584,
      "Ġinvolved": 2585,
      "Ġelectric": 2586,
      "ĠSch": 2587,
      "Ġreplaced": 2588,
      "Ġreve": 2589,
      "ĠSome": 2590,
      "iforn": 2591,
      "Ġey": 2592,
      "Ġparticip": 2593,
      "aren": 2594,
      "BC": 2595,
      "Ġgrad": 2596,
      "ference": 2597,
      "Ġpassed": 2598,
      "uter": 2599,
      "Ġhighway": 2600,
      "Ġhard": 2601,
      "ios": 2602,
      "aut": 2603,
      "enes": 2604,
      "igan": 2605,
      "Ġrail": 2606,
      "oor": 2607,
      "Ġachie": 2608,
      "Ġbill": 2609,
      "Ġoffice": 2610,
      "ĠAg": 2611,
      "rab": 2612,
      "Ġremov": 2613,
      "Ġinitially": 2614,
      "ĠCaliforn": 2615,
      "ĠRobert": 2616,
      "atural": 2617,
      "Ġelements": 2618,
      "Ġproper": 2619,
      "Ġearlier": 2620,
      "hic": 2621,
      "Ġmi": 2622,
      "Ġrelig": 2623,
      "Ġpreviously": 2624,
      "ask": 2625,
      "ĠGr": 2626,
      "Ġhighest": 2627,
      "Ġtreat": 2628,
      "sel": 2629,
      "Ġwinds": 2630,
      "Ġinn": 2631,
      "Ġexist": 2632,
      "Ġcentral": 2633,
      "ĠRepublic": 2634,
      "Ġstars": 2635,
      "stit": 2636,
      "anned": 2637,
      "Ġincreased": 2638,
      "rey": 2639,
      "alion": 2640,
      "Ġmust": 2641,
      "Ġwhom": 2642,
      "Ġpraised": 2643,
      "Ġobject": 2644,
      "ĠThomas": 2645,
      "Ġnomin": 2646,
      "Ġcontrib": 2647,
      "ĠCalifornia": 2648,
      "Ġpur": 2649,
      "Ġthreat": 2650,
      "ĠMag": 2651,
      "Ġterrit": 2652,
      "ĠMy": 2653,
      "iation": 2654,
      "Ġtaking": 2655,
      "Ġhous": 2656,
      "ĠMac": 2657,
      "ateg": 2658,
      "Ġfeel": 2659,
      "Ġfootball": 2660,
      "Ġenough": 2661,
      "Ġstudy": 2662,
      "Ġappearance": 2663,
      "atin": 2664,
      "liam": 2665,
      "asion": 2666,
      "Ġforced": 2667,
      "Ġoutside": 2668,
      "hib": 2669,
      "ĠGreat": 2670,
      "Ġrap": 2671,
      "Ġdirected": 2672,
      "cial": 2673,
      "ĠWil": 2674,
      "Ġdisp": 2675,
      "uck": 2676,
      "leg": 2677,
      "Ġlove": 2678,
      "Ġ2001": 2679,
      "Ġdirector": 2680,
      "Ġrequired": 2681,
      "itte": 2682,
      "ĠWash": 2683,
      "Ġcourt": 2684,
      "erved": 2685,
      "ĠPaul": 2686,
      "Ġfemale": 2687,
      "etwork": 2688,
      "cher": 2689,
      "ville": 2690,
      "ecess": 2691,
      "ĠBer": 2692,
      "Ġusually": 2693,
      "Ġ45": 2694,
      "Ġnorthern": 2695,
      "Ġmove": 2696,
      "heast": 2697,
      "ergy": 2698,
      "Ġthink": 2699,
      "ift": 2700,
      "ĠVal": 2701,
      "Ġended": 2702,
      "Ġmarket": 2703,
      "off": 2704,
      "acy": 2705,
      "Ġ2002": 2706,
      "Ġhom": 2707,
      "mb": 2708,
      "van": 2709,
      "Ġche": 2710,
      "ĠHot": 2711,
      "Ġstop": 2712,
      "Ġtransfer": 2713,
      "ĠAngel": 2714,
      "Ġphys": 2715,
      "Ġeastern": 2716,
      "anding": 2717,
      "ĠRichard": 2718,
      "ĠWashington": 2719,
      "ground": 2720,
      "Ġpers": 2721,
      "Ġtold": 2722,
      "ĠWhite": 2723,
      "be": 2724,
      "Ġsurf": 2725,
      "Ġpolice": 2726,
      "ecutive": 2727,
      "Ġhop": 2728,
      "Ġmean": 2729,
      "ĠTwo": 2730,
      "Ġchange": 2731,
      "wer": 2732,
      "ĠGrand": 2733,
      "Ġsometimes": 2734,
      "Ġbomb": 2735,
      "Ġnine": 2736,
      "Ġvehic": 2737,
      "ilities": 2738,
      "Ġspent": 2739,
      "Ġconstruct": 2740,
      "Ġissue": 2741,
      "Ġdebut": 2742,
      "eal": 2743,
      "Ġparty": 2744,
      "Ġcenter": 2745,
      "ĠÂ£": 2746,
      "liament": 2747,
      "olf": 2748,
      "ĠDep": 2749,
      "ĠNavy": 2750,
      "Ġlangu": 2751,
      "uation": 2752,
      "lying": 2753,
      "ĠDon": 2754,
      "ification": 2755,
      "usion": 2756,
      "Ġriver": 2757,
      "Ġbreak": 2758,
      "arily": 2759,
      "Ġ60": 2760,
      "Ġaccording": 2761,
      "Ġevidence": 2762,
      "Ġfrequ": 2763,
      "Ġbi": 2764,
      "ĠTom": 2765,
      "Ġlower": 2766,
      "Ġ36": 2767,
      "ĠLou": 2768,
      "Ġrul": 2769,
      "Ġdespite": 2770,
      "of": 2771,
      "aded": 2772,
      "ĠHol": 2773,
      "ĠFirst": 2774,
      "Ġimmedi": 2775,
      "Ġflag": 2776,
      "Ġarrived": 2777,
      "val": 2778,
      "Ġshot": 2779,
      "Ġpositive": 2780,
      "itt": 2781,
      "ĠBritain": 2782,
      "Ġpercent": 2783,
      "Ġliter": 2784,
      "Ġavailable": 2785,
      "ĠBest": 2786,
      "ĠIndia": 2787,
      "atory": 2788,
      "Ġesp": 2789,
      "ĠTown": 2790,
      "Ġgold": 2791,
      "ĠBra": 2792,
      "ĠOl": 2793,
      "ÃŃ": 2794,
      "Ġpot": 2795,
      "Ġabove": 2796,
      "oid": 2797,
      "Ġsize": 2798,
      "ula": 2799,
      "orial": 2800,
      "ĠNor": 2801,
      "oke": 2802,
      "Ġtraining": 2803,
      "Ġbeg": 2804,
      "ability": 2805,
      "key": 2806,
      "Ġbetter": 2807,
      "Ġconduct": 2808,
      "Ġstudio": 2809,
      "ĠOther": 2810,
      "Ġ80": 2811,
      "Ġestimated": 2812,
      "ĠInternational": 2813,
      "ĠVirgin": 2814,
      "oms": 2815,
      "Ġinterview": 2816,
      "ha": 2817,
      "Ġwhose": 2818,
      "Ġturned": 2819,
      "rup": 2820,
      "Ġsil": 2821,
      "Ġdro": 2822,
      "osition": 2823,
      "ites": 2824,
      "elled": 2825,
      "now": 2826,
      "ĠBel": 2827,
      "ĠUK": 2828,
      "Ġap": 2829,
      "Ġsection": 2830,
      "Ġpiec": 2831,
      "Ġcome": 2832,
      "reng": 2833,
      "Ġidea": 2834,
      "ma": 2835,
      "ĠGod": 2836,
      "Ġbeginning": 2837,
      "me": 2838,
      "Ġunc": 2839,
      "ĠTimes": 2840,
      "Ġgoing": 2841,
      "Ġclaimed": 2842,
      "Ġclear": 2843,
      "Ġfut": 2844,
      "ĠGovern": 2845,
      "Ġviol": 2846,
      "Ġsigned": 2847,
      "Ġmagazine": 2848,
      "ĠMary": 2849,
      "ĠLove": 2850,
      "Ġtrib": 2851,
      "ston": 2852,
      "antry": 2853,
      "ĠCharles": 2854,
      "Ġawarded": 2855,
      "Ġop": 2856,
      "Ġcru": 2857,
      "Ġcivil": 2858,
      "ĠSing": 2859,
      "aker": 2860,
      "ibility": 2861,
      "ĠSpanish": 2862,
      "ĠCarol": 2863,
      "Ġslow": 2864,
      "ĠCast": 2865,
      "aled": 2866,
      "Ġgive": 2867,
      "osing": 2868,
      "Ġpast": 2869,
      "ĠMark": 2870,
      "ĠRuss": 2871,
      "ulated": 2872,
      "Ġlyric": 2873,
      "lymp": 2874,
      "Ġstates": 2875,
      "bor": 2876,
      "nes": 2877,
      "Ġpay": 2878,
      "lin": 2879,
      "ĠCour": 2880,
      "Ġitself": 2881,
      "ready": 2882,
      "unt": 2883,
      "Ġ1990": 2884,
      "Ġrecording": 2885,
      "Ġeduc": 2886,
      "ĠMart": 2887,
      "ĠOlymp": 2888,
      "Ġcommission": 2889,
      "Ġintroduced": 2890,
      "ĠHenry": 2891,
      "ida": 2892,
      "ĠRh": 2893,
      "ĠMusic": 2894,
      "Ġfort": 2895,
      "Ġabs": 2896,
      "Ġspecific": 2897,
      "stant": 2898,
      "Ġexcept": 2899,
      "edy": 2900,
      "Ġstreng": 2901,
      "ĠDr": 2902,
      "ession": 2903,
      "Ġdraw": 2904,
      "rian": 2905,
      "ption": 2906,
      "ĠBattle": 2907,
      "Ġcycl": 2908,
      "mar": 2909,
      "leb": 2910,
      "rying": 2911,
      "ĠBow": 2912,
      "Ġordered": 2913,
      "Ġindepend": 2914,
      "Ġcal": 2915,
      "aring": 2916,
      "Ġphot": 2917,
      "Ġpoor": 2918,
      "Ġdon": 2919,
      "Ġscore": 2920,
      "ĠAc": 2921,
      "ountain": 2922,
      "Ġmight": 2923,
      "ĠViet": 2924,
      "Ġ70": 2925,
      "Ġcomplet": 2926,
      "Ġkeep": 2927,
      "lor": 2928,
      "Ġbridge": 2929,
      "Ġflood": 2930,
      "Ġdeal": 2931,
      "ĠColle": 2932,
      "Ġtype": 2933,
      "rief": 2934,
      "ittee": 2935,
      "Ġwestern": 2936,
      "etic": 2937,
      "ĠAtlantic": 2938,
      "As": 2939,
      "Ġwood": 2940,
      "Ġstaff": 2941,
      "raw": 2942,
      "Ġcontract": 2943,
      "Ġwriter": 2944,
      "eum": 2945,
      "ĠÃ": 2946,
      "ĠSen": 2947,
      "ĠMont": 2948,
      "Ġsubject": 2949,
      "itz": 2950,
      "iter": 2951,
      "amer": 2952,
      "ĠDespite": 2953,
      "Ġincreasing": 2954,
      "Ġinternational": 2955,
      "Ġwat": 2956,
      "ecially": 2957,
      "igade": 2958,
      "ĠVict": 2959,
      "Ġparts": 2960,
      "Ġreviews": 2961,
      "Ġpen": 2962,
      "ĠSam": 2963,
      "Ġremaining": 2964,
      "Ġacqu": 2965,
      "het": 2966,
      "Ġmem": 2967,
      "Ġappointed": 2968,
      "asc": 2969,
      "Ġalready": 2970,
      "Ġcred": 2971,
      "ĠPenn": 2972,
      "ander": 2973,
      "Ġadditional": 2974,
      "ĠAssoci": 2975,
      "ume": 2976,
      "ĠThat": 2977,
      "uff": 2978,
      "ĠRock": 2979,
      "ands": 2980,
      "Ġlarger": 2981,
      "ki": 2982,
      "inct": 2983,
      "Ġsuggested": 2984,
      "Ġtest": 2985,
      "irth": 2986,
      "Ġproduct": 2987,
      "lands": 2988,
      "Ġtransport": 2989,
      "Ġfailed": 2990,
      "aries": 2991,
      "Ġ1980": 2992,
      "ĠFrank": 2993,
      "Ġespecially": 2994,
      "Ġlatter": 2995,
      "Ġminutes": 2996,
      "asons": 2997,
      "Ġkey": 2998,
      "Ġgroups": 2999,
      "Ġcommunity": 3000,
      "ĠSl": 3001,
      "Ġemb": 3002,
      "Ġdeterm": 3003,
      "ĠStar": 3004,
      "Ġbuildings": 3005,
      "change": 3006,
      "ĠCup": 3007,
      "ĠCong": 3008,
      "aughter": 3009,
      "ĠUnion": 3010,
      "Ġbecoming": 3011,
      "enth": 3012,
      "Ġlab": 3013,
      "ĠChampionship": 3014,
      "Ġintended": 3015,
      "ranch": 3016,
      "Ġdisplay": 3017,
      "Ġsurround": 3018,
      "Ġshows": 3019,
      "Ġoccup": 3020,
      "Ġpain": 3021,
      "ĠBen": 3022,
      "Ġsoldiers": 3023,
      "hile": 3024,
      "Ġden": 3025,
      "Ġnuc": 3026,
      "Ġcarried": 3027,
      "Ġfr": 3028,
      "Ġfood": 3029,
      "Ġasked": 3030,
      "berg": 3031,
      "Ġapprox": 3032,
      "Ġquickly": 3033,
      "ĠTex": 3034,
      "Ġ183": 3035,
      "back": 3036,
      "ĠMet": 3037,
      "Ġcontr": 3038,
      "Ġdiss": 3039,
      "Ġremain": 3040,
      "Ġcertain": 3041,
      "ipp": 3042,
      "Ġremains": 3043,
      "Ġcapital": 3044,
      "usp": 3045,
      "ĠPac": 3046,
      "ĠChic": 3047,
      "Ġepisodes": 3048,
      "reland": 3049,
      "Ġcommercial": 3050,
      "Ġspeed": 3051,
      "Ġprior": 3052,
      "Ġstay": 3053,
      "ga": 3054,
      "Ġcomplex": 3055,
      "Ġcomplete": 3056,
      "ĠHill": 3057,
      "Ġ184": 3058,
      "airs": 3059,
      "Ġimm": 3060,
      "Ġmoney": 3061,
      "Ġanti": 3062,
      "ospital": 3063,
      "ournal": 3064,
      "Ġpil": 3065,
      "ership": 3066,
      "Ġyard": 3067,
      "Ġpressure": 3068,
      "ĠStud": 3069,
      "ging": 3070,
      "ows": 3071,
      "Ġassist": 3072,
      "Ġmanager": 3073,
      "Ġfuture": 3074,
      "porary": 3075,
      "ĠIreland": 3076,
      "Ġbrief": 3077,
      "lex": 3078,
      "ĠDay": 3079,
      "Ġestablish": 3080,
      "Ġbroadcast": 3081,
      "Ġquarter": 3082,
      "Ġfail": 3083,
      "ises": 3084,
      "Ġoperations": 3085,
      "Ġconsider": 3086,
      "rd": 3087,
      "Ġdoc": 3088,
      "ado": 3089,
      "Ġbank": 3090,
      "Ġsales": 3091,
      "Ġlimited": 3092,
      "Ġconclud": 3093,
      "Ġofficers": 3094,
      "Ġdestroyed": 3095,
      "ror": 3096,
      "tr": 3097,
      "ĠMost": 3098,
      "Ġwithd": 3099,
      "ĠPeter": 3100,
      "Ġintens": 3101,
      "Ġstudents": 3102,
      "Ġnearly": 3103,
      "Ġ1970": 3104,
      "Ġbreed": 3105,
      "acing": 3106,
      "ĠMal": 3107,
      "ĠAfrica": 3108,
      "Ġ?": 3109,
      "asy": 3110,
      "ĠIm": 3111,
      "Ġprem": 3112,
      "Ġwinning": 3113,
      "Ġproposed": 3114,
      "ĠFrom": 3115,
      "Ġsyn": 3116,
      "Ġbur": 3117,
      "Ġshoot": 3118,
      "Ġmetal": 3119,
      "ĠPacific": 3120,
      "ĠChicago": 3121,
      "AA": 3122,
      "ĠSoc": 3123,
      "Ġelection": 3124,
      "tained": 3125,
      "ĠBay": 3126,
      "Ġdi": 3127,
      "inent": 3128,
      "ĠPet": 3129,
      "ĠFle": 3130,
      "Ġanc": 3131,
      "Ġ1960": 3132,
      "Ġtor": 3133,
      "unn": 3134,
      "Ġconver": 3135,
      "Ġmusical": 3136,
      "ĠMichigan": 3137,
      "ĠVietn": 3138,
      "uing": 3139,
      "onse": 3140,
      "ĠHow": 3141,
      "Ġenv": 3142,
      "Ġentered": 3143,
      "Ġvisit": 3144,
      "isl": 3145,
      "idents": 3146,
      "gypt": 3147,
      "ĠVictor": 3148,
      "Ġsupported": 3149,
      "ĠFlor": 3150,
      "Ġtemper": 3151,
      "Ġdiscovered": 3152,
      "ĠVirginia": 3153,
      "NA": 3154,
      "Ġcompl": 3155,
      "Ġradio": 3156,
      "ĠSmith": 3157,
      "Ġwide": 3158,
      "Ġlines": 3159,
      "ĠHa": 3160,
      "Ġleague": 3161,
      "Ġaccess": 3162,
      "Ġmixed": 3163,
      "Ġscreen": 3164,
      "Ġdecision": 3165,
      "Ġprobably": 3166,
      "Ġtrade": 3167,
      "Ġheav": 3168,
      "Ġ32": 3169,
      "Ġlonger": 3170,
      "Ġfleet": 3171,
      "han": 3172,
      "Ġthus": 3173,
      "ĠRad": 3174,
      "Ġsummer": 3175,
      "gen": 3176,
      "Ġpit": 3177,
      "ĠWestern": 3178,
      "abit": 3179,
      "Ġ300": 3180,
      "Ġconcern": 3181,
      "Ġprivate": 3182,
      "olic": 3183,
      "Ġconcept": 3184,
      "ĠFort": 3185,
      "Ġens": 3186,
      "Ġminor": 3187,
      "Ġhelped": 3188,
      "ĠBillboard": 3189,
      "Ã³": 3190,
      "Ġchanged": 3191,
      "uit": 3192,
      "reak": 3193,
      "Ġyards": 3194,
      "Ġ75": 3195,
      "Ġraised": 3196,
      "atively": 3197,
      "eway": 3198,
      "inese": 3199,
      "umn": 3200,
      "teen": 3201,
      "Ġwoman": 3202,
      "Ġreact": 3203,
      "imum": 3204,
      "Ġsett": 3205,
      "ĠMexico": 3206,
      "ĠChinese": 3207,
      "Ġrelated": 3208,
      "ĠScott": 3209,
      "Ġagreed": 3210,
      "Ġdone": 3211,
      "ĠSquadron": 3212,
      "ĠJust": 3213,
      "alled": 3214,
      "Ġrain": 3215,
      "Ġmultip": 3216,
      "Ġresearch": 3217,
      "ĠCourt": 3218,
      "ĠPat": 3219,
      "thing": 3220,
      "Ġmostly": 3221,
      "Ġstructure": 3222,
      "Ġlyrics": 3223,
      "ĠEgypt": 3224,
      "ĠForce": 3225,
      "incip": 3226,
      "cer": 3227,
      "Ġdate": 3228,
      "Ġliving": 3229,
      "Ġleaving": 3230,
      "Ġblock": 3231,
      "Ġcounty": 3232,
      "Ġcopies": 3233,
      "ĠCollege": 3234,
      "ĠAward": 3235,
      "ronic": 3236,
      "Ġchanges": 3237,
      "Ġfocus": 3238,
      "la": 3239,
      "light": 3240,
      "Ġdram": 3241,
      "Ġdefeated": 3242,
      "ĠRes": 3243,
      "Ġapproximately": 3244,
      "Ġself": 3245,
      "Ġarran": 3246,
      "hester": 3247,
      "Ġeffects": 3248,
      "Ġforest": 3249,
      "Ġ1999": 3250,
      "Ġboard": 3251,
      "ography": 3252,
      "Ġhigher": 3253,
      "down": 3254,
      "Ã¶": 3255,
      "Ġcause": 3256,
      "Ġbig": 3257,
      "Ġpurch": 3258,
      "apt": 3259,
      "Ġprovide": 3260,
      "iant": 3261,
      "Ġsat": 3262,
      "ĠFeder": 3263,
      "Ġcolon": 3264,
      "Ġlikely": 3265,
      "ires": 3266,
      "Ġcat": 3267,
      "Ġemer": 3268,
      "ĠCoun": 3269,
      "ĠEr": 3270,
      "Ġadop": 3271,
      "Ġrunning": 3272,
      "ota": 3273,
      "Ġsmaller": 3274,
      "Ġcaptured": 3275,
      "iser": 3276,
      "rav": 3277,
      "ears": 3278,
      "Ġexperience": 3279,
      "Ġadminist": 3280,
      "gl": 3281,
      "atives": 3282,
      "Ġmach": 3283,
      "Ġnetwork": 3284,
      "ĠGames": 3285,
      "Ġresponse": 3286,
      "ĠCanadian": 3287,
      "arent": 3288,
      "bers": 3289,
      "Ġbow": 3290,
      "ĠOver": 3291,
      "Ġthemsel": 3292,
      "Ġcreate": 3293,
      "Ġthemselves": 3294,
      "Ġoverall": 3295,
      "Ġmarried": 3296,
      "ena": 3297,
      "Ġbring": 3298,
      "Ġenergy": 3299,
      "ĠAfrican": 3300,
      "ĠBC": 3301,
      "Ġvir": 3302,
      "Ġsch": 3303,
      "Ġspace": 3304,
      "ounds": 3305,
      "Ġequip": 3306,
      "Ġinfluence": 3307,
      "Ġlearn": 3308,
      "Ġterms": 3309,
      "Ġsusp": 3310,
      "ĠBur": 3311,
      "ounted": 3312,
      "Ġfeature": 3313,
      "ĠLos": 3314,
      "ples": 3315,
      "Ġgoals": 3316,
      "During": 3317,
      "Ġcm": 3318,
      "Ġmale": 3319,
      "Ġmedia": 3320,
      "Ġpersonal": 3321,
      "Ġpark": 3322,
      "Ġlived": 3323,
      "Ġgod": 3324,
      "osaur": 3325,
      "orses": 3326,
      "Ġindic": 3327,
      "Ġdistrib": 3328,
      "Ġattacks": 3329,
      "ĠAssociation": 3330,
      "enty": 3331,
      "Ġnatural": 3332,
      "Ġ33": 3333,
      "Ġincludes": 3334,
      "Ġdiscuss": 3335,
      "ij": 3336,
      "Ġdark": 3337,
      "ĠIf": 3338,
      "ĠGermany": 3339,
      "Ġranked": 3340,
      "Ġlanguage": 3341,
      "Ġtons": 3342,
      "Ġdead": 3343,
      "Ġrare": 3344,
      "ĠCroat": 3345,
      "uals": 3346,
      "Ġtax": 3347,
      "Ġdeep": 3348,
      "Ġoccurred": 3349,
      "cing": 3350,
      "fect": 3351,
      "uf": 3352,
      "ĠRout": 3353,
      "ĠOt": 3354,
      "itor": 3355,
      "iles": 3356,
      "Ġprofessional": 3357,
      "ĠInter": 3358,
      "Ġquestion": 3359,
      "band": 3360,
      "Ġder": 3361,
      "iest": 3362,
      "ĠMer": 3363,
      "Ġalways": 3364,
      "ĠGold": 3365,
      "Ġ38": 3366,
      "force": 3367,
      "Ġsurface": 3368,
      "St": 3369,
      "Ġult": 3370,
      "itude": 3371,
      "Ġpow": 3372,
      "Ġnames": 3373,
      "iring": 3374,
      "ĠGo": 3375,
      "ĠUp": 3376,
      "Ġcompared": 3377,
      "Ġsal": 3378,
      "Ġran": 3379,
      "Ġfavor": 3380,
      "Ġfifth": 3381,
      "eck": 3382,
      "ĠDan": 3383,
      "Ġsea": 3384,
      "Ġcompan": 3385,
      "Ġjud": 3386,
      "Ġlargely": 3387,
      "Ġcer": 3388,
      "Ġlay": 3389,
      "ĠGreen": 3390,
      "Ġproblems": 3391,
      "Ġceleb": 3392,
      "aire": 3393,
      "Ġburn": 3394,
      "ĠSir": 3395,
      "Ġlink": 3396,
      "imate": 3397,
      "ĠWood": 3398,
      "ĠLake": 3399,
      "uments": 3400,
      "Ġkil": 3401,
      "undred": 3402,
      "ĠCross": 3403,
      "aches": 3404,
      "Ġvers": 3405,
      "Ġprimary": 3406,
      "Ġtouch": 3407,
      "Ġdomin": 3408,
      "ĠFollowing": 3409,
      "Ġweap": 3410,
      "Ġconsist": 3411,
      "Ġcombat": 3412,
      "Ġexam": 3413,
      "Ġtourn": 3414,
      "Ġshown": 3415,
      "Ġvoice": 3416,
      "ĠSecond": 3417,
      "iqu": 3418,
      "Ġmur": 3419,
      "Ġmakes": 3420,
      "ĠSom": 3421,
      "ĠBoy": 3422,
      "cean": 3423,
      "ĠParty": 3424,
      "hold": 3425,
      "Ġface": 3426,
      "Ġchall": 3427,
      "Ġjob": 3428,
      "Ġfilms": 3429,
      "Ġ179": 3430,
      "ously": 3431,
      "Ġincrease": 3432,
      "Ġflow": 3433,
      "Ġhorse": 3434,
      "Ġdeg": 3435,
      "Ġ37": 3436,
      "Ġupper": 3437,
      "ĠTexas": 3438,
      "ĠFlorida": 3439,
      "Ġstatus": 3440,
      "Ġvillage": 3441,
      "Ġinformation": 3442,
      "Ġinvestig": 3443,
      "Al": 3444,
      "Äĩ": 3445,
      "omer": 3446,
      "Ġgir": 3447,
      "Ġplanned": 3448,
      "Ġleave": 3449,
      "ĠSea": 3450,
      "Ġunderst": 3451,
      "Ġteams": 3452,
      "ĠRoute": 3453,
      "atre": 3454,
      "Ġdig": 3455,
      "ĠTV": 3456,
      "izing": 3457,
      "ĠGar": 3458,
      "Ġscenes": 3459,
      "tered": 3460,
      "illa": 3461,
      "Ġmoving": 3462,
      "Ġdamaged": 3463,
      "Ġplant": 3464,
      "ĠItal": 3465,
      "Ġmovement": 3466,
      "Ġreferred": 3467,
      "ĠIts": 3468,
      "aily": 3469,
      "Ġcountries": 3470,
      "Ġcourse": 3471,
      "Ġmeeting": 3472,
      "rate": 3473,
      "umed": 3474,
      "ĠScot": 3475,
      "Ġinspired": 3476,
      "Ġtar": 3477,
      "Ġdaughter": 3478,
      "ĠJim": 3479,
      "Ġwhether": 3480,
      "Ġ90": 3481,
      "Ġfans": 3482,
      "ĠSal": 3483,
      "ĠBig": 3484,
      "Ġearned": 3485,
      "Ġour": 3486,
      "ĠWales": 3487,
      "Ġexperi": 3488,
      "oned": 3489,
      "Ġcoin": 3490,
      "ili": 3491,
      "ĠMa": 3492,
      "Ġsubsequently": 3493,
      "Ġsen": 3494,
      "Ġbirth": 3495,
      "ĠEv": 3496,
      "Ġuns": 3497,
      "Ġcontem": 3498,
      "Ġfinally": 3499,
      "Ġinitial": 3500,
      "ih": 3501,
      "oly": 3502,
      "ective": 3503,
      "Ġrights": 3504,
      "kin": 3505,
      "Ġwalk": 3506,
      "isions": 3507,
      "imin": 3508,
      "Ġlocation": 3509,
      "Ġlaunched": 3510,
      "ros": 3511,
      "Ġmom": 3512,
      "ĠAlex": 3513,
      "Ġroom": 3514,
      "Ġmajority": 3515,
      "order": 3516,
      "Ġsomething": 3517,
      "yr": 3518,
      "Ġsect": 3519,
      "utch": 3520,
      "Ġnewsp": 3521,
      "Ġimmediately": 3522,
      "ties": 3523,
      "Ġsem": 3524,
      "ĠPri": 3525,
      "quar": 3526,
      "ona": 3527,
      "Ġforward": 3528,
      "thlet": 3529,
      "ĠLater": 3530,
      "ĠJew": 3531,
      "Ġrat": 3532,
      "Ġappears": 3533,
      "joy": 3534,
      "not": 3535,
      "Ġreally": 3536,
      "urt": 3537,
      "ĠArt": 3538,
      "Ġbattles": 3539,
      "Ġcand": 3540,
      "ari": 3541,
      "road": 3542,
      "agon": 3543,
      "Ġselected": 3544,
      "cript": 3545,
      "Ġpolic": 3546,
      "ĠBattalion": 3547,
      "Ġcell": 3548,
      "uth": 3549,
      "Ġmetres": 3550,
      "ĠCenter": 3551,
      "Ġslight": 3552,
      "Ġissued": 3553,
      "ĠCouncil": 3554,
      "isher": 3555,
      "Ġmention": 3556,
      "Ġlisted": 3557,
      "Ġcollect": 3558,
      "Ġaccount": 3559,
      "Ġremoved": 3560,
      "ĠMill": 3561,
      "ĠMany": 3562,
      "Ġgot": 3563,
      "Ġstories": 3564,
      "ĠLord": 3565,
      "Ġ180": 3566,
      "Ġmeth": 3567,
      "Ġconstructed": 3568,
      "Ġnorm": 3569,
      "ĠMr": 3570,
      "Ġrecords": 3571,
      "Ġcommented": 3572,
      "ĠWal": 3573,
      "ĠHighway": 3574,
      "ĠDel": 3575,
      "ĠJenn": 3576,
      "Ġaband": 3577,
      "Ġfinanc": 3578,
      "Ġreligious": 3579,
      "vert": 3580,
      "Ġplot": 3581,
      "ylvan": 3582,
      "Ġaccomp": 3583,
      "Ġcritical": 3584,
      "Ġneeded": 3585,
      "Ġindividual": 3586,
      "vin": 3587,
      "Ġ1950": 3588,
      "Ġtracks": 3589,
      "ĠEarth": 3590,
      "ironment": 3591,
      "Ġbene": 3592,
      "ĠTor": 3593,
      "ĠGil": 3594,
      "ĠSun": 3595,
      "Ġgrand": 3596,
      "ibly": 3597,
      "Ġextended": 3598,
      "uz": 3599,
      "Ġboy": 3600,
      "ĠEver": 3601,
      "Ġamb": 3602,
      "Ġguitar": 3603,
      "Ġrespectively": 3604,
      "uries": 3605,
      "Ġkind": 3606,
      "Ġwhole": 3607,
      "oo": 3608,
      "illed": 3609,
      "Ġmeant": 3610,
      "Ġword": 3611,
      "Ġoffered": 3612,
      "Ġtheme": 3613,
      "orning": 3614,
      "Ġpurp": 3615,
      "well": 3616,
      "Ġhot": 3617,
      "ĠTer": 3618,
      "ĠCreek": 3619,
      "ĠLaw": 3620,
      "Ġvia": 3621,
      "ĠUnder": 3622,
      "Ġyet": 3623,
      "Ġnumbers": 3624,
      "ares": 3625,
      "Ġcentre": 3626,
      "Ġportray": 3627,
      "Ġcontains": 3628,
      "Ġinstr": 3629,
      "Ġofficer": 3630,
      "Ġconfir": 3631,
      "Ġbooks": 3632,
      "ĠIII": 3633,
      "Ġstandard": 3634,
      "uated": 3635,
      "Ġ-": 3636,
      "Ġtalk": 3637,
      "ĠApp": 3638,
      "ĠBoth": 3639,
      "riage": 3640,
      "Ġunit": 3641,
      "Ġ42": 3642,
      "Ġelected": 3643,
      "ĠCentral": 3644,
      "inn": 3645,
      "Ġ182": 3646,
      "Ġending": 3647,
      "ĠEnter": 3648,
      "Ġsettle": 3649,
      "Ġproducer": 3650,
      "odies": 3651,
      "Ġclosed": 3652,
      "Ġcontroll": 3653,
      "ĠJackson": 3654,
      "Ġsuffered": 3655,
      "ĠHist": 3656,
      "oper": 3657,
      "ibr": 3658,
      "aught": 3659,
      "Ġsaf": 3660,
      "ĠMass": 3661,
      "urity": 3662,
      "ĠRob": 3663,
      "ĠNY": 3664,
      "Ġprec": 3665,
      "Ġconstit": 3666,
      "ĠLouis": 3667,
      "At": 3668,
      "Ġri": 3669,
      "Ġhealth": 3670,
      "Ġ1995": 3671,
      "ĠJohnson": 3672,
      "Ġartist": 3673,
      "Ġrefused": 3674,
      "Ġfriends": 3675,
      "Ġnature": 3676,
      "ify": 3677,
      "ounts": 3678,
      "Ġ41": 3679,
      "Ġservices": 3680,
      "Ġattempted": 3681,
      "Ġrapid": 3682,
      "ĠPenns": 3683,
      "iÄĩ": 3684,
      "erve": 3685,
      "Ġhundred": 3686,
      "ĠAwards": 3687,
      "ĠUN": 3688,
      "ĠInf": 3689,
      "Ġ47": 3690,
      "Ġdisapp": 3691,
      "Ġnumerous": 3692,
      "ĠCarolina": 3693,
      "Th": 3694,
      "reater": 3695,
      "Ġmiddle": 3696,
      "Ġgiving": 3697,
      "umber": 3698,
      "ension": 3699,
      "Ġthick": 3700,
      "ĠSouthern": 3701,
      "Ġrate": 3702,
      "Ġplans": 3703,
      "Ġunable": 3704,
      "Ġactive": 3705,
      "ĠZeal": 3706,
      "Ġsuggest": 3707,
      "Ġvehicles": 3708,
      "ortun": 3709,
      "Ġ49": 3710,
      "Ġminute": 3711,
      "ĠVer": 3712,
      "Ġattention": 3713,
      "ĠRev": 3714,
      "arents": 3715,
      "cy": 3716,
      "ĠCamp": 3717,
      "ria": 3718,
      "Ġspir": 3719,
      "Ġdepart": 3720,
      "Ġreach": 3721,
      "Ġscript": 3722,
      "Ġassigned": 3723,
      "Ġ1940": 3724,
      "Ġdirectly": 3725,
      "Ġmethod": 3726,
      "Ġmission": 3727,
      "Ġhour": 3728,
      "iled": 3729,
      "Ġnotes": 3730,
      "Ġenjoy": 3731,
      "icted": 3732,
      "ĠSaint": 3733,
      "Ġnecess": 3734,
      "Ġchief": 3735,
      "Ġdepression": 3736,
      "ĠPennsylvan": 3737,
      "de": 3738,
      "ken": 3739,
      "ĠTay": 3740,
      "ĠChe": 3741,
      "ĠCub": 3742,
      "ĠOut": 3743,
      "Ġnearby": 3744,
      "ĠZealand": 3745,
      "ault": 3746,
      "Ġmax": 3747,
      "oura": 3748,
      "Ġang": 3749,
      "Ġleader": 3750,
      "ĠClub": 3751,
      "ny": 3752,
      "ĠTre": 3753,
      "Ġsevent": 3754,
      "Ġincor": 3755,
      "Ġarrest": 3756,
      "hens": 3757,
      "Ġprevent": 3758,
      "Ġmodel": 3759,
      "Ġdeclared": 3760,
      "iny": 3761,
      "Ġcle": 3762,
      "Ġpair": 3763,
      "osen": 3764,
      "Ġpresence": 3765,
      "Ġlegisl": 3766,
      "Ġcompetition": 3767,
      "Ġdouble": 3768,
      "ĠIrish": 3769,
      "ady": 3770,
      "Ġscient": 3771,
      "Ġ1998": 3772,
      "Ġbelow": 3773,
      "Ġconditions": 3774,
      "Ġarchit": 3775,
      "ĠSuper": 3776,
      "hy": 3777,
      "itation": 3778,
      "rial": 3779,
      "Ġplat": 3780,
      "Ġreason": 3781,
      "Ġthr": 3782,
      "ĠBell": 3783,
      "Ġprincip": 3784,
      "ylan": 3785,
      "oud": 3786,
      "Ġserious": 3787,
      "Ġattended": 3788,
      "Ġindustry": 3789,
      "Ġtakes": 3790,
      "ĠJe": 3791,
      "ighter": 3792,
      "Ġproduce": 3793,
      "Ġtraffic": 3794,
      "ricket": 3795,
      "Ġreduced": 3796,
      "Ġbirds": 3797,
      "Ġcandid": 3798,
      "Ġaw": 3799,
      "Ġbad": 3800,
      "imb": 3801,
      "Ġstating": 3802,
      "anna": 3803,
      "Ġpoet": 3804,
      "Ġschools": 3805,
      "Ġfigure": 3806,
      "Ġassociated": 3807,
      "like": 3808,
      "Åį": 3809,
      "Ġstra": 3810,
      "ĠRam": 3811,
      "ellow": 3812,
      "Ġmeans": 3813,
      "venue": 3814,
      "ervation": 3815,
      "Ġresulted": 3816,
      "Ġhorses": 3817,
      "Ġ1930": 3818,
      "Ġdetail": 3819,
      "Ġcovered": 3820,
      "Ġanal": 3821,
      "Ġ400": 3822,
      "Ġvariety": 3823,
      "Ġseparate": 3824,
      "Ġmeaning": 3825,
      "awn": 3826,
      "vement": 3827,
      "Ġnation": 3828,
      "ulations": 3829,
      "ĠMinister": 3830,
      "Ġsource": 3831,
      "ĠCath": 3832,
      "ĠNort": 3833,
      "ocr": 3834,
      "astic": 3835,
      "Ġ181": 3836,
      "ĠAdm": 3837,
      "ĠFoot": 3838,
      "Ġannual": 3839,
      "Ġpick": 3840,
      "Ġpath": 3841,
      "ĠTra": 3842,
      "ĠMic": 3843,
      "Ġsched": 3844,
      "use": 3845,
      "Ġseem": 3846,
      "hew": 3847,
      "Ġrein": 3848,
      "oses": 3849,
      "Ġcommander": 3850,
      "ĠCorps": 3851,
      "ĠTech": 3852,
      "ĠBey": 3853,
      "Ġtext": 3854,
      "Ġcontinue": 3855,
      "ittle": 3856,
      "ĠTur": 3857,
      "Ġ1996": 3858,
      "Ġsociety": 3859,
      "ste": 3860,
      "Ġaltern": 3861,
      "ĠLatin": 3862,
      "cle": 3863,
      "Ġdut": 3864,
      "Ġhar": 3865,
      "udd": 3866,
      "ruit": 3867,
      "Ġprison": 3868,
      "Ġpresented": 3869,
      "annel": 3870,
      "ĠCongress": 3871,
      "anded": 3872,
      "Ġmatches": 3873,
      "Ġsquare": 3874,
      "Ġtraditional": 3875,
      "Ġresponsible": 3876,
      "gar": 3877,
      "Äģ": 3878,
      "Ġprep": 3879,
      "Ġissues": 3880,
      "Ġdefeat": 3881,
      "Ġvocal": 3882,
      "Ġwing": 3883,
      "Ġwant": 3884,
      "Ġpurs": 3885,
      "Ġreject": 3886,
      "ĠDou": 3887,
      "Ġscoring": 3888,
      "Ġ2016": 3889,
      "Ġ1997": 3890,
      "Ġwriters": 3891,
      "ĠFranc": 3892,
      "ĠTaylor": 3893,
      "pool": 3894,
      "ĠDem": 3895,
      "ĠDist": 3896,
      "Ġshare": 3897,
      "Ġ44": 3898,
      "perial": 3899,
      "Ġattacked": 3900,
      "ĠDepartment": 3901,
      "enant": 3902,
      "ĠServ": 3903,
      "peror": 3904,
      "Ġtwenty": 3905,
      "Ġlevels": 3906,
      "Ġcounter": 3907,
      "Ġsides": 3908,
      "ĠOff": 3909,
      "Ġhighly": 3910,
      "Ġsymb": 3911,
      "Ġeffort": 3912,
      "ĠAngeles": 3913,
      "ĠFore": 3914,
      "ĠBrigade": 3915,
      "Ġaudience": 3916,
      "Ġ39": 3917,
      "ĠChina": 3918,
      "Ġaccepted": 3919,
      "mark": 3920,
      "Ġdu": 3921,
      "acter": 3922,
      "Ġrecover": 3923,
      "Ġperformances": 3924,
      "Ġschol": 3925,
      "ees": 3926,
      "ĠSur": 3927,
      "ĠHel": 3928,
      "Ġcomposed": 3929,
      "ĠAnt": 3930,
      "hips": 3931,
      "can": 3932,
      "Ã¼": 3933,
      "ĠAnn": 3934,
      "Ġexpected": 3935,
      "Ġfounded": 3936,
      "hood": 3937,
      "rical": 3938,
      "Ġ34": 3939,
      "Ġneigh": 3940,
      "Ġdistinct": 3941,
      "Ġdemonst": 3942,
      "ĠEdward": 3943,
      "Ġwatch": 3944,
      "ada": 3945,
      "ĠDylan": 3946,
      "Ġqual": 3947,
      "ening": 3948,
      "ils": 3949,
      "Ġheart": 3950,
      "ĠNot": 3951,
      "Ġshowed": 3952,
      "Ġpeaked": 3953,
      "Ġextrem": 3954,
      "quarters": 3955,
      "ĠGal": 3956,
      "Ġchap": 3957,
      "Ġactions": 3958,
      "Ġfighting": 3959,
      "iy": 3960,
      "ingu": 3961,
      "Ġdom": 3962,
      "ĠCle": 3963,
      "acher": 3964,
      "ĠFilm": 3965,
      "Ġsecret": 3966,
      "Ġactually": 3967,
      "Ġartic": 3968,
      "Ġobserved": 3969,
      "Ġtournament": 3970,
      "MS": 3971,
      "rative": 3972,
      "Ġtower": 3973,
      "Ġasp": 3974,
      "Ġ1992": 3975,
      "Ġhouses": 3976,
      "ĠPennsylvania": 3977,
      "win": 3978,
      "Ġdivision": 3979,
      "ĠGreek": 3980,
      "ĠEmp": 3981,
      "Ġrecomm": 3982,
      "Ġrevealed": 3983,
      "Ġterritory": 3984,
      "Ġconcluded": 3985,
      "ĠMount": 3986,
      "Ġgraph": 3987,
      "ĠIll": 3988,
      "ĠKn": 3989,
      "Ġwrite": 3990,
      "Ġoperation": 3991,
      "ĠAcad": 3992,
      "ĠArab": 3993,
      "ĠOper": 3994,
      "oint": 3995,
      "ĠGroup": 3996,
      "ka": 3997,
      "Ġlif": 3998,
      "ecause": 3999,
      "Ġmarked": 4000,
      "ĠParis": 4001,
      "Ġletter": 4002,
      "lict": 4003,
      "zy": 4004,
      "Ġsister": 4005,
      "ita": 4006,
      "ether": 4007,
      "Ġinches": 4008,
      "Ġrespond": 4009,
      "Ġtrial": 4010,
      "Ġofficials": 4011,
      "ummer": 4012,
      "Ġrid": 4013,
      "ĠOs": 4014,
      "Ġuses": 4015,
      "embly": 4016,
      "Ġallowing": 4017,
      "iro": 4018,
      "oes": 4019,
      "ican": 4020,
      "ĠTest": 4021,
      "ĠSol": 4022,
      "ĠSov": 4023,
      "Ġrough": 4024,
      "Ġjournal": 4025,
      "Ġbox": 4026,
      "ĠItalian": 4027,
      "een": 4028,
      "eler": 4029,
      "ĠParliament": 4030,
      "Ġtransferred": 4031,
      "Ġbegins": 4032,
      "Ġhus": 4033,
      "aped": 4034,
      "Ġdism": 4035,
      "Ġforms": 4036,
      "Ġamount": 4037,
      "Ġcalling": 4038,
      "Ġinnings": 4039,
      "ĠHaw": 4040,
      "Ġblood": 4041,
      "Ġsinger": 4042,
      "Ġconcert": 4043,
      "ĠSecret": 4044,
      "ĠTour": 4045,
      "Ġselling": 4046,
      "ims": 4047,
      "Ġcompletely": 4048,
      "Ġi": 4049,
      "Ġmor": 4050,
      "ĠBu": 4051,
      "che": 4052,
      "uge": 4053,
      "ani": 4054,
      "ĠTrans": 4055,
      "Ġthings": 4056,
      "estival": 4057,
      "ĠHead": 4058,
      "ĠRail": 4059,
      "rier": 4060,
      "Ġded": 4061,
      "oured": 4062,
      "ĠBob": 4063,
      "Ġexped": 4064,
      "Ġinside": 4065,
      "ĠAnother": 4066,
      "Ġapproach": 4067,
      "Ġwidely": 4068,
      "Ġcontrast": 4069,
      "Ġcerem": 4070,
      "Ġslightly": 4071,
      "ych": 4072,
      "Ġcore": 4073,
      "ĠMatt": 4074,
      "Ġroy": 4075,
      "Ġstarting": 4076,
      "ĠQueen": 4077,
      "Ġcho": 4078,
      "Ġ48": 4079,
      "Ġgenus": 4080,
      "Ġcompanies": 4081,
      "Ġkilomet": 4082,
      "ĠTenn": 4083,
      "ĠCamb": 4084,
      "aging": 4085,
      "Ġattempts": 4086,
      "shire": 4087,
      "Ġtorped": 4088,
      "Ġenvironment": 4089,
      "ĠGulf": 4090,
      "ieut": 4091,
      "Ġ1993": 4092,
      "Ġefforts": 4093,
      "ĠRegiment": 4094,
      "cÃ©": 4095,
      "Ġbound": 4096,
      "ĠSo": 4097,
      "Ġquality": 4098,
      "oration": 4099,
      "roll": 4100,
      "irection": 4101,
      "Ġdefend": 4102,
      "Ġtried": 4103,
      "Ġolder": 4104,
      "Ġfunction": 4105,
      "iated": 4106,
      "anced": 4107,
      "Ġperm": 4108,
      "AF": 4109,
      "ping": 4110,
      "Ġhospital": 4111,
      "Ġnin": 4112,
      "Ġge": 4113,
      "ĠTheir": 4114,
      "osh": 4115,
      "ĠLittle": 4116,
      "Ġlegal": 4117,
      "Ġess": 4118,
      "Ġcorn": 4119,
      "Ġlot": 4120,
      "Ġresidents": 4121,
      "Ġhands": 4122,
      "za": 4123,
      "icip": 4124,
      "Ġ1994": 4125,
      "Ġpowerful": 4126,
      "gu": 4127,
      "Ġcrow": 4128,
      "Ġbatter": 4129,
      "Ġparents": 4130,
      "ĠCr": 4131,
      "ĠDo": 4132,
      "Ġ1991": 4133,
      "ĠConn": 4134,
      "Ġedition": 4135,
      "Ġgreatest": 4136,
      "Ġsituation": 4137,
      "ceeded": 4138,
      "Ġconducted": 4139,
      "Ġstrength": 4140,
      "itting": 4141,
      "ĠCard": 4142,
      "Ġhero": 4143,
      "cend": 4144,
      "ĠScotland": 4145,
      "onna": 4146,
      "Ġfeder": 4147,
      "ĠJose": 4148,
      "Ġsearch": 4149,
      "Ġattend": 4150,
      "Ġeducation": 4151,
      "onn": 4152,
      "Ġrule": 4153,
      "Ġpeace": 4154,
      "Ġstrugg": 4155,
      "Ġfinancial": 4156,
      "ĠSoviet": 4157,
      "Ġwa": 4158,
      "Ġmess": 4159,
      "Ġhun": 4160,
      "Ġgreater": 4161,
      "ĠDV": 4162,
      "Ġprote": 4163,
      "under": 4164,
      "ogue": 4165,
      "Ġresulting": 4166,
      "Ġfigures": 4167,
      "ordan": 4168,
      "Ġcyclone": 4169,
      "Ġplants": 4170,
      "Ġearth": 4171,
      "ĠBarb": 4172,
      "Ġsequence": 4173,
      "ĠOliv": 4174,
      "gian": 4175,
      "Ġchem": 4176,
      "Ġlog": 4177,
      "Ġ55": 4178,
      "Ġdise": 4179,
      "ĠYear": 4180,
      "Ġdesignated": 4181,
      "Ġbecomes": 4182,
      "Ġmultiple": 4183,
      "Ġarchitect": 4184,
      "wick": 4185,
      "ero": 4186,
      "Ġthous": 4187,
      "ĠMiddle": 4188,
      "Ġmainly": 4189,
      "Ġmarriage": 4190,
      "Ġpractice": 4191,
      "Ġir": 4192,
      "Ġsn": 4193,
      "Ġsought": 4194,
      "ĠCrit": 4195,
      "ĠJer": 4196,
      "ĠOx": 4197,
      "ĠAdam": 4198,
      "Ġsquadron": 4199,
      "racted": 4200,
      "Ġeconomic": 4201,
      "Ġstruck": 4202,
      "ieutenant": 4203,
      "thes": 4204,
      "Ġcas": 4205,
      "Ġpan": 4206,
      "Ġrating": 4207,
      "Ġprimarily": 4208,
      "Ġpaper": 4209,
      "lection": 4210,
      "ĠJul": 4211,
      "ĠThree": 4212,
      "Ġimpact": 4213,
      "Ġdistance": 4214,
      "Ġopportun": 4215,
      "Ġkept": 4216,
      "Ġcollabor": 4217,
      "Ġfast": 4218,
      "Ġple": 4219,
      "ĠBond": 4220,
      "Ġcontent": 4221,
      "Ġrelatively": 4222,
      "Ġcontinues": 4223,
      "Ġencoun": 4224,
      "ĠCaptain": 4225,
      "stitute": 4226,
      "Ġreign": 4227,
      "add": 4228,
      "olves": 4229,
      "Ġkick": 4230,
      "Ġplays": 4231,
      "ĠArch": 4232,
      "Ġhusband": 4233,
      "ĠWork": 4234,
      "Ġrang": 4235,
      "Ġability": 4236,
      "Ġpoem": 4237,
      "ĠEmpire": 4238,
      "bed": 4239,
      "lers": 4240,
      "Ġmorning": 4241,
      "ellig": 4242,
      "Ġuniversity": 4243,
      "Ġmanaged": 4244,
      "Ġemot": 4245,
      "Ġviewers": 4246,
      "Ġthir": 4247,
      "ĠSince": 4248,
      "ĠMajor": 4249,
      "ols": 4250,
      "ĠPan": 4251,
      "ĠFe": 4252,
      "ips": 4253,
      "Ã¨": 4254,
      "Ġsense": 4255,
      "alle": 4256,
      "Ġdirection": 4257,
      "Ġreaching": 4258,
      "ĠHurricane": 4259,
      "Ġvess": 4260,
      "ecting": 4261,
      "Ġweight": 4262,
      "Ġweaken": 4263,
      "Ġstudies": 4264,
      "ĠBlue": 4265,
      "Ġpromoted": 4266,
      "ĠDVD": 4267,
      "ication": 4268,
      "ĠTurn": 4269,
      "emic": 4270,
      "ounded": 4271,
      "Ġcollection": 4272,
      "ĠMartin": 4273,
      "ufact": 4274,
      "Ġtail": 4275,
      "Ġonto": 4276,
      "ĠKh": 4277,
      "ricult": 4278,
      "Ġoffer": 4279,
      "Ġmaximum": 4280,
      "Ġincorpor": 4281,
      "ĠDar": 4282,
      "ctor": 4283,
      "istry": 4284,
      "Ġexhib": 4285,
      "ĠUs": 4286,
      "Ġinterp": 4287,
      "Ġworkers": 4288,
      "Ġmagn": 4289,
      "Ġbehav": 4290,
      "Ġactivity": 4291,
      "Ġpotential": 4292,
      "Ġscience": 4293,
      "Ġroyal": 4294,
      "ressive": 4295,
      "Ġtrue": 4296,
      "Ġwinter": 4297,
      "echan": 4298,
      "ĠMuseum": 4299,
      "Ġnortheast": 4300,
      "Ġculture": 4301,
      "rol": 4302,
      "ĠManc": 4303,
      "Ġheight": 4304,
      "Ġbeat": 4305,
      "Ġchampionship": 4306,
      "Ġ65": 4307,
      "ĠColon": 4308,
      "ĠNorthern": 4309,
      "bour": 4310,
      "ĠCare": 4311,
      "Ġbackground": 4312,
      "Ġconflict": 4313,
      "Ġrepresented": 4314,
      "Ġfarm": 4315,
      "Ġultimately": 4316,
      "ĠBank": 4317,
      "Ġproved": 4318,
      "ordin": 4319,
      "Ġenemy": 4320,
      "Ġattract": 4321,
      "Ġrepe": 4322,
      "ledge": 4323,
      "ĠWeek": 4324,
      "rong": 4325,
      "Ġwit": 4326,
      "isation": 4327,
      "Ġseg": 4328,
      "Ġsuc": 4329,
      "Ġmatter": 4330,
      "ĠRecords": 4331,
      "Ġcouple": 4332,
      "Ġwalls": 4333,
      "house": 4334,
      "Ġopt": 4335,
      "olk": 4336,
      "Ġtitled": 4337,
      "Ġpilot": 4338,
      "AS": 4339,
      "lines": 4340,
      "Ġpun": 4341,
      "acks": 4342,
      "Ġ43": 4343,
      "Ġexpressed": 4344,
      "Ġtypically": 4345,
      "ibrary": 4346,
      "ien": 4347,
      "nown": 4348,
      "Ġris": 4349,
      "ĠStone": 4350,
      "Ġadj": 4351,
      "Ġsuppl": 4352,
      "Ġancient": 4353,
      "cel": 4354,
      "sen": 4355,
      "Ġtoday": 4356,
      "ĠTem": 4357,
      "Ġrecent": 4358,
      "Ġspecim": 4359,
      "ĠDef": 4360,
      "ĠExp": 4361,
      "Ġdivided": 4362,
      "ety": 4363,
      "ĠDis": 4364,
      "ĠLo": 4365,
      "Ġ64": 4366,
      "Ġacting": 4367,
      "ĠArm": 4368,
      "Ġbrown": 4369,
      "Ġspread": 4370,
      "ansion": 4371,
      "Ġowned": 4372,
      "Ġdoub": 4373,
      "II": 4374,
      "rect": 4375,
      "Ġpaid": 4376,
      "ĠBan": 4377,
      "Ġyour": 4378,
      "Ġoil": 4379,
      "Ġdoll": 4380,
      "Ġnaval": 4381,
      "Ġgrew": 4382,
      "ĠDen": 4383,
      "Ġalone": 4384,
      "Ġarmed": 4385,
      "Ġcaptain": 4386,
      "Ġmaintain": 4387,
      "ĠRhodes": 4388,
      "ĠFootball": 4389,
      "ev": 4390,
      "Ġpositions": 4391,
      "Ġtransl": 4392,
      "ancy": 4393,
      "Ġappearances": 4394,
      "Ġpiece": 4395,
      "eg": 4396,
      "ading": 4397,
      "ĠBus": 4398,
      "ĠDutch": 4399,
      "Ġunivers": 4400,
      "Ġ46": 4401,
      "Ġ51": 4402,
      "ĠNews": 4403,
      "Ġnuclear": 4404,
      "Ġheavily": 4405,
      "ĠOtt": 4406,
      "wide": 4407,
      "inus": 4408,
      "ersey": 4409,
      "ĠAmericans": 4410,
      "Ġfeaturing": 4411,
      "Ġinfluenced": 4412,
      "ux": 4413,
      "Ġwords": 4414,
      "Ġinh": 4415,
      "ĠLiber": 4416,
      "arts": 4417,
      "Ġapparent": 4418,
      "ĠConstant": 4419,
      "Ġadvance": 4420,
      "Ġera": 4421,
      "Ġcriticized": 4422,
      "bur": 4423,
      "Ġwick": 4424,
      "ĠBet": 4425,
      "ĠBridge": 4426,
      "Ġhistorical": 4427,
      "ĠIndiana": 4428,
      "Ġast": 4429,
      "aven": 4430,
      "Ġkg": 4431,
      "ends": 4432,
      "Ġartists": 4433,
      "Ġreports": 4434,
      "Ġportion": 4435,
      "BA": 4436,
      "aver": 4437,
      "mond": 4438,
      "right": 4439,
      "ĠBost": 4440,
      "ighth": 4441,
      "ĠVan": 4442,
      "ĠCommission": 4443,
      "Ġtouchdown": 4444,
      "Ġmurder": 4445,
      "onents": 4446,
      "ĠSat": 4447,
      "ĠSant": 4448,
      "Ġnative": 4449,
      "utions": 4450,
      "ushed": 4451,
      "Ġinters": 4452,
      "Ġcharge": 4453,
      "Ġblue": 4454,
      "Ġargued": 4455,
      "Ġvocals": 4456,
      "Ġnewspaper": 4457,
      "ĠManchester": 4458,
      "pe": 4459,
      "reed": 4460,
      "anes": 4461,
      "Ġmis": 4462,
      "Ġmanufact": 4463,
      "Ġsingles": 4464,
      "iverpool": 4465,
      "avalry": 4466,
      "Ġfederal": 4467,
      "ĠDam": 4468,
      "ĠGard": 4469,
      "Ġforeign": 4470,
      "Ġadopted": 4471,
      "Ġanalys": 4472,
      "Ġwild": 4473,
      "Ġfiction": 4474,
      "iance": 4475,
      "Ġfeed": 4476,
      "Ġ1945": 4477,
      "Ġrequire": 4478,
      "Ġspl": 4479,
      "Ġ150": 4480,
      "heless": 4481,
      "Ġgrowth": 4482,
      "ĠSeries": 4483,
      "TV": 4484,
      "uous": 4485,
      "Ġiron": 4486,
      "ĠTime": 4487,
      "Ġspect": 4488,
      "Ġcontrovers": 4489,
      "Ġgirl": 4490,
      "Ġcontemporary": 4491,
      "known": 4492,
      "Ġut": 4493,
      "Ġcust": 4494,
      "Ġmel": 4495,
      "Ġdyn": 4496,
      "ĠCons": 4497,
      "Ġgained": 4498,
      "ĠDes": 4499,
      "ĠLenn": 4500,
      "aby": 4501,
      "Ġcoach": 4502,
      "ĠCont": 4503,
      "ĠCommittee": 4504,
      "Ġcombined": 4505,
      "Ġauthorities": 4506,
      "ĠVictoria": 4507,
      "while": 4508,
      "Ġur": 4509,
      "Ġpet": 4510,
      "ĠSa": 4511,
      "ĠLew": 4512,
      "Ġpros": 4513,
      "resh": 4514,
      "ports": 4515,
      "ĠAdd": 4516,
      "Ġcrowd": 4517,
      "mas": 4518,
      "tar": 4519,
      "Ġcit": 4520,
      "iral": 4521,
      "ĠHal": 4522,
      "ĠOcean": 4523,
      "Ġmaintained": 4524,
      "Ġpossibly": 4525,
      "Ġvalue": 4526,
      "ĠAcademy": 4527,
      "ĠJordan": 4528,
      "Ġplug": 4529,
      "Ġchosen": 4530,
      "ĠChris": 4531,
      "Ġpassing": 4532,
      "Ġstrike": 4533,
      "Ġproblem": 4534,
      "ĠCatholic": 4535,
      "bury": 4536,
      "burg": 4537,
      "adium": 4538,
      "Ġsupp": 4539,
      "Ġbroke": 4540,
      "Ġsixth": 4541,
      "Ġsources": 4542,
      "Ġsilver": 4543,
      "ĠJennings": 4544,
      "Ġtur": 4545,
      "ĠRow": 4546,
      "ĠLuc": 4547,
      "Ġscale": 4548,
      "Ġ95": 4549,
      "Ġofficially": 4550,
      "Ġexplained": 4551,
      "Ġcausing": 4552,
      "Ġobserv": 4553,
      "oncÃ©": 4554,
      "earing": 4555,
      "iano": 4556,
      "rance": 4557,
      "Ġextra": 4558,
      "ype": 4559,
      "Ġ1920": 4560,
      "Ġsubsequent": 4561,
      "When": 4562,
      "oe": 4563,
      "ras": 4564,
      "ĠBook": 4565,
      "ĠRy": 4566,
      "ograp": 4567,
      "Ġ52": 4568,
      "Ġactor": 4569,
      "Ġemph": 4570,
      "Ġadvant": 4571,
      "ĠBrad": 4572,
      "Ġavoid": 4573,
      "ĠBoston": 4574,
      "Ġflying": 4575,
      "Ġpal": 4576,
      "Ġseasons": 4577,
      "Ġsust": 4578,
      "ĠKent": 4579,
      "ocks": 4580,
      "Ġalbums": 4581,
      "Ġtrain": 4582,
      "Ġconcent": 4583,
      "Ġdescribes": 4584,
      "Ġactivities": 4585,
      "Ġachieved": 4586,
      "Ġmechan": 4587,
      "olved": 4588,
      "ĠLiverpool": 4589,
      "Ġseek": 4590,
      "izes": 4591,
      "ĠCommun": 4592,
      "Ġproperty": 4593,
      "writ": 4594,
      "Ġthrow": 4595,
      "Ġlives": 4596,
      "ĠPers": 4597,
      "resp": 4598,
      "essions": 4599,
      "Ġimag": 4600,
      "Ġnews": 4601,
      "Ġcolor": 4602,
      "ca": 4603,
      "Ġsout": 4604,
      "Ġstone": 4605,
      "Ġagg": 4606,
      "Ġimage": 4607,
      "Ġprominent": 4608,
      "Ġsenior": 4609,
      "ĠOxford": 4610,
      "Ġmountain": 4611,
      "Ġcoming": 4612,
      "Ġdefense": 4613,
      "Ġoperated": 4614,
      "Ġcapture": 4615,
      "Ġhyd": 4616,
      "Ġwaters": 4617,
      "ĠSociety": 4618,
      "stein": 4619,
      "Ġtoward": 4620,
      "ĠAp": 4621,
      "ĠVar": 4622,
      "Ġdoing": 4623,
      "Ġoccasion": 4624,
      "onym": 4625,
      "Ġdebuted": 4626,
      "Ġeye": 4627,
      "rown": 4628,
      "ĠRoss": 4629,
      "ĠChief": 4630,
      "Ġinstit": 4631,
      "Ġnorthwest": 4632,
      "Ġgrowing": 4633,
      "ora": 4634,
      "Ġfully": 4635,
      "Ġmind": 4636,
      "irm": 4637,
      "ĠJones": 4638,
      "Ġexec": 4639,
      "Ġ1941": 4640,
      "Ġnegot": 4641,
      "Ġconfirmed": 4642,
      "Ġaired": 4643,
      "ĠAut": 4644,
      "ema": 4645,
      "Ġprin": 4646,
      "Ġanimals": 4647,
      "rupt": 4648,
      "Ġindependent": 4649,
      "Ġweapons": 4650,
      "ĠBeyoncÃ©": 4651,
      "king": 4652,
      "vest": 4653,
      "ĠBecause": 4654,
      "ching": 4655,
      "ĠFox": 4656,
      "Ġspot": 4657,
      "ĠSever": 4658,
      "Ġshortly": 4659,
      "Ã¡n": 4660,
      "Ġhomes": 4661,
      "Ġahead": 4662,
      "Ġcert": 4663,
      "Ġborder": 4664,
      "ĠSar": 4665,
      "Ġwebs": 4666,
      "Ġproducers": 4667,
      "bit": 4668,
      "Ġcases": 4669,
      "ĠHome": 4670,
      "ĠFer": 4671,
      "ager": 4672,
      "Ġweather": 4673,
      "Ġseconds": 4674,
      "Ġ1986": 4675,
      "Ġalongside": 4676,
      "Ġtwice": 4677,
      "Ġletters": 4678,
      "ias": 4679,
      "Ġbit": 4680,
      "ourney": 4681,
      "Ġ600": 4682,
      "Ġcolumn": 4683,
      "Ġfreeway": 4684,
      "ategory": 4685,
      "ĠEntertain": 4686,
      "Ġsle": 4687,
      "ĠSil": 4688,
      "Ġattrib": 4689,
      "Ġpasses": 4690,
      "Ġspirit": 4691,
      "Ġbodies": 4692,
      "aling": 4693,
      "Ġstations": 4694,
      "ĠDream": 4695,
      "ĠLand": 4696,
      "Ġprepar": 4697,
      "orship": 4698,
      "Ġsetting": 4699,
      "Ġ1944": 4700,
      "ĠGovernor": 4701,
      "Ġpremi": 4702,
      "uses": 4703,
      "ĠLong": 4704,
      "Ġspring": 4705,
      "Ġleaders": 4706,
      "Ġstudent": 4707,
      "Ġfrequently": 4708,
      "TC": 4709,
      "Ġsail": 4710,
      "Ġcricket": 4711,
      "Ġps": 4712,
      "ĠDom": 4713,
      "appen": 4714,
      "Ġdropped": 4715,
      "ĠService": 4716,
      "iate": 4717,
      "ãĥ": 4718,
      "Ġsac": 4719,
      "Ġfa": 4720,
      "ibb": 4721,
      "Ġremark": 4722,
      "azz": 4723,
      "Ġ1942": 4724,
      "Ġsimply": 4725,
      "Ġsays": 4726,
      "ĠWilliams": 4727,
      "Ġnarrow": 4728,
      "Ġinch": 4729,
      "avig": 4730,
      "illery": 4731,
      "Ġ66": 4732,
      "ĠColumb": 4733,
      "ĠPrince": 4734,
      "Ġmachine": 4735,
      "ĠHan": 4736,
      "ĠLight": 4737,
      "Ġunknown": 4738,
      "Ġelement": 4739,
      "Ġheadquarters": 4740,
      "Ġdrum": 4741,
      "Ġsexual": 4742,
      "Ġphysical": 4743,
      "Ġsurrounding": 4744,
      "cul": 4745,
      "Ġpip": 4746,
      "ĠKar": 4747,
      "ĠKenn": 4748,
      "Ġcompos": 4749,
      "ĠConference": 4750,
      "ĠHarrison": 4751,
      "Ġpropos": 4752,
      "Ġbasis": 4753,
      "fficient": 4754,
      "Ġwithdraw": 4755,
      "osaurus": 4756,
      "Ġemphas": 4757,
      "By": 4758,
      "Ġgar": 4759,
      "unte": 4760,
      "ĠWin": 4761,
      "Ġroles": 4762,
      "ĠCarl": 4763,
      "ĠClass": 4764,
      "ĠGuard": 4765,
      "Ġorganization": 4766,
      "orter": 4767,
      "Ġjun": 4768,
      "Ġadvent": 4769,
      "Ġcomedy": 4770,
      "Ġvisited": 4771,
      "Ġcollege": 4772,
      "Ġtrees": 4773,
      "Ġregarded": 4774,
      "ĠRadio": 4775,
      "uct": 4776,
      "Ã¸": 4777,
      "Ġlaid": 4778,
      "ĠCivil": 4779,
      "adel": 4780,
      "ĠWay": 4781,
      "Ġresc": 4782,
      "rug": 4783,
      "Ġfollows": 4784,
      "Ġmotor": 4785,
      "urban": 4786,
      "Ġinjury": 4787,
      "Ġmile": 4788,
      "Ġdog": 4789,
      "Ġdance": 4790,
      "Ġhor": 4791,
      "Ġstep": 4792,
      "ĠFin": 4793,
      "Ġhistorian": 4794,
      "ĠInfantry": 4795,
      "da": 4796,
      "Ġsystems": 4797,
      "Ġtarget": 4798,
      "Ġtells": 4799,
      "Ġathlet": 4800,
      "ads": 4801,
      "rael": 4802,
      "Ġplaces": 4803,
      "Ġcontained": 4804,
      "ottom": 4805,
      "Ġcondition": 4806,
      "Ġx": 4807,
      "Ġox": 4808,
      "ĠTim": 4809,
      "Ġgas": 4810,
      "ĠHy": 4811,
      "Ġbey": 4812,
      "ĠField": 4813,
      "anger": 4814,
      "Ġsupply": 4815,
      "ocked": 4816,
      "Ġinvasion": 4817,
      "Ġserving": 4818,
      "Ġopposed": 4819,
      "Ġidentified": 4820,
      "Ġchallen": 4821,
      "Ġabandoned": 4822,
      "ĠTri": 4823,
      "ĠMore": 4824,
      "Ġ53": 4825,
      "Ġconsisted": 4826,
      "Ġdrive": 4827,
      "ĠSystem": 4828,
      "Ġindividuals": 4829,
      "Ġresults": 4830,
      "Ġbeyond": 4831,
      "ini": 4832,
      "Ġhip": 4833,
      "ĠAv": 4834,
      "acement": 4835,
      "Ġgra": 4836,
      "ĠEastern": 4837,
      "antasy": 4838,
      "Ġexecutive": 4839,
      "Ġsport": 4840,
      "eller": 4841,
      "Ġreturning": 4842,
      "ĠJoseph": 4843,
      "onic": 4844,
      "ĠHon": 4845,
      "ĠJon": 4846,
      "Ġaccident": 4847,
      "Ġ178": 4848,
      "Ġgovernor": 4849,
      "Ġmanagement": 4850,
      "Ġbillion": 4851,
      "track": 4852,
      "ĠJeff": 4853,
      "ilies": 4854,
      "aming": 4855,
      "Ġgreen": 4856,
      "ĠStep": 4857,
      "Ġauthority": 4858,
      "Ġmoment": 4859,
      "Ġexpedition": 4860,
      "haps": 4861,
      "enz": 4862,
      "roph": 4863,
      "Ġhabit": 4864,
      "Ġnest": 4865,
      "Ġ56": 4866,
      "Ġretired": 4867,
      "Ġgranted": 4868,
      "ĠManning": 4869,
      "ĠOlympic": 4870,
      "ĠEntertainment": 4871,
      "min": 4872,
      "Ġfaced": 4873,
      "ura": 4874,
      "ĠNations": 4875,
      "Ġcomes": 4876,
      "Ġsend": 4877,
      "mann": 4878,
      "Ġformation": 4879,
      "Ġguest": 4880,
      "Ġrequest": 4881,
      "ĠMoore": 4882,
      "Ġnegative": 4883,
      "Ġadministration": 4884,
      "Ġhair": 4885,
      "elve": 4886,
      "ĠWater": 4887,
      "ĠGi": 4888,
      "Ġherself": 4889,
      "Ġinteract": 4890,
      "Ġbelong": 4891,
      "Ġsurvey": 4892,
      "Ġlabel": 4893,
      "Ġequipment": 4894,
      "Ġversions": 4895,
      "onent": 4896,
      "Ġhol": 4897,
      "otic": 4898,
      "ĠLu": 4899,
      "Ġaccompan": 4900,
      "Ġplatform": 4901,
      "Ġmaster": 4902,
      "osa": 4903,
      "Ġcompar": 4904,
      "ĠIsrael": 4905,
      "Ġnominated": 4906,
      "Although": 4907,
      "ĠLennon": 4908,
      "etts": 4909,
      "utation": 4910,
      "Ġrecently": 4911,
      "Ġserve": 4912,
      "Ġnewly": 4913,
      "Ġ177": 4914,
      "Ġtypes": 4915,
      "Ġorders": 4916,
      "Ġmeasure": 4917,
      "break": 4918,
      "Ġ+": 4919,
      "Ġsens": 4920,
      "ĠMul": 4921,
      "ĠBBC": 4922,
      "antly": 4923,
      "Ġincident": 4924,
      "ishop": 4925,
      "Ġrow": 4926,
      "Ġshell": 4927,
      "ologist": 4928,
      "Ġelev": 4929,
      "ĠHero": 4930,
      "Ġparticipated": 4931,
      "BS": 4932,
      "fort": 4933,
      "rations": 4934,
      "town": 4935,
      "Ġrom": 4936,
      "ĠTropical": 4937,
      "ĠWall": 4938,
      "Ġchoice": 4939,
      "ĠThough": 4940,
      "Ġ76": 4941,
      "Ġaffected": 4942,
      "Ġstraight": 4943,
      "Ġcars": 4944,
      "ĠLy": 4945,
      "estic": 4946,
      "Ġadvert": 4947,
      "Ġparalle": 4948,
      "Ġreference": 4949,
      "ĠDistrict": 4950,
      "Ġadvantage": 4951,
      "arian": 4952,
      "ouri": 4953,
      "asty": 4954,
      "pton": 4955,
      "ube": 4956,
      "Ġresist": 4957,
      "ĠAlbert": 4958,
      "Ġhonor": 4959,
      "bon": 4960,
      "yph": 4961,
      "ocated": 4962,
      "ĠKore": 4963,
      "Ġagricult": 4964,
      "Ġ85": 4965,
      "Ġenter": 4966,
      "Ġpowers": 4967,
      "gent": 4968,
      "Ġfair": 4969,
      "Ġhall": 4970,
      "ĠAre": 4971,
      "Ġhere": 4972,
      "agn": 4973,
      "Ġcontain": 4974,
      "fully": 4975,
      "Ġsolo": 4976,
      "Ġtorpedo": 4977,
      "ĠCarey": 4978,
      "mon": 4979,
      "rat": 4980,
      "ĠAvenue": 4981,
      "ĠMos": 4982,
      "Ġclaims": 4983,
      "Ġdeliver": 4984,
      "ĠMissouri": 4985,
      "Ġliterature": 4986,
      "Ġmentioned": 4987,
      "Ġbenef": 4988,
      "Ã¤": 4989,
      "Ġtheory": 4990,
      "Ġwor": 4991,
      "Ġfer": 4992,
      "iced": 4993,
      "ĠHo": 4994,
      "iful": 4995,
      "Ġchose": 4996,
      "Ġsuit": 4997,
      "pping": 4998,
      "Ġsurre": 4999,
      "Ġcreation": 5000,
      "Ġillust": 5001,
      "Ġschedul": 5002,
      "Ġmob": 5003,
      "ĠGood": 5004,
      "illing": 5005,
      "Ġperfect": 5006,
      "Ġneut": 5007,
      "ĠSpok": 5008,
      "itan": 5009,
      "ĠHum": 5010,
      "eman": 5011,
      "ĠRac": 5012,
      "umes": 5013,
      "Ġunp": 5014,
      "Ġconsecutive": 5015,
      "Ġcannot": 5016,
      "Ġopin": 5017,
      "Ġincreasingly": 5018,
      "Ġdisease": 5019,
      "lie": 5020,
      "Ġfuel": 5021,
      "isters": 5022,
      "stream": 5023,
      "ĠMem": 5024,
      "Ġunique": 5025,
      "Ġtowns": 5026,
      "Ġorganized": 5027,
      "Ġrejected": 5028,
      "ding": 5029,
      "eds": 5030,
      "Ġfruit": 5031,
      "Ġbud": 5032,
      "ala": 5033,
      "eline": 5034,
      "ĠDirect": 5035,
      "ĠNic": 5036,
      "Ġyellow": 5037,
      "ĠItaly": 5038,
      "Ġreceive": 5039,
      "Ġnecessary": 5040,
      "ĠLewis": 5041,
      "rel": 5042,
      "Ġcamer": 5043,
      "Ġrear": 5044,
      "Ġperman": 5045,
      "Ġfamous": 5046,
      "Ġarrival": 5047,
      "appy": 5048,
      "Ġknowledge": 5049,
      "ĠGovernment": 5050,
      "rons": 5051,
      "Ġtall": 5052,
      "Ġcities": 5053,
      "Ġbat": 5054,
      "Ġpric": 5055,
      "room": 5056,
      "Ġeas": 5057,
      "ette": 5058,
      "ola": 5059,
      "Ġrival": 5060,
      "Ġsurpr": 5061,
      "Ġsets": 5062,
      "Ġdocument": 5063,
      "Ġrainfall": 5064,
      "Ġdrama": 5065,
      "ĠLine": 5066,
      "Ġcontest": 5067,
      "There": 5068,
      "Ġprefer": 5069,
      "Ġ94": 5070,
      "Ġregister": 5071,
      "Ġ1939": 5072,
      "Ġstructures": 5073,
      "Ġrecognized": 5074,
      "ĠSenate": 5075,
      "ĠFleet": 5076,
      "Ġdegree": 5077,
      "rig": 5078,
      "ĠTw": 5079,
      "ĠTod": 5080,
      "Ġdeploy": 5081,
      "Ġinterchange": 5082,
      "Ġacad": 5083,
      "Ġ1987": 5084,
      "Ġdistrict": 5085,
      "Ġexplos": 5086,
      "ĠDuke": 5087,
      "ĠHolly": 5088,
      "ĠRevolution": 5089,
      "Ġcells": 5090,
      "Ġmic": 5091,
      "Ġdraft": 5092,
      "istics": 5093,
      "Ġshape": 5094,
      "ĠKa": 5095,
      "Ġarchae": 5096,
      "Ġcontrolled": 5097,
      "ĠSeveral": 5098,
      "iable": 5099,
      "isf": 5100,
      "Ġbranch": 5101,
      "ĠMod": 5102,
      "ĠHomer": 5103,
      "ĠFinal": 5104,
      "ĠThrough": 5105,
      "Ġfloor": 5106,
      "Ġ1914": 5107,
      "Ġprogress": 5108,
      "Ġeffective": 5109,
      "Ġescape": 5110,
      "Ġbreeding": 5111,
      "ĠJewish": 5112,
      "brid": 5113,
      "more": 5114,
      "oh": 5115,
      "uate": 5116,
      "Ġswe": 5117,
      "Ġbacter": 5118,
      "Ġmart": 5119,
      "ivity": 5120,
      "Ġexcl": 5121,
      "ipl": 5122,
      "gend": 5123,
      "ounger": 5124,
      "athan": 5125,
      "Ġdidn": 5126,
      "Ġguard": 5127,
      "Ġmedal": 5128,
      "Ġreflect": 5129,
      "ĠBoard": 5130,
      "ĠScottish": 5131,
      "Ġpolicy": 5132,
      "Ġfat": 5133,
      "oted": 5134,
      "Ġstreet": 5135,
      "ĠFair": 5136,
      "Ġsports": 5137,
      "Ġ72": 5138,
      "attle": 5139,
      "Ġ1988": 5140,
      "Ġpattern": 5141,
      "Ġfellow": 5142,
      "ĠCastro": 5143,
      "ĠAdmiral": 5144,
      "Ġwebsite": 5145,
      "Ġhappen": 5146,
      "ifying": 5147,
      "Ġextensive": 5148,
      "Ġdelay": 5149,
      "Ġcultural": 5150,
      "Ġcreating": 5151,
      "Ġpieces": 5152,
      "then": 5153,
      "ĠSund": 5154,
      "ĠHMS": 5155,
      "ĠWhe": 5156,
      "Ġweak": 5157,
      "Ġ800": 5158,
      "amese": 5159,
      "Ġfamilies": 5160,
      "intend": 5161,
      "Ġideas": 5162,
      "ĠRussian": 5163,
      "ĠVietnamese": 5164,
      "Following": 5165,
      "ĠÎ": 5166,
      "Ġtrying": 5167,
      "Ġfix": 5168,
      "Ġgain": 5169,
      "ĠDet": 5170,
      "ĠNight": 5171,
      "ĠJun": 5172,
      "iana": 5173,
      "Ġnothing": 5174,
      "ĠVol": 5175,
      "Ġbroken": 5176,
      "Ġauth": 5177,
      "Ġroads": 5178,
      "Ġagreement": 5179,
      "Ġseventh": 5180,
      "RA": 5181,
      "Ġcab": 5182,
      "Ġfresh": 5183,
      "Ġdrug": 5184,
      "ĠBase": 5185,
      "iments": 5186,
      "igr": 5187,
      "ĠPost": 5188,
      "ĠWalk": 5189,
      "ahir": 5190,
      "Ġboat": 5191,
      "ĠCommand": 5192,
      "Ġmedical": 5193,
      "eanwhile": 5194,
      "Ġtitles": 5195,
      "Ġcommonly": 5196,
      "Ġcitiz": 5197,
      "An": 5198,
      "Ġawards": 5199,
      "Ġlosing": 5200,
      "ĠLar": 5201,
      "ĠLive": 5202,
      "Ġintellig": 5203,
      "Ġmovie": 5204,
      "ĠSpain": 5205,
      "Ġprompt": 5206,
      "Ġcampus": 5207,
      "Ġbelieve": 5208,
      "Ġclosely": 5209,
      "Ġeconomy": 5210,
      "Ġtreatment": 5211,
      "Ġbriefly": 5212,
      "Ġdismiss": 5213,
      "respond": 5214,
      "Ġtank": 5215,
      "Ġfought": 5216,
      "Ġegg": 5217,
      "acity": 5218,
      "ector": 5219,
      "Ġleaves": 5220,
      "Ġ54": 5221,
      "Ġ160": 5222,
      "Ġ1985": 5223,
      "Ġdetermined": 5224,
      "Ġinstrument": 5225,
      "Ġroughly": 5226,
      "ographer": 5227,
      "ef": 5228,
      "lusion": 5229,
      "Ġfired": 5230,
      "ĠStew": 5231,
      "Ġ62": 5232,
      "Ġcalls": 5233,
      "Ġhighlight": 5234,
      "Ġexpanded": 5235,
      "ĠAndrew": 5236,
      "Ġdeclined": 5237,
      "ĠVietnam": 5238,
      "hat": 5239,
      "ket": 5240,
      "laim": 5241,
      "Ġmouth": 5242,
      "Ġcontact": 5243,
      "Ġarms": 5244,
      "Ġtherefore": 5245,
      "ocratic": 5246,
      "burgh": 5247,
      "eed": 5248,
      "ker": 5249,
      "rog": 5250,
      "ĠAri": 5251,
      "ĠBor": 5252,
      "ĠRom": 5253,
      "Ġactors": 5254,
      "Ġ1989": 5255,
      "Ġhousehold": 5256,
      "Ġlooking": 5257,
      "Ġwounded": 5258,
      "Ġfly": 5259,
      "ĠPop": 5260,
      "ĠNorm": 5261,
      "Ġ120": 5262,
      "Ġtransform": 5263,
      "Ġplanet": 5264,
      "Ġflooding": 5265,
      "Ġfailure": 5266,
      "Ġdedicated": 5267,
      "Ġanalysis": 5268,
      "ĠMel": 5269,
      "ĠOf": 5270,
      "Ġunus": 5271,
      "Ġapplic": 5272,
      "Ġupgr": 5273,
      "ĠAlbum": 5274,
      "Ġends": 5275,
      "Ġlands": 5276,
      "Ġsoundtrack": 5277,
      "Ġanimal": 5278,
      "Ġcommissioned": 5279,
      "ĠAddition": 5280,
      "pass": 5281,
      "ental": 5282,
      "ĠMat": 5283,
      "ider": 5284,
      "Ġshall": 5285,
      "Ġthemes": 5286,
      "Ġsubm": 5287,
      "Ġtrav": 5288,
      "Ġ175": 5289,
      "ĠSpec": 5290,
      "ĠRepublican": 5291,
      "Ġpurpose": 5292,
      "nel": 5293,
      "isers": 5294,
      "omy": 5295,
      "ĠMax": 5296,
      "ĠPit": 5297,
      "ĠYe": 5298,
      "ĠYoung": 5299,
      "Ġexpansion": 5300,
      "Ġcoal": 5301,
      "ancing": 5302,
      "Ġpublication": 5303,
      "ĠTeam": 5304,
      "ĠValley": 5305,
      "ĠBowl": 5306,
      "Station": 5307,
      "Ġarticle": 5308,
      "war": 5309,
      "atures": 5310,
      "Ġpitch": 5311,
      "Ġdata": 5312,
      "uting": 5313,
      "espread": 5314,
      "Ġviewed": 5315,
      "Ġspeak": 5316,
      "Ġcorrespond": 5317,
      "ĠCoast": 5318,
      "ĠOlympics": 5319,
      "Ġacquired": 5320,
      "ĠHistor": 5321,
      "Ġfict": 5322,
      "ĠPre": 5323,
      "ĠFour": 5324,
      "anda": 5325,
      "Ġseat": 5326,
      "Ġadapt": 5327,
      "Ġ73": 5328,
      "Ġ1964": 5329,
      "Ġsimple": 5330,
      "Ġ1916": 5331,
      "Ġworldwide": 5332,
      "Ġkilling": 5333,
      "Ġlaws": 5334,
      "Ġeyes": 5335,
      "ĠCambridge": 5336,
      "Ġbudget": 5337,
      "Ġpict": 5338,
      "Ġhits": 5339,
      "ĠSix": 5340,
      "ĠMov": 5341,
      "ĠBos": 5342,
      "ĠLady": 5343,
      "Ġ1984": 5344,
      "Ġcarry": 5345,
      "Ġtwelve": 5346,
      "Ġsuggests": 5347,
      "Ġintensity": 5348,
      "Ġaid": 5349,
      "Ġfrag": 5350,
      "ĠFred": 5351,
      "ĠGre": 5352,
      "ĠEach": 5353,
      "ĠEll": 5354,
      "Ġunf": 5355,
      "Ġcontaining": 5356,
      "Ġadult": 5357,
      "Ġ57": 5358,
      "Ġ700": 5359,
      "Ġactress": 5360,
      "ĠAtt": 5361,
      "Ġprovides": 5362,
      "ĠAssembly": 5363,
      "Ġmerch": 5364,
      "Ġwitness": 5365,
      "ba": 5366,
      "Ġtry": 5367,
      "ishes": 5368,
      "Ġbass": 5369,
      "imal": 5370,
      "ĠForm": 5371,
      "ĠEven": 5372,
      "Ġven": 5373,
      "ĠOh": 5374,
      "apers": 5375,
      "Ġresemb": 5376,
      "Ġevac": 5377,
      "Ġgrass": 5378,
      "ĠCommon": 5379,
      "ĠChristmas": 5380,
      "Ġprojects": 5381,
      "Ġglob": 5382,
      "Ġencoura": 5383,
      "Ġkilometres": 5384,
      "oen": 5385,
      "Ġow": 5386,
      "Ġmole": 5387,
      "imet": 5388,
      "thur": 5389,
      "ĠGall": 5390,
      "ĠJud": 5391,
      "ender": 5392,
      "Ġdistingu": 5393,
      "ĠWhat": 5394,
      "Ġcouncil": 5395,
      "ĠPlayStation": 5396,
      "ĠStudios": 5397,
      "Ġmist": 5398,
      "ĠMike": 5399,
      "Ġgives": 5400,
      "ĠRun": 5401,
      "ĠFar": 5402,
      "lder": 5403,
      "ardine": 5404,
      "essee": 5405,
      "Ġartillery": 5406,
      "ĠProt": 5407,
      "Ġparliament": 5408,
      "Ġsites": 5409,
      "ĠMontana": 5410,
      "Ġrepeated": 5411,
      "chest": 5412,
      "heim": 5413,
      "Ġbul": 5414,
      "Ġlabor": 5415,
      "Ġheard": 5416,
      "ulate": 5417,
      "ĠFurther": 5418,
      "ĠLes": 5419,
      "ĠInst": 5420,
      "Ġcomputer": 5421,
      "ĠVen": 5422,
      "Ġroll": 5423,
      "Ġappl": 5424,
      "phia": 5425,
      "ilding": 5426,
      "ĠConf": 5427,
      "Ġoccas": 5428,
      "Ġvisual": 5429,
      "Ġsuccessfully": 5430,
      "Ġearliest": 5431,
      "Ġmotion": 5432,
      "Ġcontributed": 5433,
      "glas": 5434,
      "ĠCroatia": 5435,
      "Ġtru": 5436,
      "eno": 5437,
      "ĠMid": 5438,
      "essed": 5439,
      "Ġsecurity": 5440,
      "Ġentirely": 5441,
      "adelphia": 5442,
      "ĠSpokane": 5443,
      "iences": 5444,
      "orus": 5445,
      "Ġthing": 5446,
      "stone": 5447,
      "ĠDi": 5448,
      "ĠGir": 5449,
      "Ġexperienced": 5450,
      "Ġcasual": 5451,
      "ĠColonel": 5452,
      "Ġmales": 5453,
      "ĠSu": 5454,
      "Ġbeaut": 5455,
      "ĠNBA": 5456,
      "ĠStorm": 5457,
      "Ġprey": 5458,
      "ampion": 5459,
      "Ġopposition": 5460,
      "Ġcharts": 5461,
      "Ġsettlement": 5462,
      "Ġaccompanied": 5463,
      "lav": 5464,
      "ners": 5465,
      "Ġsave": 5466,
      "omew": 5467,
      "ĠLike": 5468,
      "aki": 5469,
      "Ġsuppor": 5470,
      "ashion": 5471,
      "Ġlanding": 5472,
      "Ġ1915": 5473,
      "Ġlaunch": 5474,
      "Ġexisting": 5475,
      "ĠTennessee": 5476,
      "Ġdaily": 5477,
      "Ġreform": 5478,
      "ote": 5479,
      "Ġquite": 5480,
      "Ġperforming": 5481,
      "Ġcriticism": 5482,
      "gn": 5483,
      "iling": 5484,
      "ĠBart": 5485,
      "Ġcenturies": 5486,
      "iami": 5487,
      "Ġpoly": 5488,
      "ĠHarry": 5489,
      "ĠAnderson": 5490,
      "Ġvolume": 5491,
      "ĠHawai": 5492,
      "gal": 5493,
      "ients": 5494,
      "lam": 5495,
      "nest": 5496,
      "set": 5497,
      "Ġcited": 5498,
      "iva": 5499,
      "ĠTheatre": 5500,
      "ĠDun": 5501,
      "Ġconference": 5502,
      "ĠWind": 5503,
      "Ġcommittee": 5504,
      "Ġrelief": 5505,
      "Ġfilmed": 5506,
      "Ġadvanced": 5507,
      "Ġhumans": 5508,
      "Ġstanding": 5509,
      "Ġgenre": 5510,
      "Ġwidespread": 5511,
      "Ġsignificantly": 5512,
      "Ġastron": 5513,
      "Ġrend": 5514,
      "Ġexpress": 5515,
      "Ġsteel": 5516,
      "IA": 5517,
      "era": 5518,
      "Ġsun": 5519,
      "itled": 5520,
      "Ġfilled": 5521,
      "ĠCat": 5522,
      "ĠRose": 5523,
      "ĠâĪ": 5524,
      "Ġperhaps": 5525,
      "ĠOnce": 5526,
      "Ġsinging": 5527,
      "ĠShow": 5528,
      "ĠZahir": 5529,
      "Ġproviding": 5530,
      "Ġdrawn": 5531,
      "Ġtechnology": 5532,
      "Ġarrang": 5533,
      "ĠSecretary": 5534,
      "With": 5535,
      "ĠMir": 5536,
      "Ġrise": 5537,
      "Ġsecondary": 5538,
      "Ġboats": 5539,
      "Ġimproved": 5540,
      "Ġmissions": 5541,
      "ĠPhiladelphia": 5542,
      "Ġtemperature": 5543,
      "erc": 5544,
      "ĠSR": 5545,
      "Ġlb": 5546,
      "ĠBand": 5547,
      "ĠHung": 5548,
      "ĠFestival": 5549,
      "Ġenl": 5550,
      "ayer": 5551,
      "Ġcondom": 5552,
      "ĠChap": 5553,
      "Ġsupporting": 5554,
      "Ġtrip": 5555,
      "ĠAirport": 5556,
      "Ġfemales": 5557,
      "Ġpurchased": 5558,
      "ĠOttoman": 5559,
      "lement": 5560,
      "ĠBull": 5561,
      "ĠRog": 5562,
      "apore": 5563,
      "Ġregions": 5564,
      "Ġdefined": 5565,
      "ĠShak": 5566,
      "Ġsevere": 5567,
      "Ġstarts": 5568,
      "Ġeditor": 5569,
      "Ġprograms": 5570,
      "ĠEarly": 5571,
      "Ã³n": 5572,
      "Ġdigital": 5573,
      "Ġtact": 5574,
      "oli": 5575,
      "ĠDie": 5576,
      "Ġ1918": 5577,
      "Ġdeaths": 5578,
      "ĠSwed": 5579,
      "Ġbaseball": 5580,
      "Ġtable": 5581,
      "Ġsand": 5582,
      "ĠSummer": 5583,
      "ĠMiami": 5584,
      "igg": 5585,
      "ceived": 5586,
      "ĠRap": 5587,
      "ĠDest": 5588,
      "Ġvo": 5589,
      "ella": 5590,
      "Ġoffensive": 5591,
      "Ġdefin": 5592,
      "Ġreputation": 5593,
      "ĠPolish": 5594,
      "Ġemployed": 5595,
      "Ġprepared": 5596,
      "ĠConstantine": 5597,
      "yphoon": 5598,
      "Ġwave": 5599,
      "Ġdrop": 5600,
      "acted": 5601,
      "ĠEnd": 5602,
      "Ġselect": 5603,
      "aka": 5604,
      "abeth": 5605,
      "ĠInstitute": 5606,
      "ights": 5607,
      "outs": 5608,
      "Ġgameplay": 5609,
      "Ġ81": 5610,
      "Ġ1943": 5611,
      "Ġbelief": 5612,
      "ĠPrime": 5613,
      "Ġspeech": 5614,
      "Ġfinds": 5615,
      "Ġconnected": 5616,
      "Ġfacilities": 5617,
      "Ġcurrently": 5618,
      "Ġoccupied": 5619,
      "Ġfictional": 5620,
      "Ġpiano": 5621,
      "odia": 5622,
      "ĠElect": 5623,
      "Ġlocations": 5624,
      "Ġbands": 5625,
      "Ġprotected": 5626,
      "Ġpul": 5627,
      "Ġhyp": 5628,
      "ĠTop": 5629,
      "ĠBern": 5630,
      "ĠFA": 5631,
      "Ġentrance": 5632,
      "ĠDev": 5633,
      "ĠBrook": 5634,
      "Ġrules": 5635,
      "uzz": 5636,
      "Ġdetails": 5637,
      "ĠDouglas": 5638,
      "Ġresponded": 5639,
      "lim": 5640,
      "ware": 5641,
      "Ġice": 5642,
      "Ġwolves": 5643,
      "ĠJam": 5644,
      "Ġproceed": 5645,
      "Ġchair": 5646,
      "ĠAlso": 5647,
      "ika": 5648,
      "Ġexperiment": 5649,
      "Ġproducing": 5650,
      "ĠDaniel": 5651,
      "inity": 5652,
      "Ġfan": 5653,
      "ĠMas": 5654,
      "Ġseems": 5655,
      "ĠChild": 5656,
      "Ġjourney": 5657,
      "ĠShort": 5658,
      "ĠEliz": 5659,
      "Ġlosses": 5660,
      "Ġdrew": 5661,
      "iration": 5662,
      "ĠJardine": 5663,
      "Ġcomic": 5664,
      "Ġchance": 5665,
      "ĠUl": 5666,
      "ĠJoe": 5667,
      "Ġdescript": 5668,
      "ĠBefore": 5669,
      "Ġengaged": 5670,
      "ĠRoberts": 5671,
      "ĠOffice": 5672,
      "Ġceremony": 5673,
      "Ġbattery": 5674,
      "Ġpsych": 5675,
      "och": 5676,
      "Ġcold": 5677,
      "Ġcool": 5678,
      "Ġlic": 5679,
      "ivered": 5680,
      "ults": 5681,
      "ĠNH": 5682,
      "Ġrhy": 5683,
      "ieval": 5684,
      "rence": 5685,
      "Ġsubstant": 5686,
      "ĠLee": 5687,
      "ĠAsh": 5688,
      "Ġgoes": 5689,
      "Ġanything": 5690,
      "Ġ1972": 5691,
      "Ġlandfall": 5692,
      "hetic": 5693,
      "Ġsafety": 5694,
      "Ġrapidly": 5695,
      "While": 5696,
      "bar": 5697,
      "inj": 5698,
      "rete": 5699,
      "Ġhired": 5700,
      "ĠJac": 5701,
      "Ġreceiving": 5702,
      "ĠGuitar": 5703,
      "Ġgradually": 5704,
      "ĠSingapore": 5705,
      "Ġnormal": 5706,
      "Ġrisk": 5707,
      "Ġsustained": 5708,
      "iations": 5709,
      "Ġtim": 5710,
      "Ġcaught": 5711,
      "Ġpack": 5712,
      "Ġisol": 5713,
      "ĠUt": 5714,
      "Ġyounger": 5715,
      "Ġ96": 5716,
      "Ġcapacity": 5717,
      "ĠIndust": 5718,
      "Ġedge": 5719,
      "Ġshooting": 5720,
      "Ġlearned": 5721,
      "Ġsymbol": 5722,
      "ordon": 5723,
      "Ġagent": 5724,
      "Ġ61": 5725,
      "Ġ99": 5726,
      "Ġcollected": 5727,
      "orney": 5728,
      "Ġsoft": 5729,
      "ĠArgent": 5730,
      "Ġheaded": 5731,
      "Ġimportance": 5732,
      "Ġrailway": 5733,
      "Ġcredited": 5734,
      "ĠImperial": 5735,
      "Ġsemi": 5736,
      "Ġenjoyed": 5737,
      "BI": 5738,
      "GN": 5739,
      "Ġtree": 5740,
      "arp": 5741,
      "ĠCra": 5742,
      "ĠMit": 5743,
      "verse": 5744,
      "Ġ59": 5745,
      "icks": 5746,
      "ĠScully": 5747,
      "Ġ130": 5748,
      "Ġoldest": 5749,
      "Ġdelivered": 5750,
      "Ġelimin": 5751,
      "Ġburied": 5752,
      "hm": 5753,
      "enger": 5754,
      "Ġbats": 5755,
      "ĠNever": 5756,
      "rif": 5757,
      "Ġpreced": 5758,
      "Ġdeveloping": 5759,
      "Ġ1971": 5760,
      "Ġ1968": 5761,
      "Ġprotect": 5762,
      "ĠSteve": 5763,
      "ĠEgyptian": 5764,
      "Ġopportunity": 5765,
      "hol": 5766,
      "ĠRol": 5767,
      "Ġrac": 5768,
      "Ġshaped": 5769,
      "ĠHeb": 5770,
      "Ġdecre": 5771,
      "awa": 5772,
      "ĠAsia": 5773,
      "ĠEngine": 5774,
      "Ġfinish": 5775,
      "Ġturns": 5776,
      "ĠPrinc": 5777,
      "Ġrevolution": 5778,
      "ĠGilbert": 5779,
      "Ġscheduled": 5780,
      "Ġexclus": 5781,
      "oir": 5782,
      "standing": 5783,
      "ĠBurn": 5784,
      "ĠChart": 5785,
      "iege": 5786,
      "hedral": 5787,
      "Ġconsists": 5788,
      "Ġwrites": 5789,
      "Ġphil": 5790,
      "elsh": 5791,
      "Ġallows": 5792,
      "Ġproducts": 5793,
      "mn": 5794,
      "Ġworth": 5795,
      "ĠHun": 5796,
      "Ġwhy": 5797,
      "Ġrated": 5798,
      "range": 5799,
      "Ġdescend": 5800,
      "achus": 5801,
      "Ġ176": 5802,
      "Ġshowing": 5803,
      "Ġadmitted": 5804,
      "Ġconsisting": 5805,
      "mosp": 5806,
      "Ġsomew": 5807,
      "Ġwolf": 5808,
      "asure": 5809,
      "Ġmounted": 5810,
      "ĠMD": 5811,
      "Ġnotable": 5812,
      "Ġadding": 5813,
      "ĠAllied": 5814,
      "ographic": 5815,
      "Ġcastle": 5816,
      "Ġsections": 5817,
      "Ġurban": 5818,
      "Ġdiam": 5819,
      "ĠSand": 5820,
      "Ġans": 5821,
      "ĠKim": 5822,
      "onder": 5823,
      "Ġdeck": 5824,
      "Ġundert": 5825,
      "poration": 5826,
      "Ġcrime": 5827,
      "Ġregarding": 5828,
      "Ġfashion": 5829,
      "Ġdry": 5830,
      "iminal": 5831,
      "Ġconqu": 5832,
      "enden": 5833,
      "Ġ71": 5834,
      "Ġprotection": 5835,
      "Ġfinding": 5836,
      "stitution": 5837,
      "Ġweakened": 5838,
      "ua": 5839,
      "zil": 5840,
      "ĠPrem": 5841,
      "ĠDE": 5842,
      "Ġimages": 5843,
      "Ġdepth": 5844,
      "Ġviews": 5845,
      "Ġtypical": 5846,
      "Ġcorrect": 5847,
      "intin": 5848,
      "Ġsurvived": 5849,
      "Ġfavour": 5850,
      "Ġscholars": 5851,
      "Ġsplit": 5852,
      "theless": 5853,
      "wise": 5854,
      "Ġfirm": 5855,
      "Ġbal": 5856,
      "ĠMur": 5857,
      "ĠPot": 5858,
      "ĠWelsh": 5859,
      "aved": 5860,
      "Ġspons": 5861,
      "Ġroof": 5862,
      "Ġretire": 5863,
      "Ġmuseum": 5864,
      "Ġsouthwest": 5865,
      "ĠBois": 5866,
      "Ġsteam": 5867,
      "ĠSerb": 5868,
      "Ġrebu": 5869,
      "ĠOlivier": 5870,
      "Ġhydro": 5871,
      "Ġfaith": 5872,
      "yer": 5873,
      "ãĤ": 5874,
      "Ġbrand": 5875,
      "Ġstore": 5876,
      "ĠDNA": 5877,
      "ĠLieutenant": 5878,
      "Ġring": 5879,
      "Ġdefensive": 5880,
      "Ġ1946": 5881,
      "Ġinternal": 5882,
      "chers": 5883,
      "Ġstrengthen": 5884,
      "ĠWalter": 5885,
      "worth": 5886,
      "Ġaim": 5887,
      "Ġpup": 5888,
      "Ġpaint": 5889,
      "Ġliber": 5890,
      "ĠRa": 5891,
      "ĠDrag": 5892,
      "ĠWrit": 5893,
      "aware": 5894,
      "Ġfilming": 5895,
      "Ġemp": 5896,
      "Ġinstruct": 5897,
      "Ġinfantry": 5898,
      "Ġ1956": 5899,
      "ĠBroad": 5900,
      "ĠAmong": 5901,
      "reme": 5902,
      "Ġvote": 5903,
      "ĠUpon": 5904,
      "Ġsegment": 5905,
      "According": 5906,
      "tical": 5907,
      "inary": 5908,
      "inton": 5909,
      "Ġdated": 5910,
      "state": 5911,
      "ĠBon": 5912,
      "ĠBol": 5913,
      "ĠJersey": 5914,
      "Ġshared": 5915,
      "Ġarc": 5916,
      "Ġdefence": 5917,
      "Ġdoor": 5918,
      "Ġpopulations": 5919,
      "Ġ1969": 5920,
      "ĠProject": 5921,
      "Ġconnection": 5922,
      "Ġstopped": 5923,
      "Ġconstitution": 5924,
      "Ġaer": 5925,
      "ĠPen": 5926,
      "emies": 5927,
      "ĠJin": 5928,
      "aine": 5929,
      "ĠStan": 5930,
      "Ġresident": 5931,
      "Ġknots": 5932,
      "Ġ93": 5933,
      "Ġacid": 5934,
      "Ġ1947": 5935,
      "ĠOrig": 5936,
      "Ġtemple": 5937,
      "Ġcrossing": 5938,
      "Ġnucle": 5939,
      "Ġconverted": 5940,
      "born": 5941,
      "Ġmount": 5942,
      "Ġnor": 5943,
      "ĠPC": 5944,
      "ockey": 5945,
      "Ġteacher": 5946,
      "anny": 5947,
      "Ġconcer": 5948,
      "Ġislands": 5949,
      "Ġimprove": 5950,
      "ĠPeople": 5951,
      "ĠMcCain": 5952,
      "Ġindustrial": 5953,
      "ĠâĪĴ": 5954,
      "ĠHebrew": 5955,
      "bridge": 5956,
      "vention": 5957,
      "Ġdial": 5958,
      "Ġdens": 5959,
      "Ġstages": 5960,
      "ĠWild": 5961,
      "ĠUr": 5962,
      "ansas": 5963,
      "Ġ1981": 5964,
      "ĠScient": 5965,
      "Ġ1973": 5966,
      "Ġconvoy": 5967,
      "Ġreading": 5968,
      "Ġfocused": 5969,
      "achusetts": 5970,
      "rot": 5971,
      "ĠTam": 5972,
      "ĠSound": 5973,
      "ĠRaf": 5974,
      "Ġ67": 5975,
      "Ġ69": 5976,
      "Ġindicated": 5977,
      "Ġ1974": 5978,
      "Ġbasket": 5979,
      "Ġfunds": 5980,
      "unnel": 5981,
      "Ġcandidate": 5982,
      "zep": 5983,
      "ushing": 5984,
      "ĠDown": 5985,
      "ĠIndepend": 5986,
      "engers": 5987,
      "Ġeverything": 5988,
      "Ġunsu": 5989,
      "ĠCuba": 5990,
      "bound": 5991,
      "lik": 5992,
      "Ġign": 5993,
      "ĠTen": 5994,
      "Ġalt": 5995,
      "Ġatmosp": 5996,
      "Ġvac": 5997,
      "Ġrural": 5998,
      "ables": 5999,
      "Ġnoting": 6000,
      "Ġentry": 6001,
      "Ġapproached": 6002,
      "ĠProf": 6003,
      "Ġintroduction": 6004,
      "ĠMassachusetts": 6005,
      "Ġdomestic": 6006,
      "ĠMulder": 6007,
      "don": 6008,
      "gest": 6009,
      "rell": 6010,
      "Ġhang": 6011,
      "oma": 6012,
      "irt": 6013,
      "ĠNash": 6014,
      "Ġselection": 6015,
      "ensus": 6016,
      "Ġknew": 6017,
      "Ġ1975": 6018,
      "Ġ1917": 6019,
      "Ġreplace": 6020,
      "ĠAndy": 6021,
      "Ġequal": 6022,
      "ĠPortug": 6023,
      "Ġholding": 6024,
      "ĠBrazil": 6025,
      "ĠCroatian": 6026,
      "Ġsoutheast": 6027,
      "Ġparallel": 6028,
      "intendo": 6029,
      "Ġtorn": 6030,
      "ician": 6031,
      "Ġreasons": 6032,
      "Ġeighth": 6033,
      "oln": 6034,
      "raham": 6035,
      "ĠNintendo": 6036,
      "ĠLife": 6037,
      "ĠUTC": 6038,
      "Ġsufficient": 6039,
      "Ġnote": 6040,
      "Ġrot": 6041,
      "izations": 6042,
      "Ġacres": 6043,
      "ĠSongs": 6044,
      "Ġfit": 6045,
      "Ġfung": 6046,
      "Ġtow": 6047,
      "ilton": 6048,
      "ĠMoon": 6049,
      "Ġgiant": 6050,
      "ĠIGN": 6051,
      "ĠPublic": 6052,
      "agement": 6053,
      "agues": 6054,
      "ova": 6055,
      "pper": 6056,
      "Ġoverl": 6057,
      "Ġ1919": 6058,
      "Ġautom": 6059,
      "Ġturning": 6060,
      "lsen": 6061,
      "Ġnarrative": 6062,
      "ĠNorway": 6063,
      "Ġpenal": 6064,
      "Ġalternative": 6065,
      "ĠStephen": 6066,
      "rates": 6067,
      "wen": 6068,
      "Å¡": 6069,
      "Ġcavalry": 6070,
      "itian": 6071,
      "ĠTintin": 6072,
      "entially": 6073,
      "Ġconsequ": 6074,
      "ctions": 6075,
      "Ġsole": 6076,
      "Ġentitled": 6077,
      "Ġ1982": 6078,
      "Ġestate": 6079,
      "Ġdesigns": 6080,
      "Ġ1979": 6081,
      "Ġtied": 6082,
      "Ġdream": 6083,
      "ĠSud": 6084,
      "ĠBat": 6085,
      "unicip": 6086,
      "ĠGordon": 6087,
      "Ġitems": 6088,
      "issance": 6089,
      "Ġ1937": 6090,
      "Ġgetting": 6091,
      "Ġtechnical": 6092,
      "Ġhybrid": 6093,
      "Ġdissip": 6094,
      "ĠFrancisc": 6095,
      "Ġaspects": 6096,
      "water": 6097,
      "ĠCD": 6098,
      "ĠBalt": 6099,
      "ĠBrian": 6100,
      "agle": 6101,
      "Ġrob": 6102,
      "Ġmanner": 6103,
      "Ġsubmar": 6104,
      "Ġassault": 6105,
      "Ġcapable": 6106,
      "Ġleadership": 6107,
      "Ġbattalion": 6108,
      "ivalent": 6109,
      "Ġderived": 6110,
      "Ġpoetry": 6111,
      "Ġduty": 6112,
      "Ġthousands": 6113,
      "hou": 6114,
      "inson": 6115,
      "Ġfur": 6116,
      "ĠCorn": 6117,
      "ĠHard": 6118,
      "Ġintercept": 6119,
      "Ġ1965": 6120,
      "Ġserves": 6121,
      "Ġsumm": 6122,
      "ĠMagazine": 6123,
      "Ġwatched": 6124,
      "ĠElizabeth": 6125,
      "Ġunsuccess": 6126,
      "heastern": 6127,
      "Ġcra": 6128,
      "Ġdy": 6129,
      "Ġlibrary": 6130,
      "Ġalle": 6131,
      "Ġexact": 6132,
      "Ġshif": 6133,
      "iously": 6134,
      "Ġdecade": 6135,
      "Ġ1953": 6136,
      "Ġvolunte": 6137,
      "Ġscientific": 6138,
      "ĠMatthew": 6139,
      "ĠRyan": 6140,
      "Ġopinion": 6141,
      "eenth": 6142,
      "Ġtend": 6143,
      "Ġbom": 6144,
      "ano": 6145,
      "Ġharm": 6146,
      "ĠAst": 6147,
      "ĠMen": 6148,
      "Ġonline": 6149,
      "ĠRod": 6150,
      "ĠDaily": 6151,
      "ĠGer": 6152,
      "ĠLab": 6153,
      "ĠJane": 6154,
      "Ġ58": 6155,
      "kee": 6156,
      "Ġ1948": 6157,
      "Ġobtained": 6158,
      "Ġways": 6159,
      "Ġmissing": 6160,
      "Ġvirt": 6161,
      "ĠRachel": 6162,
      "Ġouter": 6163,
      "Ġdin": 6164,
      "Ġdates": 6165,
      "ivals": 6166,
      "ĠRos": 6167,
      "ĠFre": 6168,
      "ĠGree": 6169,
      "ĠJean": 6170,
      "ava": 6171,
      "upt": 6172,
      "ubble": 6173,
      "Ġflat": 6174,
      "Ġmusicians": 6175,
      "Ġoccurs": 6176,
      "Ġlasted": 6177,
      "incoln": 6178,
      "Ġpopularity": 6179,
      "Ġextremely": 6180,
      "Ġcertified": 6181,
      "Ġauthors": 6182,
      "ĠInstead": 6183,
      "uan": 6184,
      "ãģ": 6185,
      "ĠSub": 6186,
      "ompl": 6187,
      "amin": 6188,
      "ĠNative": 6189,
      "Ġvary": 6190,
      "sey": 6191,
      "ĠMarsh": 6192,
      "Ġ1983": 6193,
      "isms": 6194,
      "Ġprotagon": 6195,
      "idden": 6196,
      "Ġimprov": 6197,
      "Ġidentity": 6198,
      "Ġrenamed": 6199,
      "Ġexistence": 6200,
      "Ġdenied": 6201,
      "Ġgods": 6202,
      "ĠTurner": 6203,
      "mes": 6204,
      "Ġtheatre": 6205,
      "Ġsession": 6206,
      "ĠSle": 6207,
      "ĠIV": 6208,
      "char": 6209,
      "ĠWolf": 6210,
      "Ġ63": 6211,
      "Ġaccompl": 6212,
      "encies": 6213,
      "Ġliterary": 6214,
      "Ġbegun": 6215,
      "Ġpitched": 6216,
      "iques": 6217,
      "AR": 6218,
      "rets": 6219,
      "Ġdim": 6220,
      "erset": 6221,
      "osite": 6222,
      "ĠLincoln": 6223,
      "Ġresour": 6224,
      "Ġoverse": 6225,
      "Ġdecades": 6226,
      "ropri": 6227,
      "ĠSega": 6228,
      "ĠAbout": 6229,
      "Ġdistribution": 6230,
      "ĠAlexander": 6231,
      "Ġhotel": 6232,
      "ez": 6233,
      "har": 6234,
      "reets": 6235,
      "Ġbought": 6236,
      "elson": 6237,
      "ĠHay": 6238,
      "ĠDue": 6239,
      "opes": 6240,
      "come": 6241,
      "met": 6242,
      "Ġsalt": 6243,
      "Ġpy": 6244,
      "ĠSus": 6245,
      "Ġnavig": 6246,
      "Ġgall": 6247,
      "ĠNether": 6248,
      "ĠVideo": 6249,
      "Ġ74": 6250,
      "ĠArts": 6251,
      "Ġstudied": 6252,
      "Ġ110": 6253,
      "Ġ1963": 6254,
      "Ġ1958": 6255,
      "Ġviolence": 6256,
      "ĠCastle": 6257,
      "lan": 6258,
      "Ġtoll": 6259,
      "ĠAD": 6260,
      "amber": 6261,
      "Ġones": 6262,
      "othes": 6263,
      "agan": 6264,
      "Ġreconst": 6265,
      "Ġsubs": 6266,
      "ĠIndies": 6267,
      "Ġphase": 6268,
      "Ġmoder": 6269,
      "Ġsolid": 6270,
      "Ġmissed": 6271,
      "ĠIslands": 6272,
      "Ġappoint": 6273,
      "Ġsucceeded": 6274,
      "He": 6275,
      "Ġwars": 6276,
      "Ġcrop": 6277,
      "Ġbed": 6278,
      "uration": 6279,
      "ĠRay": 6280,
      "ĠDer": 6281,
      "ĠWars": 6282,
      "ĠOffic": 6283,
      "Ġwealth": 6284,
      "Ġ87": 6285,
      "Ġdecline": 6286,
      "Ġcolour": 6287,
      "Ġemperor": 6288,
      "ĠClinton": 6289,
      "ĠRichardson": 6290,
      "Ġvehicle": 6291,
      "ĠIllino": 6292,
      "One": 6293,
      "Ġsort": 6294,
      "Ġsons": 6295,
      "abled": 6296,
      "Ġoffers": 6297,
      "Ġneither": 6298,
      "Ġcommitted": 6299,
      "Ġ1967": 6300,
      "Ġdriving": 6301,
      "Ġfreed": 6302,
      "Ġcommunities": 6303,
      "Ġarrested": 6304,
      "For": 6305,
      "chen": 6306,
      "Ġcart": 6307,
      "ĠSab": 6308,
      "elly": 6309,
      "ussion": 6310,
      "ĠFam": 6311,
      "oslav": 6312,
      "ĠVill": 6313,
      "ĠAnth": 6314,
      "ĠClark": 6315,
      "Ġskin": 6316,
      "ĠOrder": 6317,
      "Ġarranged": 6318,
      "ĠAdditionally": 6319,
      "uv": 6320,
      "Ġfolk": 6321,
      "ador": 6322,
      "Ġoutbreak": 6323,
      "Ġlimit": 6324,
      "Ġbrothers": 6325,
      "Ġnomination": 6326,
      "Ġsupplies": 6327,
      "iat": 6328,
      "Ġcatch": 6329,
      "Ġbottom": 6330,
      "ĠId": 6331,
      "Ġexerc": 6332,
      "Ġshop": 6333,
      "Ġparties": 6334,
      "ibl": 6335,
      "Ġ91": 6336,
      "Ġ97": 6337,
      "ĠOnly": 6338,
      "Ġentering": 6339,
      "Ġgeneration": 6340,
      "Ġ1976": 6341,
      "Ġclasses": 6342,
      "ĠSingles": 6343,
      "Ġconsiderable": 6344,
      "Ġreaction": 6345,
      "Ġsettled": 6346,
      "Ġratings": 6347,
      "ĠColumbia": 6348,
      "rin": 6349,
      "ingly": 6350,
      "Ġlov": 6351,
      "Ġeth": 6352,
      "omic": 6353,
      "ĠMot": 6354,
      "ĠBul": 6355,
      "ĠBudd": 6356,
      "ĠHorn": 6357,
      "umin": 6358,
      "ections": 6359,
      "Ġschem": 6360,
      "Ġattached": 6361,
      "Ġaddress": 6362,
      "Ġcarrying": 6363,
      "Ġ1966": 6364,
      "Ġmedieval": 6365,
      "Ġpossibility": 6366,
      "helm": 6367,
      "Ġposted": 6368,
      "Ġpromotion": 6369,
      "ĠMexican": 6370,
      "Ġrailroad": 6371,
      "nesota": 6372,
      "Ġabsor": 6373,
      "yrus": 6374,
      "Ġrecommended": 6375,
      "Ġninth": 6376,
      "Ġmessage": 6377,
      "Ġcamera": 6378,
      "Ġcasualties": 6379,
      "uy": 6380,
      "yles": 6381,
      "ĠTrib": 6382,
      "Ġlob": 6383,
      "ĠCape": 6384,
      "ĠJes": 6385,
      "Ġchannel": 6386,
      "usted": 6387,
      "Ġrose": 6388,
      "Ġactual": 6389,
      "Ġaccused": 6390,
      "ĠPhoen": 6391,
      "Ġeffectively": 6392,
      "Ġclubs": 6393,
      "ĠAtlant": 6394,
      "Ġinhabit": 6395,
      "Ġapplied": 6396,
      "western": 6397,
      "Ġtheat": 6398,
      "Ġfish": 6399,
      "ications": 6400,
      "Ġha": 6401,
      "Ġham": 6402,
      "eless": 6403,
      "ĠMeanwhile": 6404,
      "opher": 6405,
      "Ġrecalled": 6406,
      "Ġsecure": 6407,
      "Ġsomeone": 6408,
      "Ġpublisher": 6409,
      "Ġdepartment": 6410,
      "ridges": 6411,
      "Ġ1957": 6412,
      "inking": 6413,
      "Ġ1910": 6414,
      "ĠMinnesota": 6415,
      "Ġspeaking": 6416,
      "Ġreligion": 6417,
      "Ġpainting": 6418,
      "ĠFederer": 6419,
      "Ġcolonial": 6420,
      "Ġclean": 6421,
      "vey": 6422,
      "zer": 6423,
      "Ġfranch": 6424,
      "illy": 6425,
      "eld": 6426,
      "ĠCa": 6427,
      "ĠWat": 6428,
      "ĠGram": 6429,
      "Ġvon": 6430,
      "Ġorchest": 6431,
      "Ġenemies": 6432,
      "Ġ82": 6433,
      "Ġ98": 6434,
      "Ġretained": 6435,
      "ĠReview": 6436,
      "Ġtransm": 6437,
      "Ġdisturb": 6438,
      "Ġgreatly": 6439,
      "Ġmyth": 6440,
      "Ġinvolvement": 6441,
      "Ġsounds": 6442,
      "ĠTownship": 6443,
      "Ġremainder": 6444,
      "ĠSomerset": 6445,
      "ĠMichel": 6446,
      "ĠExpress": 6447,
      "Ġoccasionally": 6448,
      "onymous": 6449,
      "Ġphilos": 6450,
      "know": 6451,
      "pet": 6452,
      "Ġtal": 6453,
      "Ġexchange": 6454,
      "aret": 6455,
      "ĠMars": 6456,
      "Ġcharged": 6457,
      "Ġaccur": 6458,
      "Ġclassified": 6459,
      "Ġcommanded": 6460,
      "Ġkingdom": 6461,
      "Ġapart": 6462,
      "Ġequipped": 6463,
      "Ġsupposed": 6464,
      "Ġpenalty": 6465,
      "Ġpure": 6466,
      "olished": 6467,
      "ĠDor": 6468,
      "aked": 6469,
      "Ġshel": 6470,
      "Ġcancer": 6471,
      "Ġminister": 6472,
      "Ġwarm": 6473,
      "Ġ1977": 6474,
      "Ġoperating": 6475,
      "Ġheads": 6476,
      "Ġstoryline": 6477,
      "Ġcriminal": 6478,
      "Ġconvin": 6479,
      "Ġsolar": 6480,
      "Ġcustom": 6481,
      "Ġeasily": 6482,
      "ĠCold": 6483,
      "Ġstret": 6484,
      "ĠChannel": 6485,
      "ranean": 6486,
      "Ġattracted": 6487,
      "Ġ68": 6488,
      "Ġremix": 6489,
      "ifications": 6490,
      "ĠSpring": 6491,
      "iversary": 6492,
      "Ġfinishing": 6493,
      "Ġapproved": 6494,
      "Ġreality": 6495,
      "box": 6496,
      "former": 6497,
      "Ġcircum": 6498,
      "Ġspecifically": 6499,
      "ĠTemple": 6500,
      "Ġpermanent": 6501,
      "jo": 6502,
      "Ġcul": 6503,
      "Ġnob": 6504,
      "ĠDog": 6505,
      "ĠNaz": 6506,
      "Ġ77": 6507,
      "Ġ88": 6508,
      "ixon": 6509,
      "ugoslav": 6510,
      "Ġregional": 6511,
      "Ġinvited": 6512,
      "Ġ1936": 6513,
      "Ġbreaking": 6514,
      "Ġbasic": 6515,
      "Ġmassive": 6516,
      "ĠEvery": 6517,
      "Ġathletes": 6518,
      "ĠFrancisco": 6519,
      "ĠIllinois": 6520,
      "ii": 6521,
      "eral": 6522,
      "ĠSk": 6523,
      "ĠMTV": 6524,
      "ĠWW": 6525,
      "ĠWard": 6526,
      "ĠFall": 6527,
      "Ġyouth": 6528,
      "rang": 6529,
      "Ġjump": 6530,
      "Ġ86": 6531,
      "ĠNewton": 6532,
      "Ġmeters": 6533,
      "ĠPhill": 6534,
      "Ġfields": 6535,
      "iece": 6536,
      "Ġreduce": 6537,
      "ĠOldham": 6538,
      "Ġstayed": 6539,
      "ĠHollywood": 6540,
      "Ġcitizens": 6541,
      "Sp": 6542,
      "kes": 6543,
      "Ġtick": 6544,
      "iti": 6545,
      "Ġmort": 6546,
      "idge": 6547,
      "ĠBre": 6548,
      "ĠPo": 6549,
      "ĠERA": 6550,
      "Ġcomposition": 6551,
      "ogen": 6552,
      "ĠMario": 6553,
      "Ġacclaim": 6554,
      "Ġpoll": 6555,
      "Ġ1955": 6556,
      "Ġdifficulty": 6557,
      "ĠSquare": 6558,
      "Ġescort": 6559,
      "Ġconcerns": 6560,
      "Ġpurchase": 6561,
      "ĠWalker": 6562,
      "Ġsomewhat": 6563,
      "Ê»": 6564,
      "Ġwed": 6565,
      "organ": 6566,
      "Ġhope": 6567,
      "acts": 6568,
      "ĠNC": 6569,
      "ĠObs": 6570,
      "Ġintention": 6571,
      "eyer": 6572,
      "Ġ1954": 6573,
      "Ġ250": 6574,
      "ĠProv": 6575,
      "Ġskills": 6576,
      "ĠEmperor": 6577,
      "Ġobjects": 6578,
      "Ġindependence": 6579,
      "Ġprincipal": 6580,
      "ĠOperation": 6581,
      "Ġchallenge": 6582,
      "iot": 6583,
      "Ã±": 6584,
      "orough": 6585,
      "Ġcard": 6586,
      "Ġmut": 6587,
      "Ġverse": 6588,
      "Ġplanning": 6589,
      "Ġsquad": 6590,
      "Ġdiscovery": 6591,
      "ĠWilson": 6592,
      "itzer": 6593,
      "Ġgraphics": 6594,
      "ĠSunday": 6595,
      "rine": 6596,
      "Ġsam": 6597,
      "Ġsell": 6598,
      "roit": 6599,
      "irk": 6600,
      "igration": 6601,
      "ĠLi": 6602,
      "uble": 6603,
      "ĠYugoslav": 6604,
      "Ġconsum": 6605,
      "Ġflank": 6606,
      "Ġfeeling": 6607,
      "Ġemerg": 6608,
      "ĠRailway": 6609,
      "ĠCardiff": 6610,
      "Ġproposal": 6611,
      "bl": 6612,
      "hered": 6613,
      "oral": 6614,
      "Ġbra": 6615,
      "ĠHin": 6616,
      "ĠRet": 6617,
      "ĠDomin": 6618,
      "ulpt": 6619,
      "ĠOpen": 6620,
      "ĠStation": 6621,
      "ĠStaff": 6622,
      "Ġremn": 6623,
      "Ġsupern": 6624,
      "Ġdescribing": 6625,
      "Ġtriang": 6626,
      "Ġstrateg": 6627,
      "Ġreviewers": 6628,
      "alymp": 6629,
      "ĠHowe": 6630,
      "Ġbattleships": 6631,
      "Ġattributed": 6632,
      "Ġregistered": 6633,
      "gon": 6634,
      "rich": 6635,
      "Ġban": 6636,
      "ione": 6637,
      "ĠRoy": 6638,
      "Ġfled": 6639,
      "Ġ1962": 6640,
      "Ġreplacement": 6641,
      "Ġvoted": 6642,
      "Ġsuperior": 6643,
      "Ġthreatened": 6644,
      "Ġslowly": 6645,
      "Ġancest": 6646,
      "Ġthirty": 6647,
      "Ġvessels": 6648,
      "kins": 6649,
      "oard": 6650,
      "inet": 6651,
      "Ġod": 6652,
      "itors": 6653,
      "ĠAround": 6654,
      "Ġgal": 6655,
      "ĠPower": 6656,
      "ĠNas": 6657,
      "ĠLow": 6658,
      "ĠKes": 6659,
      "okes": 6660,
      "ĠSpe": 6661,
      "Ġlongest": 6662,
      "Ġinstalled": 6663,
      "Ġ140": 6664,
      "ĠParalymp": 6665,
      "ĠAbb": 6666,
      "Ġrepresenting": 6667,
      "Ġcorner": 6668,
      "ĠWeekly": 6669,
      "Ġintelligence": 6670,
      "Ġgard": 6671,
      "ĠHou": 6672,
      "Ġincome": 6673,
      "ĠAlf": 6674,
      "Ġaccounts": 6675,
      "insula": 6676,
      "Ġ1978": 6677,
      "Ġwinner": 6678,
      "Ġrestaur": 6679,
      "Ġpolitics": 6680,
      "Ġappeal": 6681,
      "Ġstatement": 6682,
      "Ġsettlers": 6683,
      "Ġreinforce": 6684,
      "aug": 6685,
      "rees": 6686,
      "ashed": 6687,
      "Ġnick": 6688,
      "acent": 6689,
      "ĠMills": 6690,
      "ĠPow": 6691,
      "ptun": 6692,
      "rane": 6693,
      "ĠAlan": 6694,
      "Ġinterested": 6695,
      "Ġcharges": 6696,
      "ĠGermans": 6697,
      "Ġrestored": 6698,
      "Ġevening": 6699,
      "ĠFlight": 6700,
      "Ġcombination": 6701,
      "Ġsynthes": 6702,
      "ĠTurk": 6703,
      "Ġduties": 6704,
      "ĠForest": 6705,
      "ĠDisney": 6706,
      "Ġsupporters": 6707,
      "rum": 6708,
      "Ġcin": 6709,
      "iders": 6710,
      "bery": 6711,
      "ĠVilla": 6712,
      "Ġago": 6713,
      "Ġassumed": 6714,
      "Ġconcur": 6715,
      "ĠColor": 6716,
      "Ġcourts": 6717,
      "Ġstrongly": 6718,
      "ĠCorporation": 6719,
      "ĠSwift": 6720,
      "Ġassociation": 6721,
      "Ġinjured": 6722,
      "ĠNetherlands": 6723,
      "ES": 6724,
      "ooth": 6725,
      "Ġ#": 6726,
      "Ġ×": 6727,
      "isa": 6728,
      "stances": 6729,
      "irates": 6730,
      "ĠRaj": 6731,
      "Ġrit": 6732,
      "apes": 6733,
      "Ġ79": 6734,
      "Ġ92": 6735,
      "Ġpointed": 6736,
      "Ġglass": 6737,
      "ophy": 6738,
      "ĠMedal": 6739,
      "ÃŃa": 6740,
      "Ġsatisf": 6741,
      "rant": 6742,
      "wa": 6743,
      "Ġdie": 6744,
      "rait": 6745,
      "ĠGreg": 6746,
      "ĠNick": 6747,
      "ewhere": 6748,
      "undy": 6749,
      "Ġsuperv": 6750,
      "ĠLeg": 6751,
      "Ġcrest": 6752,
      "ĠWho": 6753,
      "Ġowner": 6754,
      "risis": 6755,
      "Ġsurviving": 6756,
      "Ġtechniques": 6757,
      "Ġcrossed": 6758,
      "Ġcosts": 6759,
      "ĠMilitary": 6760,
      "Ġdistributed": 6761,
      "Ġportrayed": 6762,
      "Ġbacteria": 6763,
      "ĠDetroit": 6764,
      "after": 6765,
      "Ġtell": 6766,
      "Ġsailed": 6767,
      "Ġfear": 6768,
      "asi": 6769,
      "ĠHospital": 6770,
      "ĠPed": 6771,
      "Ġraces": 6772,
      "Ġcloth": 6773,
      "Ġacts": 6774,
      "ucky": 6775,
      "Ġreception": 6776,
      "Ġpassengers": 6777,
      "Ġ1952": 6778,
      "ĠMcG": 6779,
      "Ġconvent": 6780,
      "Ġseparated": 6781,
      "Ġflights": 6782,
      "ĠHamilton": 6783,
      "ĠMaryland": 6784,
      "Ġrecovered": 6785,
      "ĠPremier": 6786,
      "gÃ©": 6787,
      "tenden": 6788,
      "Ġdub": 6789,
      "using": 6790,
      "ĠRome": 6791,
      "ĠLet": 6792,
      "ĠInt": 6793,
      "ĠâĢľ": 6794,
      "Ġsculpt": 6795,
      "Ġdecor": 6796,
      "ropol": 6797,
      "Ġraise": 6798,
      "Ġformat": 6799,
      "Ġformal": 6800,
      "Ġindig": 6801,
      "ĠSpace": 6802,
      "ologists": 6803,
      "Ġappearing": 6804,
      "Ġgrant": 6805,
      "Ġbrigade": 6806,
      "Ġdiscussed": 6807,
      "Ġrarely": 6808,
      "Ġlegislation": 6809,
      "Ġbasketball": 6810,
      "matic": 6811,
      "va": 6812,
      "Ġ*": 6813,
      "erted": 6814,
      "Ġsud": 6815,
      "Ġdress": 6816,
      "ĠAI": 6817,
      "ĠJr": 6818,
      "ĠâĤ": 6819,
      "Ġskull": 6820,
      "Ġequivalent": 6821,
      "ĠGeorg": 6822,
      "going": 6823,
      "Ġhoped": 6824,
      "Ġcompletion": 6825,
      "Ġassistance": 6826,
      "ĠHoward": 6827,
      "Ġspecimens": 6828,
      "It": 6829,
      "Ġsiege": 6830,
      "ali": 6831,
      "ĠHorse": 6832,
      "ĠNelson": 6833,
      "Ġrum": 6834,
      "Ġplane": 6835,
      "Ġshark": 6836,
      "ĠâĢĿ": 6837,
      "overe": 6838,
      "ructure": 6839,
      "Ġopposite": 6840,
      "Ġpresidential": 6841,
      "Ġestablishment": 6842,
      "Ġbringing": 6843,
      "Ġintersection": 6844,
      "bec": 6845,
      "ĠAk": 6846,
      "ĠMountain": 6847,
      "Ġstream": 6848,
      "Ġcong": 6849,
      "ĠKap": 6850,
      "aste": 6851,
      "ĠAlice": 6852,
      "ensis": 6853,
      "ĠAnton": 6854,
      "ĠConst": 6855,
      "Ġ1961": 6856,
      "ĠBeat": 6857,
      "Ġterminus": 6858,
      "Ġdemand": 6859,
      "Ġdebate": 6860,
      "Ġlowest": 6861,
      "Ġinvolving": 6862,
      "Ġvictims": 6863,
      "Ġseeing": 6864,
      "Ġcoastal": 6865,
      "Ġregularly": 6866,
      "Ġemerged": 6867,
      "Ġseemed": 6868,
      "Ġchemical": 6869,
      "overeign": 6870,
      "kan": 6871,
      "Ġske": 6872,
      "Ġmode": 6873,
      "Ġdipl": 6874,
      "amm": 6875,
      "ĠHell": 6876,
      "ĠPy": 6877,
      "Ġconvers": 6878,
      "Ġpregn": 6879,
      "Ġteen": 6880,
      "Ġacknow": 6881,
      "Ġmoves": 6882,
      "arsh": 6883,
      "Ġbelieves": 6884,
      "Ġjoint": 6885,
      "Ġpraise": 6886,
      "Ġvalley": 6887,
      "ommod": 6888,
      "ĠWheeler": 6889,
      "Ġunusual": 6890,
      "FL": 6891,
      "rating": 6892,
      "zen": 6893,
      "Äĥ": 6894,
      "á»": 6895,
      "Ġtas": 6896,
      "rec": 6897,
      "Ġsessions": 6898,
      "Ġmo": 6899,
      "ĠTower": 6900,
      "elesc": 6901,
      "Ġheat": 6902,
      "Ġveter": 6903,
      "Ġchorus": 6904,
      "ĠInn": 6905,
      "Ġreserv": 6906,
      "ĠYour": 6907,
      "angerous": 6908,
      "Ġcolony": 6909,
      "velopment": 6910,
      "ĠCaribb": 6911,
      "Ġ1933": 6912,
      "Ġpersonnel": 6913,
      "Ġcauses": 6914,
      "Ġneeds": 6915,
      "Ġassistant": 6916,
      "Ġdominated": 6917,
      "ĠHonor": 6918,
      "Ġresistance": 6919,
      "ĠDirector": 6920,
      "Ġpreferred": 6921,
      "Ġglobal": 6922,
      "odiazep": 6923,
      "ĠShortly": 6924,
      "ĠCaribbean": 6925,
      "Ġbond": 6926,
      "aria": 6927,
      "Ġeat": 6928,
      "Ġneck": 6929,
      "Ġrich": 6930,
      "ĠHeart": 6931,
      "Ġformally": 6932,
      "Ġoffices": 6933,
      "Ġsuccessor": 6934,
      "Ġopera": 6935,
      "Ġlegs": 6936,
      "Ġpromote": 6937,
      "Ġcirculation": 6938,
      "ĠMediter": 6939,
      "Ġexception": 6940,
      "ĠGolden": 6941,
      "Ġchapter": 6942,
      "Ġbehavior": 6943,
      "Ġwickets": 6944,
      "ĠSn": 6945,
      "Ġloyal": 6946,
      "ĠBas": 6947,
      "ĠNBC": 6948,
      "Ġshore": 6949,
      "ĠKong": 6950,
      "Ġroutes": 6951,
      "ooking": 6952,
      "ĠArthur": 6953,
      "ĠLev": 6954,
      "Ġ1935": 6955,
      "Ġdetermine": 6956,
      "Ġconcerned": 6957,
      "Ġforests": 6958,
      "Ġproteins": 6959,
      "Ġalleged": 6960,
      "hi": 6961,
      "mith": 6962,
      "lew": 6963,
      "aman": 6964,
      "ĠCab": 6965,
      "Ġproport": 6966,
      "ifa": 6967,
      "Ġimpl": 6968,
      "Ġpret": 6969,
      "wealth": 6970,
      "Ġ89": 6971,
      "Ġairport": 6972,
      "ĠCarter": 6973,
      "ĠCarlsen": 6974,
      "ervative": 6975,
      "Ġattacking": 6976,
      "Ġclassification": 6977,
      "Ġreviewer": 6978,
      "Ġdestruction": 6979,
      "lsewhere": 6980,
      "ĠGlen": 6981,
      "Ġpredecess": 6982,
      "Ġsuffering": 6983,
      "Ġexcav": 6984,
      "Ġfunding": 6985,
      "Ġresponsibility": 6986,
      "Ġchalleng": 6987,
      "ĠMediterranean": 6988,
      "onia": 6989,
      "ato": 6990,
      "Ġinner": 6991,
      "olt": 6992,
      "ĠBack": 6993,
      "aya": 6994,
      "ĠLl": 6995,
      "sole": 6996,
      "ignment": 6997,
      "Ġotherwise": 6998,
      "angers": 6999,
      "Ġ83": 7000,
      "Ġconcrete": 7001,
      "Ġpassage": 7002,
      "Ġ1912": 7003,
      "Ġgenes": 7004,
      "Ġnovels": 7005,
      "Ġinterpret": 7006,
      "Ar": 7007,
      "Ġster": 7008,
      "ati": 7009,
      "anium": 7010,
      "Ġhal": 7011,
      "ela": 7012,
      "ĠCy": 7013,
      "ĠMah": 7014,
      "Ġru": 7015,
      "Ġcloud": 7016,
      "Ġdesire": 7017,
      "ĠMarine": 7018,
      "Ġassass": 7019,
      "Ġdepend": 7020,
      "Ġdowntown": 7021,
      "ossible": 7022,
      "ysc": 7023,
      "Ġanniversary": 7024,
      "Ġbatting": 7025,
      "Ġrequested": 7026,
      "ĠHotel": 7027,
      "Ġcalc": 7028,
      "ĠDemocratic": 7029,
      "ĠToday": 7030,
      "ĠRolling": 7031,
      "Ġsudden": 7032,
      "ilation": 7033,
      "ader": 7034,
      "olph": 7035,
      "ĠBall": 7036,
      "ima": 7037,
      "ĠHor": 7038,
      "Ġstreets": 7039,
      "ĠRain": 7040,
      "agre": 7041,
      "iform": 7042,
      "anto": 7043,
      "apse": 7044,
      "Ġflu": 7045,
      "Ġ1931": 7046,
      "ographical": 7047,
      "Ġinspiration": 7048,
      "ĠPlayer": 7049,
      "Ġjournalist": 7050,
      "Ġincorporated": 7051,
      "onica": 7052,
      "Ġsight": 7053,
      "itals": 7054,
      "Ġmir": 7055,
      "ĠBir": 7056,
      "ĠDj": 7057,
      "ĠDark": 7058,
      "ĠInc": 7059,
      "ĠThus": 7060,
      "Ġrelative": 7061,
      "Ġassemb": 7062,
      "Ġdoct": 7063,
      "rams": 7064,
      "Ġmathem": 7065,
      "ĠCanal": 7066,
      "ĠCommander": 7067,
      "rett": 7068,
      "Ġhistorians": 7069,
      "Ġcycle": 7070,
      "Ġcollaps": 7071,
      "Ġrecognition": 7072,
      "Ġmaterials": 7073,
      "Ġagricultural": 7074,
      "iac": 7075,
      "Ġgather": 7076,
      "ĠGab": 7077,
      "aga": 7078,
      "earch": 7079,
      "Ġshut": 7080,
      "Ġtex": 7081,
      "ĠUnivers": 7082,
      "ribed": 7083,
      "Ġtrail": 7084,
      "ĠIndones": 7085,
      "Ġgrounds": 7086,
      "ĠCrown": 7087,
      "Ġtraveled": 7088,
      "Ġquestions": 7089,
      "ĠCrittenden": 7090,
      "Ġacademic": 7091,
      "egr": 7092,
      "Ġcad": 7093,
      "Ġpage": 7094,
      "ĠCop": 7095,
      "istan": 7096,
      "Ġvision": 7097,
      "Ġ84": 7098,
      "Ġdepict": 7099,
      "Ġwarning": 7100,
      "ĠDean": 7101,
      "ĠGuy": 7102,
      "Ġprogramme": 7103,
      "ĠEarl": 7104,
      "Ġarmor": 7105,
      "Ġfalling": 7106,
      "ĠErnest": 7107,
      "Ġisolated": 7108,
      "hatt": 7109,
      "mun": 7110,
      "Ġbid": 7111,
      "ĠRon": 7112,
      "ĠLabor": 7113,
      "akers": 7114,
      "ĠStadium": 7115,
      "Ġunion": 7116,
      "Ġresolution": 7117,
      "Ġadults": 7118,
      "Ġsongwrit": 7119,
      "Ġcanal": 7120,
      "Ġflo": 7121,
      "ĠCountry": 7122,
      "Ġzone": 7123,
      "Ġachieve": 7124,
      "Ġpersu": 7125,
      "Ġdrawing": 7126,
      "Ġsurrounded": 7127,
      "ĠCommonwealth": 7128,
      "Sh": 7129,
      "Ġfighter": 7130,
      "asa": 7131,
      "ĠTok": 7132,
      "ĠSem": 7133,
      "ĠSky": 7134,
      "Ġbear": 7135,
      "emed": 7136,
      "christ": 7137,
      "ĠJay": 7138,
      "ighters": 7139,
      "Ġlegend": 7140,
      "ĠAlb": 7141,
      "Ġteaching": 7142,
      "Ġtrust": 7143,
      "Ġunderground": 7144,
      "Ġaccommod": 7145,
      "ramid": 7146,
      "Ġcargo": 7147,
      "ĠScience": 7148,
      "ĠPhilipp": 7149,
      "Ġtribes": 7150,
      "Ġinstruments": 7151,
      "ĠTransport": 7152,
      "ĠBaseball": 7153,
      "var": 7154,
      "Ġtask": 7155,
      "Ġtaught": 7156,
      "icate": 7157,
      "leton": 7158,
      "ĠCer": 7159,
      "urches": 7160,
      "usic": 7161,
      "osis": 7162,
      "Ġagents": 7163,
      "Ġjazz": 7164,
      "arked": 7165,
      "Ġtransition": 7166,
      "ĠBlood": 7167,
      "spec": 7168,
      "Ġbright": 7169,
      "Ġproperties": 7170,
      "Ġtreaty": 7171,
      "ĠBerlin": 7172,
      "Ġimmediate": 7173,
      "Ġensure": 7174,
      "Ġmethods": 7175,
      "ĠAdams": 7176,
      "Ġeggs": 7177,
      "Ġfranchise": 7178,
      "ĠTurkish": 7179,
      "eing": 7180,
      "Ġcode": 7181,
      "ĠCur": 7182,
      "ĠWing": 7183,
      "ĠNow": 7184,
      "Ġexisted": 7185,
      "Ġdepicted": 7186,
      "Ġeleven": 7187,
      "Ġengines": 7188,
      "Ġmagic": 7189,
      "Ġstands": 7190,
      "Ġinfluential": 7191,
      "ĠDavis": 7192,
      "Ġ1890": 7193,
      "Ġvillages": 7194,
      "Ġrebels": 7195,
      "Ġexperiences": 7196,
      "Ġpicked": 7197,
      "Ġpanel": 7198,
      "Ġemotional": 7199,
      "ĠBetween": 7200,
      "Ġsleep": 7201,
      "Ġromantic": 7202,
      "Ġworst": 7203,
      "ĠOhio": 7204,
      "Ġconvinced": 7205,
      "ĠColorado": 7206,
      "Ch": 7207,
      "Ġwearing": 7208,
      "icit": 7209,
      "Ġlin": 7210,
      "imony": 7211,
      "ira": 7212,
      "ĠFive": 7213,
      "ĠNap": 7214,
      "aph": 7215,
      "Ġspoke": 7216,
      "Ġintense": 7217,
      "oked": 7218,
      "ĠProg": 7219,
      "Ġprotest": 7220,
      "iddles": 7221,
      "Ġcrash": 7222,
      "Ġready": 7223,
      "Ġelse": 7224,
      "ĠSimilar": 7225,
      "ĠQueens": 7226,
      "Ġweapon": 7227,
      "Ġnormally": 7228,
      "Ġneighbor": 7229,
      "ĠHeadley": 7230,
      "Ġdescription": 7231,
      "OC": 7232,
      "put": 7233,
      "Ġwrong": 7234,
      "Ġfoss": 7235,
      "anth": 7236,
      "ĠSher": 7237,
      "ĠAR": 7238,
      "Ġstock": 7239,
      "ĠDa": 7240,
      "rage": 7241,
      "Ġplas": 7242,
      "Ġshots": 7243,
      "Ġspin": 7244,
      "Ġresign": 7245,
      "Ġadap": 7246,
      "ĠThird": 7247,
      "Ġevolution": 7248,
      "oyd": 7249,
      "Ġretreat": 7250,
      "Ġimpressed": 7251,
      "Ġextension": 7252,
      "Ġmilit": 7253,
      "Ġclassic": 7254,
      "ĠRecording": 7255,
      "oula": 7256,
      "Ġwatching": 7257,
      "ĠScientology": 7258,
      "Ġsan": 7259,
      "Ġworship": 7260,
      "Ġfal": 7261,
      "Ġnone": 7262,
      "ĠBang": 7263,
      "ĠHart": 7264,
      "Ġalleg": 7265,
      "ĠJournal": 7266,
      "ĠKey": 7267,
      "Ġimperial": 7268,
      "Ġquant": 7269,
      "Ġcontinuing": 7270,
      "Ġanyone": 7271,
      "Ġ1959": 7272,
      "Ġ1938": 7273,
      "Ġstarred": 7274,
      "ĠMoh": 7275,
      "Ġvotes": 7276,
      "Ġruled": 7277,
      "ĠSamuel": 7278,
      "Ġhundreds": 7279,
      "Ġhunting": 7280,
      "enzodiazep": 7281,
      "Ġencouraged": 7282,
      "AT": 7283,
      "gers": 7284,
      "inger": 7285,
      "Ġpig": 7286,
      "Ġpool": 7287,
      "ĠTreat": 7288,
      "ĠAz": 7289,
      "ĠCyrus": 7290,
      "acon": 7291,
      "ĠMort": 7292,
      "Ġash": 7293,
      "ĠPress": 7294,
      "ĠLock": 7295,
      "Ġsees": 7296,
      "Ġaboard": 7297,
      "oys": 7298,
      "ansen": 7299,
      "Ġvisible": 7300,
      "Ġlooked": 7301,
      "Ġrelationships": 7302,
      "Ġhosted": 7303,
      "ĠRussia": 7304,
      "Ġwooden": 7305,
      "ĠPersian": 7306,
      "Ġresources": 7307,
      "Ġsed": 7308,
      "ĠAge": 7309,
      "Ġgrav": 7310,
      "ĠBad": 7311,
      "ĠIron": 7312,
      "uty": 7313,
      "Ġbeach": 7314,
      "aints": 7315,
      "Ġvide": 7316,
      "abil": 7317,
      "Ġsym": 7318,
      "ĠPlan": 7319,
      "ĠBros": 7320,
      "psons": 7321,
      "ĠSimpsons": 7322,
      "ĠWilhelm": 7323,
      "Ġfrequent": 7324,
      "ĠFederal": 7325,
      "ĠDestiny": 7326,
      "Ġdiplom": 7327,
      "body": 7328,
      "ĠCirc": 7329,
      "unch": 7330,
      "ĠFront": 7331,
      "ĠJur": 7332,
      "ugby": 7333,
      "Ġmeets": 7334,
      "ĠReal": 7335,
      "Ġ1949": 7336,
      "aha": 7337,
      "Ġeffic": 7338,
      "Ġoperate": 7339,
      "Ġmodels": 7340,
      "Ġrestrict": 7341,
      "Ġdetailed": 7342,
      "Ġcrosses": 7343,
      "ĠSyd": 7344,
      "Ġsequel": 7345,
      "Ġcheck": 7346,
      "ĠHistory": 7347,
      "Ġbehavi": 7348,
      "Ġadjacent": 7349,
      "FA": 7350,
      "friend": 7351,
      "icts": 7352,
      "lets": 7353,
      "ilst": 7354,
      "ĠMik": 7355,
      "Ġstem": 7356,
      "ĠDC": 7357,
      "ĠWright": 7358,
      "riers": 7359,
      "Ġchain": 7360,
      "ensions": 7361,
      "Ġinterests": 7362,
      "Ġsecured": 7363,
      "ĠMarc": 7364,
      "obi": 7365,
      "Ġnoise": 7366,
      "Ġexpect": 7367,
      "Ġdownlo": 7368,
      "Ġelectron": 7369,
      "Ġtemporary": 7370,
      "Ġcreator": 7371,
      "ĠBenz": 7372,
      "ĠSocial": 7373,
      "Ġtemperatures": 7374,
      "Ġprotein": 7375,
      "Ġvessel": 7376,
      "Ġapparently": 7377,
      "Ġdynasty": 7378,
      "Ġpremiered": 7379,
      "Ġdismissed": 7380,
      "Ġoccasions": 7381,
      "Ġdiameter": 7382,
      "po": 7383,
      "rator": 7384,
      "Ġwings": 7385,
      "orous": 7386,
      "Ġpull": 7387,
      "Ġmunicip": 7388,
      "omar": 7389,
      "ĠBa": 7390,
      "ĠPass": 7391,
      "Ġagree": 7392,
      "ultane": 7393,
      "Ġtruth": 7394,
      "Ġconsp": 7395,
      "Ġsoil": 7396,
      "Ġsymp": 7397,
      "Ġinstall": 7398,
      "Ġreturns": 7399,
      "Ġprovince": 7400,
      "Ġ1951": 7401,
      "Ġelectronic": 7402,
      "ĠOrgan": 7403,
      "Ġclaiming": 7404,
      "Ġtechnique": 7405,
      "Ġfeelings": 7406,
      "Ġphotograph": 7407,
      "ĠAnthony": 7408,
      "ds": 7409,
      "dale": 7410,
      "kare": 7411,
      "alo": 7412,
      "Ġdating": 7413,
      "owler": 7414,
      "ĠWell": 7415,
      "ĠFire": 7416,
      "Ġvent": 7417,
      "Ġtrains": 7418,
      "Ġenth": 7419,
      "Ġleads": 7420,
      "Ġimplement": 7421,
      "Ġanimated": 7422,
      "Ġdoesn": 7423,
      "Ġcredit": 7424,
      "Ġinvestigation": 7425,
      "Ġdollars": 7426,
      "ĠNorman": 7427,
      "20": 7428,
      "PA": 7429,
      "bro": 7430,
      "eor": 7431,
      "ses": 7432,
      "itter": 7433,
      "Ġmap": 7434,
      "aments": 7435,
      "ĠCE": 7436,
      "imore": 7437,
      "rior": 7438,
      "iller": 7439,
      "Ġcompounds": 7440,
      "Ġovert": 7441,
      "Ġteeth": 7442,
      "Ġcommem": 7443,
      "Ġinterior": 7444,
      "Ġ78": 7445,
      "ĠShiva": 7446,
      "Ġgenerated": 7447,
      "Ġdriven": 7448,
      "ĠSupreme": 7449,
      "ĠJustice": 7450,
      "cription": 7451,
      "veston": 7452,
      "ĠMemorial": 7453,
      "ĠStewart": 7454,
      "Ġrib": 7455,
      "Ġwins": 7456,
      "Ġcrown": 7457,
      "Ġfine": 7458,
      "eton": 7459,
      "ĠPs": 7460,
      "ĠEy": 7461,
      "Ġclimb": 7462,
      "Ġpartly": 7463,
      "ĠShir": 7464,
      "Ġcarbon": 7465,
      "Ġobl": 7466,
      "Ġmedium": 7467,
      "Ġhanded": 7468,
      "Ġstandards": 7469,
      "ĠPortland": 7470,
      "Ġinformed": 7471,
      "Ġrenew": 7472,
      "atinum": 7473,
      "Ġprotagonist": 7474,
      "Ġscheme": 7475,
      "ptunium": 7476,
      "iÃ¨": 7477,
      "nt": 7478,
      "Ġton": 7479,
      "Ġmine": 7480,
      "ĠAthlet": 7481,
      "ĠPul": 7482,
      "agh": 7483,
      "agher": 7484,
      "artney": 7485,
      "abama": 7486,
      "Ġclock": 7487,
      "Ġrecru": 7488,
      "Ġ900": 7489,
      "Ġmush": 7490,
      "ĠLeon": 7491,
      "Ġ165": 7492,
      "Ġ1913": 7493,
      "Ġ1932": 7494,
      "Ġ1934": 7495,
      "Ġorganizations": 7496,
      "Ġopponents": 7497,
      "Ġchanging": 7498,
      "ĠPoland": 7499,
      "Ġpowered": 7500,
      "ihanna": 7501,
      "ĠBuilding": 7502,
      "Ġspecimen": 7503,
      "Ġcontroversy": 7504,
      "ĠSpecial": 7505,
      "nings": 7506,
      "Ġtie": 7507,
      "inch": 7508,
      "Ġfil": 7509,
      "ingham": 7510,
      "Ġpound": 7511,
      "Ġdivers": 7512,
      "ĠTs": 7513,
      "Ġec": 7514,
      "Ġhear": 7515,
      "ĠNixon": 7516,
      "aba": 7517,
      "sex": 7518,
      "ogether": 7519,
      "Ġplayoff": 7520,
      "Ġcanc": 7521,
      "Ġpreserved": 7522,
      "Ġpassenger": 7523,
      "Ġskysc": 7524,
      "Ġranking": 7525,
      "Ġcloser": 7526,
      "ĠKevin": 7527,
      "Ġinjuries": 7528,
      "aska": 7529,
      "ĠNorwe": 7530,
      "Ġdeparture": 7531,
      "ĠSydney": 7532,
      "30": 7533,
      "Ġsale": 7534,
      "Ġbron": 7535,
      "anz": 7536,
      "Ġlane": 7537,
      "ĠBaby": 7538,
      "ĠHann": 7539,
      "Ġstood": 7540,
      "Ġvic": 7541,
      "Ġdeleg": 7542,
      "essa": 7543,
      "Ġdispl": 7544,
      "Ġexpensive": 7545,
      "Ġ164": 7546,
      "Ġclassical": 7547,
      "Ġconvection": 7548,
      "Ã¡r": 7549,
      "ĠTelevision": 7550,
      "Ġtreated": 7551,
      "Ġaccompany": 7552,
      "chell": 7553,
      "ĠSanta": 7554,
      "ĠWinter": 7555,
      "ĠAlbums": 7556,
      "fare": 7557,
      "yo": 7558,
      "Ġille": 7559,
      "Ġtack": 7560,
      "itated": 7561,
      "arning": 7562,
      "Ġthin": 7563,
      "ĠMu": 7564,
      "owed": 7565,
      "Ġstead": 7566,
      "ĠRand": 7567,
      "ĠFame": 7568,
      "Ġscatter": 7569,
      "Ġafterwards": 7570,
      "Ġwhereas": 7571,
      "Ġpoems": 7572,
      "ĠAdvent": 7573,
      "Ġgray": 7574,
      "Ġdifferences": 7575,
      "ĠBeach": 7576,
      "Ġannounce": 7577,
      "Ġcondem": 7578,
      "Ġ1880": 7579,
      "coming": 7580,
      "Ġcruiser": 7581,
      "Ġlinked": 7582,
      "ĠBarbad": 7583,
      "Ġcollaboration": 7584,
      "Ġdollar": 7585,
      "Ġuranium": 7586,
      "ĠKennedy": 7587,
      "Ġprice": 7588,
      "ĠIndustry": 7589,
      "Ġatmosphere": 7590,
      "ĠPhoenix": 7591,
      "From": 7592,
      "bird": 7593,
      "gets": 7594,
      "rm": 7595,
      "alions": 7596,
      "Ġlat": 7597,
      "ĠCru": 7598,
      "ĠCategory": 7599,
      "ĠHop": 7600,
      "ĠFI": 7601,
      "ĠLyn": 7602,
      "Ġprol": 7603,
      "ĠKat": 7604,
      "ĠVice": 7605,
      "teenth": 7606,
      "atty": 7607,
      "Ġsubt": 7608,
      "Ġconclusion": 7609,
      "ĠMinistry": 7610,
      "Ġveget": 7611,
      "ĠPalace": 7612,
      "ĠMississ": 7613,
      "Ġmemory": 7614,
      "Ġdocuments": 7615,
      "Ġvisitors": 7616,
      "Ġpurposes": 7617,
      "Ġencountered": 7618,
      "Ġadventure": 7619,
      "Ġmicro": 7620,
      "ĠThroughout": 7621,
      "Ġbes": 7622,
      "ĠCook": 7623,
      "Ġgone": 7624,
      "ĠLate": 7625,
      "Ġplate": 7626,
      "Ġrecre": 7627,
      "Ġrecip": 7628,
      "Ġpartially": 7629,
      "Ġfoundation": 7630,
      "Ġrefuge": 7631,
      "ĠManhatt": 7632,
      "Ġreferences": 7633,
      "Ġ1909": 7634,
      "ĠMadonna": 7635,
      "ĠMcCartney": 7636,
      "AAF": 7637,
      "ĠDelaware": 7638,
      "Ġscholar": 7639,
      "ĠSilver": 7640,
      "OK": 7641,
      "ois": 7642,
      "ĠÅ": 7643,
      "Ġtub": 7644,
      "Ġsnow": 7645,
      "enon": 7646,
      "Ġfiring": 7647,
      "Ġpushed": 7648,
      "Ġhuge": 7649,
      "ĠABC": 7650,
      "Ġlung": 7651,
      "ĠBundy": 7652,
      "otes": 7653,
      "usal": 7654,
      "ĠRihanna": 7655,
      "ocal": 7656,
      "Ġreserve": 7657,
      "Ġaftern": 7658,
      "Ġthereafter": 7659,
      "Ġmovements": 7660,
      "Ġ06": 7661,
      "ennis": 7662,
      "Ġimpossible": 7663,
      "ĠUSA": 7664,
      "Ġtries": 7665,
      "Ġdifference": 7666,
      "quez": 7667,
      "Ġavo": 7668,
      "Ġvictories": 7669,
      "scape": 7670,
      "Ġpainted": 7671,
      "ĠLawrence": 7672,
      "Ġdeployed": 7673,
      "ĠFreder": 7674,
      "Ġsubstantial": 7675,
      "Ġinhabitants": 7676,
      "ĠManhattan": 7677,
      "wich": 7678,
      "Ġtone": 7679,
      "Ġtenth": 7680,
      "Ġcategory": 7681,
      "esb": 7682,
      "Ġhappy": 7683,
      "Ġet": 7684,
      "ĠCole": 7685,
      "acle": 7686,
      "Ġcomments": 7687,
      "Ġvig": 7688,
      "Ġkid": 7689,
      "Ġlearning": 7690,
      "Ġresigned": 7691,
      "ĠThi": 7692,
      "Ġreprodu": 7693,
      "Ġcoordin": 7694,
      "ĠBrother": 7695,
      "Ġreportedly": 7696,
      "ĠWithin": 7697,
      "ĠPalest": 7698,
      "Ġdispute": 7699,
      "ĠBelg": 7700,
      "Ġwithdrew": 7701,
      "ĠHaifa": 7702,
      "ĠResearch": 7703,
      "Ġrescue": 7704,
      "Ġpaintings": 7705,
      "ĠBaltimore": 7706,
      "Be": 7707,
      "Despite": 7708,
      "ji": 7709,
      "nic": 7710,
      "Ġbridges": 7711,
      "Ġnations": 7712,
      "ĠBed": 7713,
      "ĠHug": 7714,
      "osure": 7715,
      "ĠNFL": 7716,
      "odon": 7717,
      "Ġvul": 7718,
      "Ġchurches": 7719,
      "ĠKansas": 7720,
      "Ġspac": 7721,
      "ricted": 7722,
      "ĠThunder": 7723,
      "Ġoffense": 7724,
      "ĠAlabama": 7725,
      "Ġmusc": 7726,
      "Ġdefended": 7727,
      "Ġentertain": 7728,
      "Ġobtain": 7729,
      "Ġinstance": 7730,
      "Ġ1911": 7731,
      "Ġstrate": 7732,
      "Ġrecognised": 7733,
      "rupted": 7734,
      "Ġunderstand": 7735,
      "onnaissance": 7736,
      "Ġdelayed": 7737,
      "Ġupgraded": 7738,
      "Ġfreedom": 7739,
      "ĠNorwegian": 7740,
      "din": 7741,
      "ext": 7742,
      "named": 7743,
      "rep": 7744,
      "ĠTig": 7745,
      "ido": 7746,
      "otype": 7747,
      "ĠNaval": 7748,
      "Ġexcess": 7749,
      "Ġroots": 7750,
      "Ġcharacterized": 7751,
      "Ġcharacteristics": 7752,
      "Ġprofit": 7753,
      "Ġinfluences": 7754,
      "Ġcriticised": 7755,
      "ĠSwitzer": 7756,
      "ĠSimon": 7757,
      "Ġflew": 7758,
      "Ġinteresting": 7759,
      "Ġjunior": 7760,
      "Ġretirement": 7761,
      "Ġtornado": 7762,
      "mouth": 7763,
      "Ġthrew": 7764,
      "ivated": 7765,
      "Ġstyles": 7766,
      "una": 7767,
      "chang": 7768,
      "riors": 7769,
      "Ġcommit": 7770,
      "Ã©e": 7771,
      "Ġgrade": 7772,
      "iveness": 7773,
      "Ġcompete": 7774,
      "Ġelabor": 7775,
      "Ġmeetings": 7776,
      "Ġholds": 7777,
      "Ġengineer": 7778,
      "This": 7779,
      "Ġhabitat": 7780,
      "ĠArea": 7781,
      "elescope": 7782,
      "ĠSwitzerland": 7783,
      "gate": 7784,
      "ya": 7785,
      "atically": 7786,
      "icians": 7787,
      "Ġlies": 7788,
      "ĠMiddles": 7789,
      "irman": 7790,
      "uma": 7791,
      "Ġray": 7792,
      "ĠKen": 7793,
      "Ġnotably": 7794,
      "Ġprime": 7795,
      "Ġregist": 7796,
      "Ġregiment": 7797,
      "tenance": 7798,
      "Ġpersonality": 7799,
      "ĠCharl": 7800,
      "Ġaudio": 7801,
      "Ġmeasures": 7802,
      "Ġintensified": 7803,
      "Ġrif": 7804,
      "ĠGalveston": 7805,
      "ĠJacob": 7806,
      "ĠBuddh": 7807,
      "Ġstrategy": 7808,
      "via": 7809,
      "Ġocean": 7810,
      "Ġment": 7811,
      "ĠTro": 7812,
      "ĠMain": 7813,
      "ece": 7814,
      "ecraft": 7815,
      "ĠNob": 7816,
      "Ġappropri": 7817,
      "ĠYan": 7818,
      "Ġunderw": 7819,
      "Ġforming": 7820,
      "ĠAdv": 7821,
      "ĠHergÃ©": 7822,
      "Ġsurviv": 7823,
      "ĠSmart": 7824,
      "Ġvolcan": 7825,
      "Ġemployees": 7826,
      "Ġcivilian": 7827,
      "ĠMalays": 7828,
      "Ġindicate": 7829,
      "ĠGarc": 7830,
      "ĠBonds": 7831,
      "ĠGuardian": 7832,
      "iary": 7833,
      "pole": 7834,
      "tic": 7835,
      "Ġoption": 7836,
      "Ġinher": 7837,
      "ĠJos": 7838,
      "udes": 7839,
      "inals": 7840,
      "Ġphr": 7841,
      "Ġelections": 7842,
      "Ġattempting": 7843,
      "Ġgenetic": 7844,
      "Ġeveryone": 7845,
      "Ġrepresents": 7846,
      "Ġerupt": 7847,
      "Ġfacility": 7848,
      "Ġ1870": 7849,
      "ĠMissoula": 7850,
      "Ġviolent": 7851,
      "borough": 7852,
      "Ġabsence": 7853,
      "ĠBowie": 7854,
      "iliar": 7855,
      "Ġdeparted": 7856,
      "Ġsubmarine": 7857,
      "Ġemergency": 7858,
      "Ġacknowled": 7859,
      "species": 7860,
      "ture": 7861,
      "Å«": 7862,
      "Ġsoul": 7863,
      "Ġinaug": 7864,
      "ĠSports": 7865,
      "ĠCart": 7866,
      "ĠHu": 7867,
      "ĠEs": 7868,
      "Ġrates": 7869,
      "Ġintegr": 7870,
      "Ġrooms": 7871,
      "Ġoutf": 7872,
      "enses": 7873,
      "inder": 7874,
      "ĠSeattle": 7875,
      "Ġretail": 7876,
      "Ġbuy": 7877,
      "Ġminimum": 7878,
      "Ġmodified": 7879,
      "ĠForces": 7880,
      "Ġ1921": 7881,
      "aford": 7882,
      "Ġarriving": 7883,
      "Ġcrews": 7884,
      "Ġdifficulties": 7885,
      "Ġterritories": 7886,
      "Ġexamples": 7887,
      "ĠTerrit": 7888,
      "Ġaware": 7889,
      "Ġprosper": 7890,
      "Ġexecuted": 7891,
      "Ġchairman": 7892,
      "OT": 7893,
      "aired": 7894,
      "vens": 7895,
      "ester": 7896,
      "Ġbaby": 7897,
      "Ġpounds": 7898,
      "ĠMeyer": 7899,
      "uscript": 7900,
      "uls": 7901,
      "ĠFriend": 7902,
      "ĠGill": 7903,
      "ĠNp": 7904,
      "ĠNetwork": 7905,
      "ĠEdu": 7906,
      "essing": 7907,
      "issions": 7908,
      "Ġ08": 7909,
      "gery": 7910,
      "Ġadvis": 7911,
      "ĠDavies": 7912,
      "Ġswim": 7913,
      "Ġpersp": 7914,
      "Ġbiggest": 7915,
      "ĠInterstate": 7916,
      "ĠRhodesia": 7917,
      "ĠKentucky": 7918,
      "Ġgarrison": 7919,
      "ĠNicole": 7920,
      "Ġastronom": 7921,
      "Ġunsuccessful": 7922,
      "Ġafternoon": 7923,
      "wall": 7924,
      "orious": 7925,
      "Ġfantasy": 7926,
      "Ġble": 7927,
      "oming": 7928,
      "ĠMaster": 7929,
      "urally": 7930,
      "ĠBru": 7931,
      "ĠHere": 7932,
      "ifer": 7933,
      "Ġscand": 7934,
      "Ġpartner": 7935,
      "Ġremember": 7936,
      "Ġcharter": 7937,
      "Ġsubspecies": 7938,
      "Ġdesignation": 7939,
      "Ġdriver": 7940,
      "Ġpossession": 7941,
      "ĠGlob": 7942,
      "Ġcollapse": 7943,
      "Ġdisplayed": 7944,
      "Ġimmigr": 7945,
      "Ġdegrees": 7946,
      "Ġduo": 7947,
      "Ġthousand": 7948,
      "Ġcontroversial": 7949,
      "Ġutil": 7950,
      "Ġobservations": 7951,
      "Ġdensity": 7952,
      "father": 7953,
      "host": 7954,
      "Ġsunk": 7955,
      "orrow": 7956,
      "Ġeasy": 7957,
      "amy": 7958,
      "urd": 7959,
      "owa": 7960,
      "Ġstadium": 7961,
      "ĠFantasy": 7962,
      "ĠLast": 7963,
      "ĠJess": 7964,
      "illo": 7965,
      "ĠOak": 7966,
      "Ġchampion": 7967,
      "Ġspan": 7968,
      "ĠChronic": 7969,
      "ĠAlong": 7970,
      "Ġgross": 7971,
      "Ġdescribe": 7972,
      "Ġ1924": 7973,
      "Ġdeliber": 7974,
      "Ġfootage": 7975,
      "ĠParker": 7976,
      "Ġdivisions": 7977,
      "Ġhousing": 7978,
      "ĠGilchrist": 7979,
      "ĠFrancis": 7980,
      "Ġpipeline": 7981,
      "Ġcomposer": 7982,
      "Ġdistinguished": 7983,
      "Ġrhyth": 7984,
      "Ġtunnel": 7985,
      "Ġbot": 7986,
      "ĠType": 7987,
      "entle": 7988,
      "Ġgets": 7989,
      "Ġgrey": 7990,
      "ĠBron": 7991,
      "ĠRem": 7992,
      "ĠRAF": 7993,
      "agg": 7994,
      "agasc": 7995,
      "ista": 7996,
      "ĠOp": 7997,
      "ounced": 7998,
      "Ġunlike": 7999,
      "ogy": 8000,
      "Ġresumed": 8001,
      "Ġju": 8002,
      "Ġmanuscript": 8003,
      "Ġtele": 8004,
      "Ġassisted": 8005,
      "Ġtrained": 8006,
      "axy": 8007,
      "Ġpublicly": 8008,
      "ĠDeath": 8009,
      "Ġtrials": 8010,
      "Ġrefers": 8011,
      "Ġstorms": 8012,
      "Ġfunctions": 8013,
      "forced": 8014,
      "racts": 8015,
      "Ġmeasured": 8016,
      "ĠDomitian": 8017,
      "ĠUlt": 8018,
      "ĠMitchell": 8019,
      "Ġcircumstances": 8020,
      "Ġwedding": 8021,
      "ĠTreaty": 8022,
      "ban": 8023,
      "ns": 8024,
      "Ġic": 8025,
      "Ġtheore": 8026,
      "Ġcry": 8027,
      "ĠHit": 8028,
      "ĠRel": 8029,
      "ĠNich": 8030,
      "ĠNiel": 8031,
      "Ġ1900": 8032,
      "ĠJup": 8033,
      "ĠEle": 8034,
      "lders": 8035,
      "ĠOm": 8036,
      "ateur": 8037,
      "Ġexit": 8038,
      "ĠKhan": 8039,
      "Ġkings": 8040,
      "oven": 8041,
      "Ġaged": 8042,
      "Ġoverw": 8043,
      "Ġpartn": 8044,
      "ĠUnlike": 8045,
      "ternal": 8046,
      "Ġfounder": 8047,
      "Ġimprison": 8048,
      "Ġmayor": 8049,
      "rising": 8050,
      "encing": 8051,
      "Ġiniti": 8052,
      "Ġdivor": 8053,
      "Ġfacing": 8054,
      "ĠMedia": 8055,
      "Ġhonour": 8056,
      "Ġtribute": 8057,
      "Ġunderstanding": 8058,
      "Ġbattleship": 8059,
      "Ġprisoners": 8060,
      "Ġspiritual": 8061,
      "ĠMosley": 8062,
      "ĠConfeder": 8063,
      "à¸": 8064,
      "Ġtests": 8065,
      "anar": 8066,
      "ĠSid": 8067,
      "ĠIce": 8068,
      "Ġride": 8069,
      "Ġdeemed": 8070,
      "oster": 8071,
      "Ġdece": 8072,
      "Ġcooper": 8073,
      "Ġminimal": 8074,
      "Ġsimultane": 8075,
      "ĠJuan": 8076,
      "rapy": 8077,
      "ĠInternet": 8078,
      "Ġrepresentative": 8079,
      "Ġjudge": 8080,
      "Ġextreme": 8081,
      "Ġranging": 8082,
      "Ġdocumentary": 8083,
      "ĠBosn": 8084,
      "ĠDiego": 8085,
      "ĠArgentina": 8086,
      "ĠGrammy": 8087,
      "ĠHouston": 8088,
      "Ġvideos": 8089,
      "Ġenthus": 8090,
      "mph": 8091,
      "power": 8092,
      "Ġwet": 8093,
      "icop": 8094,
      "Ġdies": 8095,
      "ĠDri": 8096,
      "Ġalien": 8097,
      "osm": 8098,
      "Ġvan": 8099,
      "Ġconsol": 8100,
      "aws": 8101,
      "Ġmonument": 8102,
      "Ġwilling": 8103,
      "sequently": 8104,
      "Ġliked": 8105,
      "ĠMadagasc": 8106,
      "Ġsequences": 8107,
      "ĠLaure": 8108,
      "Ġcoins": 8109,
      "Ġmoments": 8110,
      "Ġarchitecture": 8111,
      "Ġinterpre": 8112,
      "ĠAriz": 8113,
      "ĠPitts": 8114,
      "ĠYeats": 8115,
      "ĠUtah": 8116,
      "Ġcommemor": 8117,
      "pson": 8118,
      "Ġtelling": 8119,
      "ori": 8120,
      "enous": 8121,
      "Ġbrain": 8122,
      "Ġbenzodiazep": 8123,
      "rous": 8124,
      "Ġlose": 8125,
      "elle": 8126,
      "Ġgene": 8127,
      "otus": 8128,
      "ĠIra": 8129,
      "ĠFowler": 8130,
      "ĠLeno": 8131,
      "Ġabund": 8132,
      "Ġreconnaissance": 8133,
      "Ġserial": 8134,
      "Ġfeather": 8135,
      "ublin": 8136,
      "Ġreleases": 8137,
      "Ġenters": 8138,
      "uese": 8139,
      "ollo": 8140,
      "Ġload": 8141,
      "Ġexcell": 8142,
      "ĠMiles": 8143,
      "Ġcruisers": 8144,
      "Ġvirus": 8145,
      "Ġsector": 8146,
      "Ġabandon": 8147,
      "Ġsuggesting": 8148,
      "ĠDoctor": 8149,
      "avery": 8150,
      "Ġnegotiations": 8151,
      "Ġpremiere": 8152,
      "ĠNHL": 8153,
      "ĠSudirman": 8154,
      "ĠJesus": 8155,
      "ĠShirley": 8156,
      "24": 8157,
      "AC": 8158,
      "hu": 8159,
      "rad": 8160,
      "Ġtip": 8161,
      "Ġtyphoon": 8162,
      "Ġbones": 8163,
      "arant": 8164,
      "Ġdock": 8165,
      "Ġdiet": 8166,
      "Ġhill": 8167,
      "ĠSav": 8168,
      "Ġlock": 8169,
      "ĠBird": 8170,
      "ĠBush": 8171,
      "resent": 8172,
      "Ġorbit": 8173,
      "Ġresidence": 8174,
      "Ġsurge": 8175,
      "Ġuseful": 8176,
      "Ġlanded": 8177,
      "Ġradar": 8178,
      "Ġhistoric": 8179,
      "Ġthinking": 8180,
      "Ġscientists": 8181,
      "Ġthrone": 8182,
      "Ġridge": 8183,
      "Ġhappened": 8184,
      "Ġpicture": 8185,
      "Ġadapted": 8186,
      "ĠMississipp": 8187,
      "cious": 8188,
      "Ġca": 8189,
      "Ġcod": 8190,
      "Ġcrisis": 8191,
      "ams": 8192,
      "ĠBal": 8193,
      "ĠBuff": 8194,
      "Ġstable": 8195,
      "ĠRan": 8196,
      "ĠLody": 8197,
      "Ġprohib": 8198,
      "opoly": 8199,
      "ĠInit": 8200,
      "Ġclimate": 8201,
      "oba": 8202,
      "Ġregime": 8203,
      "ĠPlat": 8204,
      "Ġcamps": 8205,
      "Ġperiods": 8206,
      "Ġsituated": 8207,
      "Ġrounds": 8208,
      "ĠPolice": 8209,
      "Ġfalls": 8210,
      "Ġpercentage": 8211,
      "Ġabsol": 8212,
      "Ġdistinctive": 8213,
      "Ġwithdrawal": 8214,
      "Ġarrangement": 8215,
      "ĠNevertheless": 8216,
      "ĠPortuguese": 8217,
      "ĠArizona": 8218,
      "uable": 8219,
      "where": 8220,
      "Ġwear": 8221,
      "Ġwrest": 8222,
      "Ġchest": 8223,
      "Ġelsewhere": 8224,
      "etime": 8225,
      "ĠRangers": 8226,
      "ĠDublin": 8227,
      "ĠLanc": 8228,
      "opp": 8229,
      "Ġshift": 8230,
      "Ġgrown": 8231,
      "othy": 8232,
      "Ġcolors": 8233,
      "Ġmaintenance": 8234,
      "Ġdepos": 8235,
      "Ġconstant": 8236,
      "ĠAllen": 8237,
      "Ġ1926": 8238,
      "Ġmyst": 8239,
      "Ġbombard": 8240,
      "Ġfavorite": 8241,
      "Ġwicket": 8242,
      "Ġbeautiful": 8243,
      "Ġdissipated": 8244,
      "Ġtexts": 8245,
      "fted": 8246,
      "ja": 8247,
      "yard": 8248,
      "reck": 8249,
      "icide": 8250,
      "ĠTit": 8251,
      "ĠSnow": 8252,
      "ĠCall": 8253,
      "Ġasks": 8254,
      "ĠHok": 8255,
      "Ġhearing": 8256,
      "Ġbearing": 8257,
      "cton": 8258,
      "apo": 8259,
      "ĠSeven": 8260,
      "Ġ170": 8261,
      "Ġseverely": 8262,
      "Ġsigning": 8263,
      "ĠIsa": 8264,
      "Ġautobi": 8265,
      "Ġ1929": 8266,
      "ĠButler": 8267,
      "Ġuncertain": 8268,
      "Ġcyclones": 8269,
      "Ġmemorial": 8270,
      "Ġcathedral": 8271,
      "Ġceremon": 8272,
      "Ġmerchant": 8273,
      "ĠProtest": 8274,
      "Ġrebuilt": 8275,
      "ĠFamily": 8276,
      "ropolitan": 8277,
      "Ġneighborhood": 8278,
      "ĠMadagascar": 8279,
      "Ġori": 8280,
      "Ġfishing": 8281,
      "Ġpale": 8282,
      "Ġnom": 8283,
      "ĠBran": 8284,
      "ĠFree": 8285,
      "ĠFey": 8286,
      "Ġprocl": 8287,
      "Ġramp": 8288,
      "ĠKu": 8289,
      "Ġovers": 8290,
      "active": 8291,
      "Ġevil": 8292,
      "Ġcann": 8293,
      "Ġmonarch": 8294,
      "Ġformerly": 8295,
      "ambers": 8296,
      "ĠPerry": 8297,
      "ĠMorgan": 8298,
      "Ġgirls": 8299,
      "Ġsafe": 8300,
      "Ġstruggle": 8301,
      "Ġadaptation": 8302,
      "ĠJupiter": 8303,
      "bell": 8304,
      "Äį": 8305,
      "Ġphen": 8306,
      "ĠTechn": 8307,
      "ĠAM": 8308,
      "Ġlap": 8309,
      "ĠBure": 8310,
      "otton": 8311,
      "ĠPear": 8312,
      "ĠDal": 8313,
      "estone": 8314,
      "Ġplain": 8315,
      "Ġneptunium": 8316,
      "ĠCarr": 8317,
      "Ġrestricted": 8318,
      "Ġsoldier": 8319,
      "Ġ1925": 8320,
      "Ġamongst": 8321,
      "ĠTrust": 8322,
      "Ġmulti": 8323,
      "Ġengineering": 8324,
      "Ġlanguages": 8325,
      "Ġreactions": 8326,
      "Ġcoinc": 8327,
      "ĠVeronica": 8328,
      "Ġsucceed": 8329,
      "Ġtowers": 8330,
      "Ġbehaviour": 8331,
      "rings": 8332,
      "Ġtight": 8333,
      "Ġsovereign": 8334,
      "Ġcateg": 8335,
      "Ġbon": 8336,
      "Ġpump": 8337,
      "Ġgang": 8338,
      "utt": 8339,
      "ĠGray": 8340,
      "ĠEp": 8341,
      "Ġvice": 8342,
      "berforce": 8343,
      "Ġshr": 8344,
      "Ġspend": 8345,
      "Ġ161": 8346,
      "Ġartistic": 8347,
      "Ġcovering": 8348,
      "Ġaffair": 8349,
      "Ġdestroyers": 8350,
      "ĠStef": 8351,
      "ĠMorrison": 8352,
      "Ġprofessor": 8353,
      "ĠPatrick": 8354,
      "Ġturrets": 8355,
      "Ġsubmitted": 8356,
      "ĠHungarian": 8357,
      "ĠNielsen": 8358,
      "60": 8359,
      "err": 8360,
      "Ġfaces": 8361,
      "Ġmad": 8362,
      "ilty": 8363,
      "ĠSS": 8364,
      "ĠSox": 8365,
      "Ġelder": 8366,
      "ĠBald": 8367,
      "ĠRoc": 8368,
      "ĠNon": 8369,
      "ĠErie": 8370,
      "ĠKelly": 8371,
      "Ġjack": 8372,
      "Ġfeels": 8373,
      "ĠArk": 8374,
      "Ġ05": 8375,
      "Ġ07": 8376,
      "Ġprevented": 8377,
      "Ġadvice": 8378,
      "ĠMint": 8379,
      "Ġcoverage": 8380,
      "Ġanticip": 8381,
      "ĠCentre": 8382,
      "Ġfriendly": 8383,
      "Ġcopy": 8384,
      "Ġcreative": 8385,
      "Ġfifteen": 8386,
      "Ġtrend": 8387,
      "Ġremoval": 8388,
      "Ġburned": 8389,
      "ĠMiller": 8390,
      "ĠConnor": 8391,
      "ĠGreeley": 8392,
      "Ġspacecraft": 8393,
      "SP": 8394,
      "face": 8395,
      "hire": 8396,
      "Ġturb": 8397,
      "atops": 8398,
      "sters": 8399,
      "Ġlake": 8400,
      "ĠCas": 8401,
      "ĠBry": 8402,
      "oto": 8403,
      "ĠThen": 8404,
      "uts": 8405,
      "Ġalter": 8406,
      "ĠEug": 8407,
      "Ġprosp": 8408,
      "uda": 8409,
      "send": 8410,
      "Ġspending": 8411,
      "Ġ105": 8412,
      "ĠIndians": 8413,
      "Ġ168": 8414,
      "Ġbelt": 8415,
      "ĠColl": 8416,
      "Ġdeter": 8417,
      "grad": 8418,
      "Ġdominant": 8419,
      "Ġdelivery": 8420,
      "Ġapplication": 8421,
      "Ġtruck": 8422,
      "Ġhydrogen": 8423,
      "ĠKapoor": 8424,
      "ĠBenzema": 8425,
      "ĠBelgium": 8426,
      "nce": 8427,
      "tz": 8428,
      "Ġsisters": 8429,
      "eda": 8430,
      "Ġcous": 8431,
      "Ġciting": 8432,
      "Ġbord": 8433,
      "ĠTony": 8434,
      "ĠMes": 8435,
      "ĠBishop": 8436,
      "ĠPoint": 8437,
      "ĠDyn": 8438,
      "akota": 8439,
      "Ġsure": 8440,
      "acked": 8441,
      "ĠVinc": 8442,
      "Ġusual": 8443,
      "Ġperceived": 8444,
      "ĠAli": 8445,
      "weet": 8446,
      "Ġconsult": 8447,
      "Ġremove": 8448,
      "Ġraid": 8449,
      "Ġvertical": 8450,
      "Ġsmooth": 8451,
      "Ã©r": 8452,
      "Ġowners": 8453,
      "Ġcounties": 8454,
      "Ġfinals": 8455,
      "Ġpromised": 8456,
      "Ġexplains": 8457,
      "Ġ1923": 8458,
      "Ġtwin": 8459,
      "aurus": 8460,
      "Ġfifty": 8461,
      "Ġsubjects": 8462,
      "Ġranges": 8463,
      "Ġholid": 8464,
      "ĠHindu": 8465,
      "Ġmathemat": 8466,
      "bra": 8467,
      "nik": 8468,
      "piece": 8469,
      "Ã§": 8470,
      "Ġtiss": 8471,
      "Ġcup": 8472,
      "Ġfitted": 8473,
      "Ġreaches": 8474,
      "ĠSin": 8475,
      "ellect": 8476,
      "Ġforcing": 8477,
      "rapped": 8478,
      "Ġshorter": 8479,
      "Ġarts": 8480,
      "ĠMaria": 8481,
      "Ġteamm": 8482,
      "Ġshipping": 8483,
      "ĠConstitution": 8484,
      "Ġdesigner": 8485,
      "Ã©l": 8486,
      "Ġexplo": 8487,
      "ĠBrun": 8488,
      "Ġ1908": 8489,
      "Ġfriendship": 8490,
      "Ġfactors": 8491,
      "ĠSwiss": 8492,
      "Ġcolleagues": 8493,
      "Ġargument": 8494,
      "Ġterritorial": 8495,
      "Ġoccupation": 8496,
      "ĠMrs": 8497,
      "ĠBusch": 8498,
      "Ġdynam": 8499,
      "Ġseeking": 8500,
      "Ġexecution": 8501,
      "Ġneutral": 8502,
      "ĠPrincess": 8503,
      "ĠSleaford": 8504,
      "Ġremnants": 8505,
      "MA": 8506,
      "gov": 8507,
      "ko": 8508,
      "inally": 8509,
      "Ġfestival": 8510,
      "Ġblow": 8511,
      "lee": 8512,
      "sta": 8513,
      "unes": 8514,
      "ĠFiles": 8515,
      "Ġrivers": 8516,
      "ovic": 8517,
      "Ġintent": 8518,
      "iley": 8519,
      "Ġoffering": 8520,
      "overs": 8521,
      "Ġoutl": 8522,
      "ĠMarg": 8523,
      "Ġqueen": 8524,
      "Ġdoctor": 8525,
      "Ġmetab": 8526,
      "azines": 8527,
      "Ġextent": 8528,
      "ĠIslam": 8529,
      "Ġboil": 8530,
      "rows": 8531,
      "Ġ1928": 8532,
      "Ġrebell": 8533,
      "ĠDepression": 8534,
      "ĠSenator": 8535,
      "Ġframe": 8536,
      "Ġquarterback": 8537,
      "Ġdemonstrated": 8538,
      "Ġpermission": 8539,
      "ĠGiants": 8540,
      "ĠKorean": 8541,
      "ĠStanley": 8542,
      "Ġresidential": 8543,
      "Ġmoderate": 8544,
      "ĠWWE": 8545,
      "ĠGeorgia": 8546,
      "cation": 8547,
      "eared": 8548,
      "gro": 8549,
      "pan": 8550,
      "zz": 8551,
      "Ġped": 8552,
      "oust": 8553,
      "ĠTang": 8554,
      "ĠSi": 8555,
      "ache": 8556,
      "ĠMS": 8557,
      "olition": 8558,
      "ĠBonn": 8559,
      "ĠLind": 8560,
      "Ġriding": 8561,
      "Ġorn": 8562,
      "Ġplatinum": 8563,
      "Ġcontext": 8564,
      "ĠWarren": 8565,
      "onto": 8566,
      "Ġtempor": 8567,
      "Ġ1905": 8568,
      "Ġdevast": 8569,
      "Ġkeeping": 8570,
      "Ġboys": 8571,
      "Ġenvironmental": 8572,
      "Ġearthqu": 8573,
      "ĠOlivia": 8574,
      "Ġbenefit": 8575,
      "Ġtravelled": 8576,
      "ĠFrederick": 8577,
      "Ãº": 8578,
      "Ġcraft": 8579,
      "Ġwasn": 8580,
      "urance": 8581,
      "emeter": 8582,
      "ĠLibrary": 8583,
      "ĠLisa": 8584,
      "ĠEric": 8585,
      "opl": 8586,
      "Ġrising": 8587,
      "ĠKra": 8588,
      "Ġacted": 8589,
      "Ġsubst": 8590,
      "Ġdiscip": 8591,
      "ĠClar": 8592,
      "Ġsimpl": 8593,
      "Ġartific": 8594,
      "ĠDevelopment": 8595,
      "Ġfuneral": 8596,
      "Ġ1906": 8597,
      "Ġsurvive": 8598,
      "Ġ1860": 8599,
      "Ġpredomin": 8600,
      "Ġlacked": 8601,
      "Ġbiographer": 8602,
      "ĠÃĹ": 8603,
      "Ġfrig": 8604,
      "Ġjobs": 8605,
      "Ġneighb": 8606,
      "Ġinstitution": 8607,
      "Ġsurrender": 8608,
      "ĠAttorney": 8609,
      "Ġimprovements": 8610,
      "ËĪ": 8611,
      "orph": 8612,
      "Ġcub": 8613,
      "Ġdangerous": 8614,
      "Ġbeats": 8615,
      "ĠGib": 8616,
      "ĠLost": 8617,
      "aku": 8618,
      "Ġcompr": 8619,
      "Ġupd": 8620,
      "Ġprint": 8621,
      "Ġrepair": 8622,
      "Ġ169": 8623,
      "aza": 8624,
      "Ġdiff": 8625,
      "Ġconfront": 8626,
      "plete": 8627,
      "Ġ1927": 8628,
      "Ġmagazines": 8629,
      "Ġlisten": 8630,
      "Ġhelping": 8631,
      "Ġparticipate": 8632,
      "Ġdiagn": 8633,
      "Ġadopt": 8634,
      "ĠAuthor": 8635,
      "Ġcondoms": 8636,
      "Ġeliminated": 8637,
      "Ġsubsid": 8638,
      "iblical": 8639,
      "ĠMississippi": 8640,
      "inian": 8641,
      "Ġbran": 8642,
      "Ġpuzz": 8643,
      "ĠAy": 8644,
      "ĠEagle": 8645,
      "Ġracing": 8646,
      "ante": 8647,
      "Ġplum": 8648,
      "Ġretro": 8649,
      "Ġmainstream": 8650,
      "ĠConc": 8651,
      "Ġsignal": 8652,
      "Ġoperational": 8653,
      "Ġreflected": 8654,
      "ĠBright": 8655,
      "Ġchildhood": 8656,
      "Ġcovers": 8657,
      "ĠOrb": 8658,
      "Ġbasin": 8659,
      "Ġpatron": 8660,
      "Ġstationed": 8661,
      "ĠSimpson": 8662,
      "Ġaudiences": 8663,
      "Ġschedule": 8664,
      "Ġqualified": 8665,
      "ĠSarah": 8666,
      "Ġmotorway": 8667,
      "Ġelevation": 8668,
      "ĠModern": 8669,
      "Ġtanks": 8670,
      "Ġhouseholds": 8671,
      "ĠRobertson": 8672,
      "Ġoverseas": 8673,
      "PC": 8674,
      "Ġwants": 8675,
      "aron": 8676,
      "Ġdiver": 8677,
      "ĠML": 8678,
      "ĠMÃ¡r": 8679,
      "Ġforty": 8680,
      "ĠIanto": 8681,
      "ĠHugh": 8682,
      "ĠPu": 8683,
      "Ġanth": 8684,
      "ĠJama": 8685,
      "avel": 8686,
      "ĠIng": 8687,
      "Ġnotice": 8688,
      "Ġintellect": 8689,
      "oking": 8690,
      "Ġrecur": 8691,
      "Ġdisaster": 8692,
      "Ġdecides": 8693,
      "Ġrelie": 8694,
      "ĠSha": 8695,
      "Ġconsidering": 8696,
      "lington": 8697,
      "Ġhelicop": 8698,
      "Ġvisiting": 8699,
      "Ġprofile": 8700,
      "ĠRepresent": 8701,
      "Ġinnov": 8702,
      "Ġencounter": 8703,
      "ĠUsher": 8704,
      "Ġdrums": 8705,
      "Ġfixed": 8706,
      "Ġprompted": 8707,
      "Ġindigenous": 8708,
      "ĠLloyd": 8709,
      "Ġpartnership": 8710,
      "book": 8711,
      "equ": 8712,
      "no": 8713,
      "yson": 8714,
      "orage": 8715,
      "alities": 8716,
      "Ġpron": 8717,
      "Ġpairs": 8718,
      "ĠTal": 8719,
      "ĠRey": 8720,
      "ĠFlying": 8721,
      "ĠLas": 8722,
      "ĠOk": 8723,
      "ĠKart": 8724,
      "Ġspaces": 8725,
      "pty": 8726,
      "Ġuniform": 8727,
      "ĠHealth": 8728,
      "Ġclim": 8729,
      "ulture": 8730,
      "Ġ174": 8731,
      "ĠAsian": 8732,
      "ĠMcL": 8733,
      "ĠCooper": 8734,
      "Ġbrig": 8735,
      "Ġdramatic": 8736,
      "Ġlayer": 8737,
      "Ġtargets": 8738,
      "Ġdisappoin": 8739,
      "Ġchoose": 8740,
      "ĠGardner": 8741,
      "Ġremarked": 8742,
      "ĠKorea": 8743,
      "ĠIndependent": 8744,
      "Ġconcurrent": 8745,
      "Ġconventional": 8746,
      "Some": 8747,
      "cott": 8748,
      "Ġtrick": 8749,
      "Ġindu": 8750,
      "asm": 8751,
      "Ġlieutenant": 8752,
      "ĠMack": 8753,
      "Ġgust": 8754,
      "ĠBrist": 8755,
      "ĠBrand": 8756,
      "ĠHaving": 8757,
      "ĠPier": 8758,
      "ĠDig": 8759,
      "ĠFif": 8760,
      "Ġanaly": 8761,
      "Ġcomfort": 8762,
      "Ġseized": 8763,
      "ĠKit": 8764,
      "inding": 8765,
      "aiden": 8766,
      "ĠBlues": 8767,
      "ĠClaire": 8768,
      "Ġmarks": 8769,
      "Ġwindow": 8770,
      "ĠMuslim": 8771,
      "Ġerr": 8772,
      "Ġillness": 8773,
      "Ġapartment": 8774,
      "ĠChampionships": 8775,
      "Ġcolonies": 8776,
      "Ġadministrative": 8777,
      "Ġwalking": 8778,
      "ĠPrior": 8779,
      "Ġdoubt": 8780,
      "tario": 8781,
      "ĠApollo": 8782,
      "ĠShakesp": 8783,
      "Ġconcerts": 8784,
      "ĠBureau": 8785,
      "Ä«": 8786,
      "Ġtouring": 8787,
      "Ġhat": 8788,
      "Ġreun": 8789,
      "ĠSora": 8790,
      "Ġongoing": 8791,
      "Ġwhilst": 8792,
      "ĠDw": 8793,
      "cho": 8794,
      "osph": 8795,
      "ĠLad": 8796,
      "Ġvast": 8797,
      "ectic": 8798,
      "ĠStri": 8799,
      "Ġabilities": 8800,
      "ĠOntario": 8801,
      "Ġinvent": 8802,
      "Ġ121": 8803,
      "Ġdepending": 8804,
      "gett": 8805,
      "plement": 8806,
      "ĠHerze": 8807,
      "Ġsentence": 8808,
      "Ġarrive": 8809,
      "Ġbases": 8810,
      "Ġranks": 8811,
      "ĠBraat": 8812,
      "Ġclearly": 8813,
      "Ġpoorly": 8814,
      "Ġestablishing": 8815,
      "Ġblocks": 8816,
      "ĠBurton": 8817,
      "ĠToronto": 8818,
      "ĠUnderwood": 8819,
      "Ġprecip": 8820,
      "ĠMÃ¡rquez": 8821,
      "burn": 8822,
      "oz": 8823,
      "inor": 8824,
      "orer": 8825,
      "Ġhorn": 8826,
      "Ġreven": 8827,
      "ĠSel": 8828,
      "Ġlists": 8829,
      "Ġnurs": 8830,
      "ĠMaur": 8831,
      "imeter": 8832,
      "ĠPirates": 8833,
      "ĠRick": 8834,
      "Ġprove": 8835,
      "oken": 8836,
      "ĠYue": 8837,
      "Ġmusician": 8838,
      "Ġcontrols": 8839,
      "Ġapproval": 8840,
      "Ġsky": 8841,
      "Ġtraded": 8842,
      "ompson": 8843,
      "Ġreveals": 8844,
      "Ġnewspapers": 8845,
      "Ġpursue": 8846,
      "Ġboundary": 8847,
      "Ġpermitted": 8848,
      "Ġessential": 8849,
      "cules": 8850,
      "Ġfungus": 8851,
      "ĠMatthews": 8852,
      "ĠAlfred": 8853,
      "Ġplasma": 8854,
      "cru": 8855,
      "eu": 8856,
      "night": 8857,
      "real": 8858,
      "Ġbrick": 8859,
      "Ġtot": 8860,
      "Ġtomb": 8861,
      "icy": 8862,
      "ĠTar": 8863,
      "ĠCre": 8864,
      "imented": 8865,
      "ĠHamp": 8866,
      "Ġstreak": 8867,
      "Ġalco": 8868,
      "ĠWic": 8869,
      "ĠWeb": 8870,
      "Ġanime": 8871,
      "antastic": 8872,
      "udi": 8873,
      "ĠStro": 8874,
      "Ġscar": 8875,
      "Ġcharity": 8876,
      "Ġverte": 8877,
      "Ġsurgery": 8878,
      "azing": 8879,
      "Ġfamiliar": 8880,
      "Ġguilty": 8881,
      "Ġmedals": 8882,
      "Ġslavery": 8883,
      "Ġexplain": 8884,
      "incial": 8885,
      "Ġ1922": 8886,
      "Ġjoining": 8887,
      "ĠMoncton": 8888,
      "Ġfactor": 8889,
      "Ġdefeating": 8890,
      "Ġstriking": 8891,
      "ĠPhilip": 8892,
      "Ġbombers": 8893,
      "ĠLouisiana": 8894,
      "ĠAdminist": 8895,
      "Ġpunish": 8896,
      "Ġprinted": 8897,
      "Ġcomparison": 8898,
      "Ġsuitable": 8899,
      "ĠRoger": 8900,
      "Ġvoiced": 8901,
      "ĠPeninsula": 8902,
      "Ġmountains": 8903,
      "Ġdialogue": 8904,
      "Ġcollapsed": 8905,
      "ĠPittsburgh": 8906,
      "Since": 8907,
      "TW": 8908,
      "boy": 8909,
      "corn": 8910,
      "gie": 8911,
      "mium": 8912,
      "itudes": 8913,
      "asters": 8914,
      "rothes": 8915,
      "Ġhull": 8916,
      "ĠAra": 8917,
      "Ġgat": 8918,
      "olen": 8919,
      "olas": 8920,
      "olve": 8921,
      "Ġasking": 8922,
      "ĠHoly": 8923,
      "Ġbears": 8924,
      "ĠPam": 8925,
      "ĠWatch": 8926,
      "ĠFord": 8927,
      "ĠFrid": 8928,
      "ĠNathan": 8929,
      "asts": 8930,
      "Ġassembly": 8931,
      "Ġexposed": 8932,
      "Ġ09": 8933,
      "annon": 8934,
      "Ġobv": 8935,
      "Ġdemolished": 8936,
      "Ġopponent": 8937,
      "ĠMinor": 8938,
      "Ġwider": 8939,
      "Ġhitting": 8940,
      "Ġargues": 8941,
      "ĠQuebec": 8942,
      "ĠGrant": 8943,
      "Ġdisplays": 8944,
      "Ġsalary": 8945,
      "Ġcandidates": 8946,
      "Ġbadly": 8947,
      "iyar": 8948,
      "ĠClem": 8949,
      "ĠDenmark": 8950,
      "Ġperspective": 8951,
      "ĠIraq": 8952,
      "emetery": 8953,
      "inated": 8954,
      "Ġparent": 8955,
      "asaki": 8956,
      "ĠShip": 8957,
      "Ġlanes": 8958,
      "Ġeating": 8959,
      "lyn": 8960,
      "ĠBenn": 8961,
      "imination": 8962,
      "ivan": 8963,
      "ĠRidge": 8964,
      "Ġbypass": 8965,
      "ĠGate": 8966,
      "odore": 8967,
      "Ġcomed": 8968,
      "ĠThompson": 8969,
      "Ġagency": 8970,
      "Ġjury": 8971,
      "Ġevolved": 8972,
      "Ġpeaking": 8973,
      "Ġpublishing": 8974,
      "Ġmining": 8975,
      "Ġcarries": 8976,
      "Ġ112": 8977,
      "Ġartwork": 8978,
      "ĠAustria": 8979,
      "ĠUSS": 8980,
      "Ġfinale": 8981,
      "Ġtriple": 8982,
      "ĠChristopher": 8983,
      "Ġcommunication": 8984,
      "Ġreaders": 8985,
      "Ġarmament": 8986,
      "Ġmerely": 8987,
      "Ġpractices": 8988,
      "legraph": 8989,
      "Ġdrove": 8990,
      "Ġsuspended": 8991,
      "Ġstruggled": 8992,
      "Ġtactics": 8993,
      "ĠSweden": 8994,
      "ĠRafale": 8995,
      "Ġbombs": 8996,
      "Ġappointment": 8997,
      "Ġcrops": 8998,
      "Ġannouncement": 8999,
      "esbitt": 9000,
      "CC": 9001,
      "time": 9002,
      "Ġinland": 9003,
      "icine": 9004,
      "ĠSon": 9005,
      "ĠSuch": 9006,
      "ĠSoon": 9007,
      "ĠCurt": 9008,
      "ĠMand": 9009,
      "ationally": 9010,
      "ĠDave": 9011,
      "ĠWy": 9012,
      "akapo": 9013,
      "Ġexecut": 9014,
      "ĠVe": 9015,
      "Ġpartial": 9016,
      "Ġdesert": 9017,
      "ĠAlkan": 9018,
      "ultan": 9019,
      "ensively": 9020,
      "Ġraising": 9021,
      "Ġobst": 9022,
      "Ġjustice": 9023,
      "Ġdemands": 9024,
      "Ġsimilarly": 9025,
      "Ġtrading": 9026,
      "Ġterror": 9027,
      "Ġvalues": 9028,
      "Ġrespective": 9029,
      "beer": 9030,
      "Ġtesting": 9031,
      "Ġcelebrated": 9032,
      "Ġunderstood": 9033,
      "Ġtouchdowns": 9034,
      "Ġcolumns": 9035,
      "ĠHuman": 9036,
      "Ġmolec": 9037,
      "Ġpulled": 9038,
      "nal": 9039,
      "vet": 9040,
      "edar": 9041,
      "Ġbare": 9042,
      "anasi": 9043,
      "Ġpin": 9044,
      "ĠTales": 9045,
      "urday": 9046,
      "idel": 9047,
      "uther": 9048,
      "ĠPle": 9049,
      "ĠRal": 9050,
      "ulating": 9051,
      "ĠFur": 9052,
      "ĠOsc": 9053,
      "Ġorb": 9054,
      "Ġchrom": 9055,
      "uster": 9056,
      "achment": 9057,
      "Ġallies": 9058,
      "athus": 9059,
      "atherine": 9060,
      "Ġpolar": 9061,
      "Ġguarant": 9062,
      "Ġedit": 9063,
      "Ġrestoration": 9064,
      "astery": 9065,
      "Ġwindows": 9066,
      "Ġcompetitions": 9067,
      "Ġ1904": 9068,
      "Ġanimation": 9069,
      "Ġresearchers": 9070,
      "ĠWilberforce": 9071,
      "Ġtransportation": 9072,
      "Ġpreparation": 9073,
      "Ġbulk": 9074,
      "ĠBrothers": 9075,
      "ĠHerzegov": 9076,
      "cribed": 9077,
      "fe": 9078,
      "fire": 9079,
      "Ġå": 9080,
      "rov": 9081,
      "ĠChen": 9082,
      "ĠMant": 9083,
      "urer": 9084,
      "idae": 9085,
      "ĠIan": 9086,
      "Ġalive": 9087,
      "ĠWu": 9088,
      "ĠGa": 9089,
      "ĠGary": 9090,
      "ĠLam": 9091,
      "Ġseats": 9092,
      "sea": 9093,
      "Ġkit": 9094,
      "tsman": 9095,
      "weight": 9096,
      "Ġearning": 9097,
      "Ġflash": 9098,
      "Ġquiet": 9099,
      "ĠComb": 9100,
      "Ġexpression": 9101,
      "ĠAthen": 9102,
      "Ġ03": 9103,
      "asha": 9104,
      "Ġnorthward": 9105,
      "Ġannually": 9106,
      "ĠMcD": 9107,
      "Ġinitiated": 9108,
      "Ġwestward": 9109,
      "Ġreducing": 9110,
      "Ġarmored": 9111,
      "Ġpredicted": 9112,
      "Ġfallen": 9113,
      "ĠRussell": 9114,
      "Ġfrust": 9115,
      "Ġbirthday": 9116,
      "Ġcleared": 9117,
      "Ġmoral": 9118,
      "Ġaggressive": 9119,
      "Ġjunction": 9120,
      "ĠRosebery": 9121,
      "ĠProfess": 9122,
      "Ġshifted": 9123,
      "ĠLabour": 9124,
      "Ġpredecessor": 9125,
      "ĠMohave": 9126,
      "Ġentertainment": 9127,
      "ĠGarcÃŃa": 9128,
      "hall": 9129,
      "lock": 9130,
      "pent": 9131,
      "rast": 9132,
      "Ġbone": 9133,
      "Ġmand": 9134,
      "ĠBou": 9135,
      "iger": 9136,
      "ĠIowa": 9137,
      "Ġstores": 9138,
      "ĠNS": 9139,
      "ĠLim": 9140,
      "ĠLane": 9141,
      "Ġexha": 9142,
      "Ġplus": 9143,
      "abe": 9144,
      "assador": 9145,
      "ogan": 9146,
      "Ġapprec": 9147,
      "ĠMarl": 9148,
      "Ġproduces": 9149,
      "Ġamateur": 9150,
      "Ġcarrier": 9151,
      "Ġdistant": 9152,
      "ĠClay": 9153,
      "ĠColts": 9154,
      "Ġbattalions": 9155,
      "Ġincreases": 9156,
      "Ġski": 9157,
      "Ġaffili": 9158,
      "ĠRecord": 9159,
      "ĠTownsend": 9160,
      "Ġbowling": 9161,
      "Ġsettlements": 9162,
      "ĠMountains": 9163,
      "ĠOslo": 9164,
      "celand": 9165,
      "ĠSaturday": 9166,
      "Ġinstitutions": 9167,
      "Ġenlisted": 9168,
      "Ġpyramid": 9169,
      "Ġscattered": 9170,
      "Ġvulner": 9171,
      "Ġtemporarily": 9172,
      "ĠBristol": 9173,
      "ĠHerzegovina": 9174,
      "OS": 9175,
      "bes": 9176,
      "inction": 9177,
      "onium": 9178,
      "Ġsank": 9179,
      "itively": 9180,
      "Ġtopped": 9181,
      "ĠCam": 9182,
      "ĠMeth": 9183,
      "ĠHod": 9184,
      "ĠPict": 9185,
      "ĠRat": 9186,
      "ĠFalk": 9187,
      "ĠNar": 9188,
      "ĠJosh": 9189,
      "ĠEvent": 9190,
      "ĠOb": 9191,
      "aks": 9192,
      "Ġteach": 9193,
      "aja": 9194,
      "Ġ02": 9195,
      "Ġportions": 9196,
      "Ġdrain": 9197,
      "Ġcrimes": 9198,
      "Ġconvention": 9199,
      "Ġoriginated": 9200,
      "Ġ1861": 9201,
      "Ġtraveling": 9202,
      "Ġflags": 9203,
      "ĠMetal": 9204,
      "ĠPrix": 9205,
      "Ġwaiting": 9206,
      "warf": 9207,
      "ĠGreece": 9208,
      "Ġritual": 9209,
      "Ġfalse": 9210,
      "Ġsurvivors": 9211,
      "Ġexcellent": 9212,
      "ĠIsaac": 9213,
      "CA": 9214,
      "Ġtale": 9215,
      "Ġwel": 9216,
      "ito": 9217,
      "Ġpages": 9218,
      "Ġrevers": 9219,
      "Ġnat": 9220,
      "eto": 9221,
      "olis": 9222,
      "ĠHind": 9223,
      "ĠPic": 9224,
      "ĠRAAF": 9225,
      "ĠGun": 9226,
      "ĠNik": 9227,
      "ardo": 9228,
      "Ġshares": 9229,
      "ĠkW": 9230,
      "Ġcomponents": 9231,
      "Ġcompilation": 9232,
      "Ġusers": 9233,
      "endment": 9234,
      "Ġdecisions": 9235,
      "Ġacids": 9236,
      "ĠZhou": 9237,
      "Ġdiscussion": 9238,
      "exp": 9239,
      "Ġorganisms": 9240,
      "Ġpersonally": 9241,
      "ĠAnglo": 9242,
      "Ġcircuit": 9243,
      "Ġlooks": 9244,
      "Ġyoungest": 9245,
      "Ġclosing": 9246,
      "Ġceased": 9247,
      "ĠGrove": 9248,
[...]
