{
  "version": "1.0",
  "truncation": null,
  "padding": null,
  "added_tokens": [
    {
      "id": 0,
      "content": "<|endoftext|>",
      "single_word": false,
      "lstrip": false,
      "rstrip": false,
      "normalized": false,
      "special": true
    },
    {
      "id": 1,
      "content": "<pad>",
      "single_word": false,
      "lstrip": false,
      "rstrip": false,
      "normalized": false,
      "special": true
    }
  ],
  "normalizer": null,
  "pre_tokenizer": {
    "type": "ByteLevel",
    "add_prefix_space": false,
    "trim_offsets": true,
    "use_regex": true
  },
  "post_processor": {
    "type": "ByteLevel",
    "add_prefix_space": true,
    "trim_offsets": true,
    "use_regex": true
  },
  "decoder": {
    "type": "ByteLevel",
    "add_prefix_space": true,
    "trim_offsets": true,
    "use_regex": true
  },
  "model": {
    "type": "BPE",
    "dropout": null,
    "unk_token": null,
    "continuing_subword_prefix": null,
    "end_of_word_suffix": null,
    "fuse_unk": false,
    "byte_fallback": false,
    "ignore_merges": false,
    "vocab": {
      "<|endoftext|>": 0,
      "<pad>": 1,
      "!": 2,
      "\"": 3,
      "#": 4,
      "$": 5,
      "%": 6,
      "&": 7,
      "'": 8,
      "(": 9,
      ")": 10,
      "*": 11,
      "+": 12,
      ",": 13,
      "-": 14,
      ".": 15,
      "/": 16,
      "0": 17,
      "1": 18,
      "2": 19,
      "3": 20,
      "4": 21,
      "5": 22,
      "6": 23,
      "7": 24,
      "8": 25,
      "9": 26,
      ":": 27,
      ";": 28,
      "<": 29,
      "=": 30,
      ">": 31,
      "?": 32,
      "@": 33,
      "A": 34,
      "B": 35,
      "C": 36,
      "D": 37,
      "E": 38,
      "F": 39,
      "G": 40,
      "H": 41,
      "I": 42,
      "J": 43,
      "K": 44,
      "L": 45,
      "M": 46,
      "N": 47,
      "O": 48,
      "P": 49,
      "Q": 50,
      "R": 51,
      "S": 52,
      "T": 53,
      "U": 54,
      "V": 55,
      "W": 56,
      "X": 57,
      "Y": 58,
      "Z": 59,
      "[": 60,
      "\\": 61,
      "]": 62,
      "^": 63,
      "_": 64,
      "`": 65,
      "a": 66,
      "b": 67,
      "c": 68,
      "d": 69,
      "e": 70,
      "f": 71,
      "g": 72,
      "h": 73,
      "i": 74,
      "j": 75,
      "k": 76,
      "l": 77,
      "m": 78,
      "n": 79,
      "o": 80,
      "p": 81,
      "q": 82,
      "r": 83,
      "s": 84,
      "t": 85,
      "u": 86,
      "v": 87,
      "w": 88,
      "x": 89,
      "y": 90,
      "z": 91,
      "{": 92,
      "|": 93,
      "}": 94,
      "~": 95,
      "¡": 96,
      "¢": 97,
      "£": 98,
      "¤": 99,
      "¥": 100,
      "¦": 101,
      "§": 102,
      "¨": 103,
      "©": 104,
      "ª": 105,
      "«": 106,
      "¬": 107,
      "®": 108,
      "¯": 109,
      "°": 110,
      "±": 111,
      "²": 112,
      "³": 113,
      "´": 114,
      "µ": 115,
      "¶": 116,
      "·": 117,
      "¸": 118,
      "¹": 119,
      "º": 120,
      "»": 121,
      "¼": 122,
      "½": 123,
      "¾": 124,
      "¿": 125,
      "À": 126,
      "Á": 127,
      "Â": 128,
      "Ã": 129,
      "Ä": 130,
      "Å": 131,
      "Æ": 132,
      "Ç": 133,
      "È": 134,
      "É": 135,
      "Ê": 136,
      "Ë": 137,
      "Ì": 138,
      "Í": 139,
      "Î": 140,
      "Ï": 141,
      "Ð": 142,
      "Ñ": 143,
      "Ò": 144,
      "Ó": 145,
      "Ô": 146,
      "Õ": 147,
      "Ö": 148,
      "×": 149,
      "Ø": 150,
      "Ù": 151,
      "Ú": 152,
      "Û": 153,
      "Ü": 154,
      "Ý": 155,
      "Þ": 156,
      "ß": 157,
      "à": 158,
      "á": 159,
      "â": 160,
      "ã": 161,
      "ä": 162,
      "å": 163,
      "æ": 164,
      "ç": 165,
      "è": 166,
      "é": 167,
      "ê": 168,
      "ë": 169,
      "ì": 170,
      "í": 171,
      "î": 172,
      "ï": 173,
      "ð": 174,
      "ñ": 175,
      "ò": 176,
      "ó": 177,
      "ô": 178,
      "õ": 179,
      "ö": 180,
      "÷": 181,
      "ø": 182,
      "ù": 183,
      "ú": 184,
      "û": 185,
      "ü": 186,
      "ý": 187,
      "þ": 188,
      "ÿ": 189,
      "Ā": 190,
      "ā": 191,
      "Ă": 192,
      "ă": 193,
      "Ą": 194,
      "ą": 195,
      "Ć": 196,
      "ć": 197,
      "Ĉ": 198,
      "ĉ": 199,
      "Ċ": 200,
      "ċ": 201,
      "Č": 202,
      "č": 203,
      "Ď": 204,
      "ď": 205,
      "Đ": 206,
      "đ": 207,
      "Ē": 208,
      "ē": 209,
      "Ĕ": 210,
      "ĕ": 211,
      "Ė": 212,
      "ė": 213,
      "Ę": 214,
      "ę": 215,
      "Ě": 216,
      "ě": 217,
      "Ĝ": 218,
      "ĝ": 219,
      "Ğ": 220,
      "ğ": 221,
      "Ġ": 222,
      "ġ": 223,
      "Ģ": 224,
      "ģ": 225,
      "Ĥ": 226,
      "ĥ": 227,
      "Ħ": 228,
      "ħ": 229,
      "Ĩ": 230,
      "ĩ": 231,
      "Ī": 232,
      "ī": 233,
      "Ĭ": 234,
      "ĭ": 235,
      "Į": 236,
      "į": 237,
      "İ": 238,
      "ı": 239,
      "Ĳ": 240,
      "ĳ": 241,
      "Ĵ": 242,
      "ĵ": 243,
      "Ķ": 244,
      "ķ": 245,
      "ĸ": 246,
      "Ĺ": 247,
      "ĺ": 248,
      "Ļ": 249,
      "ļ": 250,
      "Ľ": 251,
      "ľ": 252,
      "Ŀ": 253,
      "ŀ": 254,
      "Ł": 255,
      "ł": 256,
      "Ń": 257,
      "in": 258,
      "Ġt": 259,
      "Ġa": 260,
      "he": 261,
      "re": 262,
      "on": 263,
      "ti": 264,
      "Ġo": 265,
      "te": 266,
      "Ġthe": 267,
      "Ġof": 268,
      "en": 269,
      "Ġc": 270,
      "Ġs": 271,
      "Ġin": 272,
      "al": 273,
      "Ġp": 274,
      "Ġw": 275,
      "ra": 276,
      "Ġan": 277,
      "ro": 278,
      "es": 279,
      "is": 280,
      "tion": 281,
      "Ġd": 282,
      "as": 283,
      "Ġm": 284,
      "or": 285,
      "ed": 286,
      "Ġb": 287,
      "er": 288,
      "ic": 289,
      "Ġf": 290,
      "it": 291,
      "Ġand": 292,
      "an": 293,
      "ar": 294,
      "le": 295,
      "Ġre": 296,
      "ent": 297,
      "ing": 298,
      "Ġe": 299,
      "at": 300,
      "ly": 301,
      "Ġto": 302,
      "ul": 303,
      "us": 304,
      "os": 305,
      "ec": 306,
      "ve": 307,
      "ate": 308,
      "ol": 309,
      "Ġh": 310,
      "om": 311,
      "Ġn": 312,
      "id": 313,
      "ation": 314,
      "Ġth": 315,
      "ĠT": 316,
      "Ġl": 317,
      "ter": 318,
      "ur": 319,
      "ith": 320,
      "ce": 321,
      "Ġwith": 322,
      "im": 323,
      "un": 324,
      "Ġg": 325,
      "ere": 326,
      "ll": 327,
      "th": 328,
      "um": 329,
      "Ġcon": 330,
      "ph": 331,
      "ac": 332,
      "uc": 333,
      "ĠThe": 334,
      "Ġbe": 335,
      "Ġwas": 336,
      "Ġ(": 337,
      "ig": 338,
      "ts": 339,
      "di": 340,
      "Ġpro": 341,
      "Ġv": 342,
      "Ġis": 343,
      "ta": 344,
      "tic": 345,
      "Ġde": 346,
      "res": 347,
      "ted": 348,
      "Ġfor": 349,
      "ine": 350,
      "if": 351,
      "oc": 352,
      "Ġby": 353,
      "Ġac": 354,
      "Ġwere": 355,
      "rom": 356,
      "og": 357,
      "Ġon": 358,
      "il": 359,
      "ow": 360,
      "se": 361,
      "Ġ1": 362,
      "ity": 363,
      "am": 364,
      "od": 365,
      "ati": 366,
      "ated": 367,
      "tra": 368,
      "ut": 369,
      "Ġas": 370,
      "Ġex": 371,
      "ot": 372,
      "ib": 373,
      "tu": 374,
      "ase": 375,
      "op": 376,
      "Ġra": 377,
      "ir": 378,
      "ell": 379,
      "ents": 380,
      "Ġch": 381,
      "Ġres": 382,
      "Ġme": 383,
      "ĠA": 384,
      "ĠI": 385,
      "Ġthat": 386,
      "Ġor": 387,
      "tr": 388,
      "ys": 389,
      "ical": 390,
      "Ġcom": 391,
      "ion": 392,
      "ia": 393,
      "Ġsu": 394,
      "ff": 395,
      "ge": 396,
      "ran": 397,
      "qu": 398,
      "Ġfrom": 399,
      "her": 400,
      "tive": 401,
      "Ġdis": 402,
      "ment": 403,
      "Ġcell": 404,
      "ver": 405,
      "red": 406,
      "Ġpati": 407,
      "Ġare": 408,
      "Ġcomp": 409,
      "Ġse": 410,
      "ous": 411,
      "Ġper": 412,
      "ad": 413,
      "yp": 414,
      "ration": 415,
      "orm": 416,
      "Ġat": 417,
      "ant": 418,
      "yl": 419,
      "ĠC": 420,
      "Ġal": 421,
      "pp": 422,
      "Ġ2": 423,
      "Ġinc": 424,
      "und": 425,
      "nt": 426,
      "Ġwh": 427,
      "duc": 428,
      "tiv": 429,
      "ess": 430,
      "Ġpatients": 431,
      "Ġsp": 432,
      "Ġad": 433,
      "up": 434,
      "ffec": 435,
      "iz": 436,
      "Ġen": 437,
      "Ġle": 438,
      "ĠS": 439,
      "ch": 440,
      "Ġhe": 441,
      "igh": 442,
      "st": 443,
      "ay": 444,
      "ges": 445,
      "ary": 446,
      "ular": 447,
      "las": 448,
      "Ġsh": 449,
      "min": 450,
      "ial": 451,
      "ab": 452,
      "ific": 453,
      "lo": 454,
      "Ġim": 455,
      "ence": 456,
      "ip": 457,
      "ure": 458,
      "ction": 459,
      "Ġne": 460,
      "lu": 461,
      "Ġpre": 462,
      "tro": 463,
      "Ġstu": 464,
      "ich": 465,
      "em": 466,
      "vel": 467,
      "Ġnot": 468,
      "Ġ3": 469,
      "ĠP": 470,
      "Ġpres": 471,
      "ose": 472,
      "bs": 473,
      "Ġcells": 474,
      "ore": 475,
      "el": 476,
      "iv": 477,
      "gen": 478,
      "one": 479,
      "lec": 480,
      "Ġinf": 481,
      "ten": 482,
      "reas": 483,
      "tor": 484,
      "Ġeffec": 485,
      "olog": 486,
      "ign": 487,
      "ym": 488,
      "Ġus": 489,
      "tivity": 490,
      "ĠD": 491,
      "iff": 492,
      "fter": 493,
      "ĠIn": 494,
      "tain": 495,
      "ide": 496,
      "tes": 497,
      "per": 498,
      "ations": 499,
      "ug": 500,
      "ther": 501,
      "Ġanti": 502,
      "Ġdiff": 503,
      "Ġgro": 504,
      "Ġthan": 505,
      "Ġwhich": 506,
      "ding": 507,
      "Ġph": 508,
      "ons": 509,
      "Ġresp": 510,
      "ound": 511,
      "Ġapp": 512,
      "ain": 513,
      "si": 514,
      "cent": 515,
      "ĠM": 516,
      "ĠH": 517,
      "hen": 518,
      "sis": 519,
      "The": 520,
      "Ġafter": 521,
      "00": 522,
      "ĠB": 523,
      "Ġha": 524,
      "Ġtran": 525,
      "Ġpos": 526,
      "to": 527,
      "Ġthis": 528,
      "de": 529,
      "ara": 530,
      "ri": 531,
      "Ġpo": 532,
      "erv": 533,
      "Ġresul": 534,
      "Ġ5": 535,
      "ble": 536,
      "Ġco": 537,
      "ĠE": 538,
      "Ġsub": 539,
      "pl": 540,
      "low": 541,
      "Ġtre": 542,
      "Ġcor": 543,
      "ally": 544,
      "era": 545,
      "Ġ4": 546,
      "Ġca": 547,
      "Ġit": 548,
      "Ġdiffere": 549,
      "por": 550,
      "Ġtrans": 551,
      "ater": 552,
      "ĠN": 553,
      "ren": 554,
      "oth": 555,
      "tein": 556,
      "Ġactivity": 557,
      "Ġsign": 558,
      "tal": 559,
      "ting": 560,
      "Ġmic": 561,
      "ree": 562,
      "cy": 563,
      "ome": 564,
      "ma": 565,
      "tions": 566,
      "ight": 567,
      "Ġun": 568,
      "ormal": 569,
      "Ġshow": 570,
      "uring": 571,
      "we": 572,
      "Ġcar": 573,
      "ies": 574,
      "ue": 575,
      "wo": 576,
      "ĠR": 577,
      "duced": 578,
      "iti": 579,
      "tim": 580,
      "Ġhyp": 581,
      "Ġr": 582,
      "Ġbet": 583,
      "Ġspec": 584,
      "sion": 585,
      "yd": 586,
      "Ġrel": 587,
      "Ġbut": 588,
      "ases": 589,
      "ke": 590,
      "ĠF": 591,
      "Ġbeen": 592,
      "hib": 593,
      "Ġab": 594,
      "our": 595,
      "Ġthese": 596,
      "Ġacid": 597,
      "Ġstudi": 598,
      "Ġsy": 599,
      "jec": 600,
      "mun": 601,
      "ween": 602,
      "Ġcl": 603,
      "ie": 604,
      "gn": 605,
      "ox": 606,
      "Ġhave": 607,
      "Ġsignific": 608,
      "ance": 609,
      "Ġbetween": 610,
      "NA": 611,
      "ear": 612,
      "ers": 613,
      "and": 614,
      "Ġst": 615,
      "Ġno": 616,
      "ros": 617,
      "Ġsur": 618,
      "all": 619,
      "Ġass": 620,
      ").": 621,
      "Ġgroup": 622,
      "ong": 623,
      "Ġev": 624,
      "ill": 625,
      "ium": 626,
      "Ġmeth": 627,
      "osis": 628,
      "ture": 629,
      "ulation": 630,
      "Ġlevel": 631,
      "reased": 632,
      "ĠL": 633,
      "mo": 634,
      "Ġcan": 635,
      "ĠTh": 636,
      "Ġwe": 637,
      "Ġar": 638,
      "Ġconcent": 639,
      "Ġpar": 640,
      "mb": 641,
      "Ġtwo": 642,
      "Ġfound": 643,
      "ms": 644,
      "Ġduring": 645,
      "Ġk": 646,
      "ogen": 647,
      "Ġsignificant": 648,
      "Ġall": 649,
      "ath": 650,
      "est": 651,
      "Ġobs": 652,
      "ist": 653,
      "Ġrec": 654,
      "ocy": 655,
      "atment": 656,
      "Ġchan": 657,
      "Ġag": 658,
      "end": 659,
      "amin": 660,
      "Ġhad": 661,
      "osph": 662,
      "ogra": 663,
      "ological": 664,
      "Ġconcentration": 665,
      "Ġcy": 666,
      "ech": 667,
      "Ġser": 668,
      "ied": 669,
      "pa": 670,
      "Ġ0": 671,
      "Ġnormal": 672,
      "Ġhas": 673,
      "Ġy": 674,
      "ct": 675,
      "ost": 676,
      "Ġinhib": 677,
      "ub": 678,
      "Ġprotein": 679,
      "Ġdec": 680,
      "zym": 681,
      "Ġresults": 682,
      "lym": 683,
      "Ġcol": 684,
      "ized": 685,
      "ydro": 686,
      "Ġmo": 687,
      "Ġother": 688,
      "Ġinv": 689,
      "age": 690,
      "Ġ6": 691,
      "ative": 692,
      "lood": 693,
      "so": 694,
      "Ġinter": 695,
      "ĠO": 696,
      "dy": 697,
      "Ġeffect": 698,
      "Ġind": 699,
      "yste": 700,
      "Ġli": 701,
      "rease": 702,
      "ap": 703,
      "als": 704,
      "cc": 705,
      "ond": 706,
      "ace": 707,
      "tained": 708,
      "tin": 709,
      "Ġvar": 710,
      "Ġobserv": 711,
      "ep": 712,
      "Ġtreatment": 713,
      "Ġmay": 714,
      "lic": 715,
      "ces": 716,
      "Ġfol": 717,
      "out": 718,
      "Ġpl": 719,
      "Ġdise": 720,
      "Ġblood": 721,
      "uld": 722,
      "Ġlow": 723,
      "cep": 724,
      "Ġgl": 725,
      "Ġmore": 726,
      "'s": 727,
      "Ġdes": 728,
      "Ġsug": 729,
      "inding": 730,
      "Ġboth": 731,
      "ucle": 732,
      "tab": 733,
      "ious": 734,
      "ĠW": 735,
      "oma": 736,
      "Ġocc": 737,
      "truc": 738,
      "Ġcases": 739,
      "Ġform": 740,
      "ility": 741,
      "Ġma": 742,
      "Ġsec": 743,
      "Ġgen": 744,
      "Ġsim": 745,
      "Ġstudy": 746,
      "me": 747,
      "Ġimmun": 748,
      "Ġmethod": 749,
      "].": 750,
      "ugh": 751,
      "Ġreg": 752,
      "ach": 753,
      "Ġes": 754,
      "ag": 755,
      "Ġcontro": 756,
      "Ġmon": 757,
      "Ġone": 758,
      "Ġsugges": 759,
      "velop": 760,
      "ograph": 761,
      "),": 762,
      "ne": 763,
      "form": 764,
      "Ġdia": 765,
      "Ġalso": 766,
      "Ġ10": 767,
      "Ġsyste": 768,
      "Ġhigh": 769,
      "Ġdeter": 770,
      "Ġelec": 771,
      "cin": 772,
      "alu": 773,
      "Ġenzym": 774,
      "Ġtim": 775,
      "sed": 776,
      "Ġmed": 777,
      "Ġtheir": 778,
      "ĠG": 779,
      "Ġplas": 780,
      "unction": 781,
      "Ġanal": 782,
      "Ġmeas": 783,
      "Ġob": 784,
      "ins": 785,
      "ile": 786,
      "Ġcomple": 787,
      "Ġfollow": 788,
      "ded": 789,
      "Ġcons": 790,
      "av": 791,
      "pec": 792,
      "ition": 793,
      "ery": 794,
      "lymph": 795,
      "Ġdevelop": 796,
      "nthe": 797,
      "oci": 798,
      "Ġman": 799,
      "Ġro": 800,
      "Ġdep": 801,
      "mon": 802,
      "rap": 803,
      "ĠThis": 804,
      "Ġonly": 805,
      "rop": 806,
      "ating": 807,
      "ron": 808,
      "Ġindic": 809,
      "ors": 810,
      "nal": 811,
      "Ġdifferen": 812,
      "cr": 813,
      "ven": 814,
      "hem": 815,
      "Ġdisease": 816,
      "Ġdi": 817,
      "Ġvir": 818,
      "Ġfac": 819,
      "ism": 820,
      "Ġincreased": 821,
      "odi": 822,
      "Ġfe": 823,
      "uman": 824,
      "iss": 825,
      "port": 826,
      "ared": 827,
      "Ġsam": 828,
      "ced": 829,
      "inical": 830,
      "tis": 831,
      "ays": 832,
      "Ġtyp": 833,
      "ty": 834,
      "tent": 835,
      "Ġmemb": 836,
      "Ġlymph": 837,
      "Ġcontrol": 838,
      "Ġtum": 839,
      "Ġintra": 840,
      "usion": 841,
      "Ġacc": 842,
      "Ġund": 843,
      "Ġreac": 844,
      "Ġserum": 845,
      "ild": 846,
      "Ġinto": 847,
      "iod": 848,
      "Ġ7": 849,
      "Ġlevels": 850,
      "Ġobserved": 851,
      "ory": 852,
      "Ġstim": 853,
      "oph": 854,
      "ĠIt": 855,
      "pha": 856,
      "ible": 857,
      "ization": 858,
      "Ġsuc": 859,
      "raction": 860,
      "Ġdisc": 861,
      "ix": 862,
      "Ġexper": 863,
      "ens": 864,
      "duction": 865,
      "ric": 866,
      "Ġmin": 867,
      "Ġhuman": 868,
      "Ġop": 869,
      "Ġchanges": 870,
      "tero": 871,
      "tial": 872,
      "ast": 873,
      "Ġrats": 874,
      "ates": 875,
      "ite": 876,
      "omy": 877,
      "inal": 878,
      "Ġwhen": 879,
      "Ġmembran": 880,
      "Ġrate": 881,
      "Ġless": 882,
      "ody": 883,
      "Ġstudied": 884,
      "Ġantib": 885,
      "hed": 886,
      "Ġplasma": 887,
      "Ġam": 888,
      "Ġunder": 889,
      "cess": 890,
      "onse": 891,
      "Ġmus": 892,
      "Ġsystem": 893,
      "les": 894,
      "ral": 895,
      "Ġinfec": 896,
      "Ġins": 897,
      "ici": 898,
      "ual": 899,
      "ĠThese": 900,
      "ute": 901,
      "able": 902,
      "cle": 903,
      "Ġoccur": 904,
      "pos": 905,
      "Ġsynthe": 906,
      "Ġused": 907,
      "Ġclinical": 908,
      "Ġend": 909,
      "Ġtiss": 910,
      "Ġeffects": 911,
      "Ġphosph": 912,
      "Ġnon": 913,
      "Ġshowed": 914,
      "der": 915,
      "ved": 916,
      "ive": 917,
      "Ġfunction": 918,
      "Ġdifferent": 919,
      "Ġ8": 920,
      "ears": 921,
      "Ġdetermin": 922,
      "cop": 923,
      "Ġup": 924,
      "Ġincrease": 925,
      "Ġmal": 926,
      "Ġdr": 927,
      "ak": 928,
      "dition": 929,
      "Ġqu": 930,
      "ni": 931,
      "ution": 932,
      "tory": 933,
      "Ġits": 934,
      "ments": 935,
      "Ġradi": 936,
      "Ġmy": 937,
      "rel": 938,
      "xim": 939,
      "ensi": 940,
      "Ġdeg": 941,
      "bin": 942,
      "Ġdef": 943,
      "Ġcaus": 944,
      "Ġpresent": 945,
      "tig": 946,
      "tric": 947,
      "Ġtes": 948,
      "Ġtr": 949,
      "Ġfib": 950,
      "Ġresponse": 951,
      "ilar": 952,
      "gl": 953,
      "ple": 954,
      "ard": 955,
      "ane": 956,
      "uth": 957,
      "Ġposs": 958,
      "ities": 959,
      "Ġthere": 960,
      "Ġhyper": 961,
      "Ġbi": 962,
      "Ġisol": 963,
      "sive": 964,
      "Ġthree": 965,
      "act": 966,
      "Ġtime": 967,
      "Ġout": 968,
      "cer": 969,
      "Ġdiagn": 970,
      "Ġep": 971,
      "Ġsta": 972,
      "ysis": 973,
      "Ġsc": 974,
      "umb": 975,
      "Ġstra": 976,
      "cter": 977,
      "Ġliver": 978,
      "Ġdem": 979,
      "Ġthose": 980,
      "--": 981,
      "ked": 982,
      "Ġnucle": 983,
      "nd": 984,
      "ions": 985,
      "pt": 986,
      "idence": 987,
      "tration": 988,
      "ants": 989,
      "ency": 990,
      "crib": 991,
      "itro": 992,
      "pro": 993,
      "Ġmar": 994,
      "gan": 995,
      "ĠDNA": 996,
      "Ġperiod": 997,
      "Ġinte": 998,
      "Ġassoci": 999,
      "rac": 1000,
      "Ġstudies": 1001,
      "rapy": 1002,
      "ata": 1003,
      "Ġenzyme": 1004,
      "ures": 1005,
      "aracter": 1006,
      "Ġbas": 1007,
      "Ġobtained": 1008,
      "Ġcul": 1009,
      "ardi": 1010,
      "Ġchild": 1011,
      "ever": 1012,
      "its": 1013,
      "Ġgre": 1014,
      "Ġexperim": 1015,
      "Ġvirus": 1016,
      "Ġsupp": 1017,
      "Ġrat": 1018,
      "Ġuse": 1019,
      "atter": 1020,
      "Ġsome": 1021,
      "Ġgrow": 1022,
      "Ġcal": 1023,
      "Ġfactor": 1024,
      "ior": 1025,
      "estig": 1026,
      "art": 1027,
      "Ġanim": 1028,
      "Ġexamin": 1029,
      "Ġpr": 1030,
      "sy": 1031,
      "rent": 1032,
      "Ġflu": 1033,
      "Ġtech": 1034,
      "ns": 1035,
      "Ġchrom": 1036,
      "io": 1037,
      "Ġarter": 1038,
      "ocytes": 1039,
      "Ġdo": 1040,
      "rain": 1041,
      "ores": 1042,
      "hydro": 1043,
      "Ġ9": 1044,
      "Ġdrug": 1045,
      "til": 1046,
      "tical": 1047,
      "Ġspecific": 1048,
      "minis": 1049,
      "Ġpoly": 1050,
      "tabol": 1051,
      "Ġmost": 1052,
      "Ġcyt": 1053,
      "Ġdescrib": 1054,
      "Ġsignificantly": 1055,
      "Ġantigen": 1056,
      "Ġcharacter": 1057,
      "ited": 1058,
      "Ġwell": 1059,
      "Ġmod": 1060,
      "Ġsubjec": 1061,
      "Ġover": 1062,
      "Ġox": 1063,
      "Ġinvestig": 1064,
      "ail": 1065,
      "requ": 1066,
      "Ġwhe": 1067,
      "ulin": 1068,
      "Ġdemons": 1069,
      "trib": 1070,
      "thyl": 1071,
      "Ġcompared": 1072,
      "Ġpresence": 1073,
      "Ġsimilar": 1074,
      "Ġmg": 1075,
      "cell": 1076,
      "erg": 1077,
      "In": 1078,
      "ung": 1079,
      "ental": 1080,
      "ography": 1081,
      "oid": 1082,
      "rome": 1083,
      "Ġ19": 1084,
      "Ġabs": 1085,
      "orp": 1086,
      "Ġdays": 1087,
      "tics": 1088,
      "que": 1089,
      "Ġdid": 1090,
      "Ġpatient": 1091,
      "cular": 1092,
      "arge": 1093,
      "Ġdiscus": 1094,
      "Ġsol": 1095,
      "Ġcontra": 1096,
      "Ġgluc": 1097,
      "Ġmembrane": 1098,
      "Ġpress": 1099,
      "Ġfir": 1100,
      "Ġadminis": 1101,
      "Ġcent": 1102,
      "Ġsm": 1103,
      "tively": 1104,
      "Ġextra": 1105,
      "Ġnumb": 1106,
      "Ġmetabol": 1107,
      "vid": 1108,
      "ĠV": 1109,
      "Ġprev": 1110,
      "Ġusing": 1111,
      "Ġhig": 1112,
      "Ġdete": 1113,
      "Ġwho": 1114,
      "Ġpa": 1115,
      "tures": 1116,
      "Ġconcentrations": 1117,
      "Ġ\"": 1118,
      "ital": 1119,
      "ĠK": 1120,
      "Ġdemonstra": 1121,
      "Ġloc": 1122,
      "gra": 1123,
      "ks": 1124,
      "ass": 1125,
      "tur": 1126,
      "acter": 1127,
      "owever": 1128,
      "Ġtest": 1129,
      "anti": 1130,
      "Ġcould": 1131,
      "Ġ+": 1132,
      "iden": 1133,
      "med": 1134,
      "be": 1135,
      "pres": 1136,
      "co": 1137,
      "Ġactiv": 1138,
      "Ġdata": 1139,
      "Ġgroups": 1140,
      "orph": 1141,
      "Ġnew": 1142,
      "Ġmean": 1143,
      "eration": 1144,
      "ora": 1145,
      "ented": 1146,
      "fore": 1147,
      "Ġtissue": 1148,
      "Ġmicro": 1149,
      "ither": 1150,
      "ise": 1151,
      "li": 1152,
      "ĠU": 1153,
      "Ġfirst": 1154,
      "Ġtechni": 1155,
      "Ġsmall": 1156,
      "Ġfrequ": 1157,
      "Ġsame": 1158,
      "Ġlip": 1159,
      "ade": 1160,
      "Ġhydro": 1161,
      "Ġstruc": 1162,
      "Ġinhibit": 1163,
      "echan": 1164,
      "Ġtotal": 1165,
      "tid": 1166,
      "Ġage": 1167,
      "Ġgra": 1168,
      "mine": 1169,
      "old": 1170,
      "Ġlab": 1171,
      "Ġj": 1172,
      "Ġ12": 1173,
      "Ġdiscussed": 1174,
      "Ġcase": 1175,
      "Ġfollowing": 1176,
      "ters": 1177,
      "arly": 1178,
      "ould": 1179,
      "Ġisolated": 1180,
      "Ġdescribed": 1181,
      "tif": 1182,
      "/-": 1183,
      "och": 1184,
      "tre": 1185,
      "Ġexc": 1186,
      "Ġinjec": 1187,
      "ft": 1188,
      "Ġrespons": 1189,
      "ulated": 1190,
      "Ġfinding": 1191,
      "endent": 1192,
      "rect": 1193,
      "ud": 1194,
      "ured": 1195,
      "Ġval": 1196,
      "Ġmice": 1197,
      "yro": 1198,
      "Ġpath": 1199,
      "Ġanimals": 1200,
      "Ġorgan": 1201,
      "Ġyears": 1202,
      "Ġchildren": 1203,
      "Ġcorrel": 1204,
      "Ġbl": 1205,
      "Ġsynthesis": 1206,
      "ough": 1207,
      "Ġfraction": 1208,
      "aneous": 1209,
      "taining": 1210,
      "oplas": 1211,
      "ult": 1212,
      "iven": 1213,
      "Ġpara": 1214,
      "ov": 1215,
      "Ġu": 1216,
      "mic": 1217,
      "Ġassociated": 1218,
      "Ġmechan": 1219,
      "ry": 1220,
      "Ġconc": 1221,
      "Ġpartic": 1222,
      "ect": 1223,
      "Ġelectro": 1224,
      "hemical": 1225,
      "othe": 1226,
      "ology": 1227,
      "Ġprepa": 1228,
      "Ġtype": 1229,
      "Ġgrowth": 1230,
      "Ġrele": 1231,
      "Ġpressure": 1232,
      "Ġcap": 1233,
      "Ġprim": 1234,
      "Ġrepor": 1235,
      "Ġcalc": 1236,
      "Ġnumber": 1237,
      "Ġsurg": 1238,
      "ĠII": 1239,
      "Ġcat": 1240,
      "kin": 1241,
      "cted": 1242,
      "Ġiden": 1243,
      "ties": 1244,
      "ort": 1245,
      "ful": 1246,
      "erm": 1247,
      "Ġhigher": 1248,
      "Ġur": 1249,
      "Ġpost": 1250,
      "ero": 1251,
      "ceptor": 1252,
      "Ġsuch": 1253,
      "ily": 1254,
      "Ġmain": 1255,
      "Ġrem": 1256,
      "Ġref": 1257,
      "Ġvalu": 1258,
      "Ġles": 1259,
      "Ġaddition": 1260,
      "ob": 1261,
      "Ġmicros": 1262,
      "Ġsensi": 1263,
      "Ġabout": 1264,
      "Ġtherapy": 1265,
      "Ġinvol": 1266,
      "Ġvitro": 1267,
      "Ġwithin": 1268,
      "Ġevalu": 1269,
      "Ġbinding": 1270,
      "Ġlong": 1271,
      "Ġanalysis": 1272,
      "ura": 1273,
      "rough": 1274,
      "Ġpoten": 1275,
      "amine": 1276,
      "Ġdose": 1277,
      "Ġequ": 1278,
      "Ġmolec": 1279,
      "Ġgas": 1280,
      "Ġ+/-": 1281,
      "Ġpur": 1282,
      "Ġperform": 1283,
      "ditions": 1284,
      "Ġtreated": 1285,
      "retion": 1286,
      "Ġdue": 1287,
      "iew": 1288,
      "ian": 1289,
      "Ġhem": 1290,
      "Ġ20": 1291,
      "Ġeach": 1292,
      "Ġrenal": 1293,
      "osom": 1294,
      "Ġtem": 1295,
      "Ġeither": 1296,
      "ves": 1297,
      "Ġalpha": 1298,
      "Ġcomplex": 1299,
      "Ġsubjects": 1300,
      "Ġsecond": 1301,
      "Ġinflu": 1302,
      "ues": 1303,
      "Ġwithout": 1304,
      "ication": 1305,
      "unt": 1306,
      "Ġmuscle": 1307,
      "itu": 1308,
      "Ġconditions": 1309,
      "Ġtransl": 1310,
      "Ġappro": 1311,
      "ind": 1312,
      "Ġweight": 1313,
      "itive": 1314,
      "yr": 1315,
      "Ġvalues": 1316,
      "Ġvol": 1317,
      "Ġtumor": 1318,
      "Ġelectr": 1319,
      "Ġgly": 1320,
      "emia": 1321,
      "itis": 1322,
      "Ġdevelopment": 1323,
      "Ġtra": 1324,
      "Ġacute": 1325,
      "Ġvarious": 1326,
      "Ġgreater": 1327,
      "erc": 1328,
      "Ġdetermined": 1329,
      "omp": 1330,
      "Ġpossible": 1331,
      "entric": 1332,
      "Ġir": 1333,
      "king": 1334,
      "Ġsym": 1335,
      "rations": 1336,
      "tered": 1337,
      "odies": 1338,
      "Ġfindings": 1339,
      "Ġdiagnosis": 1340,
      "Ġpatter": 1341,
      "Ġmit": 1342,
      "000": 1343,
      "Ġsurf": 1344,
      "Ġul": 1345,
      "Ġwee": 1346,
      "Ġamin": 1347,
      "Ġmuc": 1348,
      "qui": 1349,
      "uthor": 1350,
      "ified": 1351,
      "ished": 1352,
      "Ġbeta": 1353,
      "Ġbec": 1354,
      "ĠIg": 1355,
      "ingle": 1356,
      "dep": 1357,
      "ically": 1358,
      "Ġprocess": 1359,
      "ene": 1360,
      "erative": 1361,
      "rol": 1362,
      "rance": 1363,
      "Ġdecreased": 1364,
      "Ġem": 1365,
      "Ġ15": 1366,
      "ologic": 1367,
      "imin": 1368,
      "Ġmeasured": 1369,
      "ize": 1370,
      "Ġproduced": 1371,
      "Ġcardi": 1372,
      "ood": 1373,
      "Ġinduced": 1374,
      "Ġshown": 1375,
      "Ġpul": 1376,
      "Ġmonth": 1377,
      "ĠThere": 1378,
      "Ġfour": 1379,
      "ites": 1380,
      "Ġreported": 1381,
      "ress": 1382,
      "Ġimport": 1383,
      "ived": 1384,
      "uk": 1385,
      "Ġgiven": 1386,
      "Ġhorm": 1387,
      "Ġprol": 1388,
      "Ġphys": 1389,
      "Ġcyc": 1390,
      "Ġreduced": 1391,
      "Ġcir": 1392,
      "Ġchron": 1393,
      "ole": 1394,
      "urther": 1395,
      "Ġproced": 1396,
      "Ġlower": 1397,
      "Ġthrough": 1398,
      "ning": 1399,
      "Ġamo": 1400,
      "oly": 1401,
      "omen": 1402,
      "rees": 1403,
      "Ġinclu": 1404,
      "Ġsingle": 1405,
      "Ġhist": 1406,
      "Ġhis": 1407,
      "ocardi": 1408,
      "ered": 1409,
      "oles": 1410,
      "Ġprevious": 1411,
      "Ġadministration": 1412,
      "Ġphen": 1413,
      "ids": 1414,
      "bb": 1415,
      "Ġbacter": 1416,
      "Ġcle": 1417,
      "ĠX": 1418,
      "Ġcarcin": 1419,
      "Ġsuggest": 1420,
      "Ġglucose": 1421,
      "Ġindi": 1422,
      "Ġstimulation": 1423,
      "phosph": 1424,
      "Ġwhile": 1425,
      "Ġdemonstrated": 1426,
      "Ġ30": 1427,
      "lob": 1428,
      "Ġagain": 1429,
      "Ġbrain": 1430,
      "atic": 1431,
      "titu": 1432,
      "Ġdegrees": 1433,
      "Ġsynd": 1434,
      "kg": 1435,
      "ĠAn": 1436,
      ")].": 1437,
      "sych": 1438,
      "ffici": 1439,
      "anc": 1440,
      "Ġiniti": 1441,
      "Ġdos": 1442,
      "Ġnec": 1443,
      "Ġaffec": 1444,
      "use": 1445,
      "Ġheart": 1446,
      "atory": 1447,
      "Ġran": 1448,
      "Ġlarge": 1449,
      "ged": 1450,
      "Ġneu": 1451,
      "10": 1452,
      "Ġproper": 1453,
      "Ġincreas": 1454,
      "Ġinfection": 1455,
      "lass": 1456,
      "Ġformation": 1457,
      "ateral": 1458,
      "ately": 1459,
      "dependent": 1460,
      "Ġdecrease": 1461,
      "fer": 1462,
      "take": 1463,
      "ĠpH": 1464,
      "arb": 1465,
      "hip": 1466,
      "jor": 1467,
      "Ġrabb": 1468,
      "iel": 1469,
      "Ġrequi": 1470,
      "ours": 1471,
      "Ġrelative": 1472,
      "Ġmade": 1473,
      "MP": 1474,
      "pid": 1475,
      "Ġshould": 1476,
      "Ġmut": 1477,
      "Ġchromat": 1478,
      "ick": 1479,
      "Ġreve": 1480,
      "Ġpop": 1481,
      "Ġinhibition": 1482,
      "eral": 1483,
      "Ġaut": 1484,
      "ascular": 1485,
      "ulf": 1486,
      "Ġproduc": 1487,
      "ĠRNA": 1488,
      "Ġtechnique": 1489,
      "Ġtemp": 1490,
      "Ġ14": 1491,
      "Ġthey": 1492,
      "Ġheal": 1493,
      "Ġmajor": 1494,
      "Ġreaction": 1495,
      "normal": 1496,
      "Ġele": 1497,
      "ression": 1498,
      "Ġaden": 1499,
      "Ġmeasure": 1500,
      "Ġstrains": 1501,
      "Ġcombin": 1502,
      "Ġconsis": 1503,
      "Ġfem": 1504,
      "ules": 1505,
      "ature": 1506,
      "Ġmater": 1507,
      "Ġchronic": 1508,
      "tribution": 1509,
      "zed": 1510,
      "Ġfat": 1511,
      "Ġproteins": 1512,
      "Ġ[": 1513,
      "author": 1514,
      "onic": 1515,
      "Ġleuk": 1516,
      "Ġcompon": 1517,
      "Ġdifferences": 1518,
      "Ġdeveloped": 1519,
      "Ġsurface": 1520,
      "medi": 1521,
      "Ġter": 1522,
      "Ġrespec": 1523,
      "Ġsubs": 1524,
      "osp": 1525,
      "Ġpresented": 1526,
      "Ġsal": 1527,
      "uration": 1528,
      "hes": 1529,
      "hav": 1530,
      "ationship": 1531,
      "hel": 1532,
      "ale": 1533,
      "TP": 1534,
      "Ġexpos": 1535,
      "Ġappe": 1536,
      "Ġremain": 1537,
      "Ġbefore": 1538,
      "Ġexamined": 1539,
      "Ġcur": 1540,
      "Ġmonths": 1541,
      "olar": 1542,
      "amm": 1543,
      "Ġmul": 1544,
      "Ġrelated": 1545,
      "Ġearly": 1546,
      "Ġantibody": 1547,
      "Ġlesions": 1548,
      "Ġevidence": 1549,
      "ison": 1550,
      "Ġdie": 1551,
      "eren": 1552,
      "Ġtub": 1553,
      "Ġagainst": 1554,
      "though": 1555,
      "yroid": 1556,
      "Ġfail": 1557,
      "ines": 1558,
      "Ġsyndrome": 1559,
      "now": 1560,
      "Ġte": 1561,
      "Ġmodel": 1562,
      "Ġamino": 1563,
      "Ġresist": 1564,
      "Ġsever": 1565,
      "rotein": 1566,
      "Ġstimul": 1567,
      "rh": 1568,
      "Ġcaused": 1569,
      "monary": 1570,
      "az": 1571,
      "Ġcarb": 1572,
      "val": 1573,
      "Ġaction": 1574,
      "Ġidentif": 1575,
      "ival": 1576,
      "Ġany": 1577,
      "idine": 1578,
      "Ġreveal": 1579,
      "Ġste": 1580,
      "Ġactive": 1581,
      "Ġflow": 1582,
      "Ġcere": 1583,
      "ord": 1584,
      "Ġcharacteris": 1585,
      "Ġconf": 1586,
      "Ġrelease": 1587,
      "Ġery": 1588,
      "Ġreceptor": 1589,
      "Ġstr": 1590,
      "induced": 1591,
      "over": 1592,
      "Ġder": 1593,
      "odium": 1594,
      "Ġmicroscop": 1595,
      "Ġfactors": 1596,
      "Ġoccurred": 1597,
      "tide": 1598,
      "Ġchange": 1599,
      "uble": 1600,
      "sin": 1601,
      "Ġbehav": 1602,
      "Ġneur": 1603,
      "ness": 1604,
      "enz": 1605,
      "Ġsus": 1606,
      "terone": 1607,
      "Ġrapid": 1608,
      "view": 1609,
      "ish": 1610,
      "Ġcontent": 1611,
      "roph": 1612,
      "Ġfree": 1613,
      "ĠHowever": 1614,
      "Ġhep": 1615,
      "Ġlocal": 1616,
      "Ġventric": 1617,
      "Ġso": 1618,
      "ides": 1619,
      "ones": 1620,
      "Ġpred": 1621,
      "ographic": 1622,
      "ame": 1623,
      "Ġcomplete": 1624,
      "Ġpig": 1625,
      "row": 1626,
      "Ġprimary": 1627,
      "onal": 1628,
      "Ġ50": 1629,
      "Ġrole": 1630,
      "oss": 1631,
      "Ġves": 1632,
      "Ġtempera": 1633,
      "ae": 1634,
      "Ġvery": 1635,
      "Ġimpro": 1636,
      "vement": 1637,
      "Ġresponses": 1638,
      "Ġpsych": 1639,
      "Ġmethods": 1640,
      "Ġelectron": 1641,
      "amic": 1642,
      "cellular": 1643,
      "ently": 1644,
      "inc": 1645,
      "rate": 1646,
      "ice": 1647,
      "Ġbone": 1648,
      "Ġsuggested": 1649,
      "Ġproperties": 1650,
      "Ġace": 1651,
      "Ġmorph": 1652,
      "Ġmedium": 1653,
      "Ġinvestigated": 1654,
      "thro": 1655,
      "spec": 1656,
      "Ġly": 1657,
      "ouse": 1658,
      "Ġol": 1659,
      "Ġprec": 1660,
      "ock": 1661,
      "erve": 1662,
      "Ġmarked": 1663,
      "ira": 1664,
      "Ġspecies": 1665,
      "Ġrelationship": 1666,
      "Ġvis": 1667,
      "idase": 1668,
      "Ġabnormal": 1669,
      "Ġ11": 1670,
      "Ġrespectively": 1671,
      "Ġday": 1672,
      "Ġlim": 1673,
      "Ġ24": 1674,
      "orption": 1675,
      "ocyte": 1676,
      "Ġhom": 1677,
      "II": 1678,
      "Ġdel": 1679,
      "Ġgene": 1680,
      "tinu": 1681,
      "chol": 1682,
      "Ġacids": 1683,
      "Ġrati": 1684,
      "Ġ25": 1685,
      "Ġindivid": 1686,
      "Ġbody": 1687,
      "Ġcommon": 1688,
      "Ġsep": 1689,
      "Ġhealth": 1690,
      "Ġsympt": 1691,
      "Ġgu": 1692,
      "Ġdog": 1693,
      "Ġpregn": 1694,
      "Ġsodium": 1695,
      "Ġweeks": 1696,
      "tera": 1697,
      "Ġperformed": 1698,
      "tensive": 1699,
      "Ġlung": 1700,
      "Ġcirc": 1701,
      "ield": 1702,
      "ances": 1703,
      "Ġindicate": 1704,
      "mit": 1705,
      "Ġseen": 1706,
      "ogenic": 1707,
      "Ġclass": 1708,
      "Ġquanti": 1709,
      "Ġwor": 1710,
      "renal": 1711,
      "ume": 1712,
      "Ġsyn": 1713,
      "resp": 1714,
      "Ġleft": 1715,
      "Ġpositive": 1716,
      "ochemical": 1717,
      "Ġel": 1718,
      "occ": 1719,
      "Ġcereb": 1720,
      "Ġlymphocytes": 1721,
      "esis": 1722,
      "rage": 1723,
      "terol": 1724,
      "vere": 1725,
      "eu": 1726,
      "tically": 1727,
      "Ġmaxim": 1728,
      "ex": 1729,
      "Ġpercent": 1730,
      "Ġrevealed": 1731,
      "Ġsequ": 1732,
      "ĠNo": 1733,
      "Ġvalue": 1734,
      "idne": 1735,
      "Ġav": 1736,
      "ack": 1737,
      "tional": 1738,
      "tyl": 1739,
      "Ġradio": 1740,
      "Ġreduction": 1741,
      "sequ": 1742,
      "Ġexperimental": 1743,
      "isms": 1744,
      "con": 1745,
      "Ġang": 1746,
      "ĠAl": 1747,
      "Ġinsulin": 1748,
      "oxy": 1749,
      "Ġpart": 1750,
      "Ġ197": 1751,
      "Ġos": 1752,
      "Ġfrequency": 1753,
      "uce": 1754,
      "Ġsurv": 1755,
      "Ġinjection": 1756,
      "ĠOn": 1757,
      "et": 1758,
      "lor": 1759,
      "dif": 1760,
      "ause": 1761,
      "gram": 1762,
      "ancy": 1763,
      "Ġlead": 1764,
      "Ġsl": 1765,
      "Ġinhibited": 1766,
      "ĠWe": 1767,
      "Ġdirect": 1768,
      "Ġwater": 1769,
      "rag": 1770,
      "Ġ13": 1771,
      "Ġkidne": 1772,
      "Ġregion": 1773,
      "ving": 1774,
      "bility": 1775,
      "Ġdistribution": 1776,
      "Ġresult": 1777,
      "Ġhormone": 1778,
      "ule": 1779,
      "%)": 1780,
      "Ġskin": 1781,
      "Ġcarri": 1782,
      "Ġpe": 1783,
      "Ġtypes": 1784,
      "ml": 1785,
      "Ġtimes": 1786,
      "Ġfil": 1787,
      "arison": 1788,
      "Ġgel": 1789,
      "tamine": 1790,
      "Ġreview": 1791,
      "Ġprob": 1792,
      "Ġprote": 1793,
      "Ġconclu": 1794,
      "gative": 1795,
      "ype": 1796,
      "amide": 1797,
      "Ġwhereas": 1798,
      "hydrox": 1799,
      "other": 1800,
      "Ġdiagnos": 1801,
      "ergic": 1802,
      "Ġlight": 1803,
      "table": 1804,
      "Ġcompound": 1805,
      "Ġculture": 1806,
      "opath": 1807,
      "Ġtested": 1808,
      "Ġdifference": 1809,
      "rin": 1810,
      "Ġdoses": 1811,
      "of": 1812,
      "Ġsevere": 1813,
      "Ġoxy": 1814,
      "trans": 1815,
      "Ġvari": 1816,
      "sel": 1817,
      "orb": 1818,
      "Ġtox": 1819,
      "12": 1820,
      "Ġsin": 1821,
      "Ġ18": 1822,
      "ethyl": 1823,
      "Ġ100": 1824,
      "Ġknow": 1825,
      "Ġsymptom": 1826,
      "Ġhours": 1827,
      "Ġdetected": 1828,
      "ove": 1829,
      "Ġgran": 1830,
      "arance": 1831,
      "mia": 1832,
      "Ġassess": 1833,
      "terior": 1834,
      "otox": 1835,
      "Ġseveral": 1836,
      "Ġmen": 1837,
      "ans": 1838,
      "ochond": 1839,
      "Ġtests": 1840,
      "la": 1841,
      "Ġpulmonary": 1842,
      "omas": 1843,
      "Ġmolecular": 1844,
      "ably": 1845,
      "Ġgeneral": 1846,
      "Ġnerve": 1847,
      "Ġ16": 1848,
      "Ġimportant": 1849,
      "Ġemb": 1850,
      "Ġorig": 1851,
      "Ġsuper": 1852,
      "ification": 1853,
      "Ġrece": 1854,
      "Ġperf": 1855,
      "Ġmetabolism": 1856,
      "Ġfurther": 1857,
      "olic": 1858,
      "Ġbeing": 1859,
      "ability": 1860,
      "Ġproduction": 1861,
      "Ġantibodies": 1862,
      "Ġfluid": 1863,
      "Ġz": 1864,
      "arent": 1865,
      "ipher": 1866,
      "An": 1867,
      "vers": 1868,
      "Ġcomplic": 1869,
      "Ġtemperature": 1870,
      "ĠCa": 1871,
      "Ġred": 1872,
      "Ġdrugs": 1873,
      "Ġcontaining": 1874,
      "tural": 1875,
      "phal": 1876,
      "ples": 1877,
      "Ġcontrast": 1878,
      "Ġuptake": 1879,
      "Ġhal": 1880,
      "Ġsubst": 1881,
      "Ġincub": 1882,
      "ochondr": 1883,
      "Ġmouse": 1884,
      "Ġmodif": 1885,
      "ross": 1886,
      "tabl": 1887,
      "line": 1888,
      "Ġ=": 1889,
      "Ġproble": 1890,
      "Ġoperation": 1891,
      "Ġultra": 1892,
      "ithel": 1893,
      "50": 1894,
      "tact": 1895,
      "operative": 1896,
      "Ġrates": 1897,
      "Ġcoli": 1898,
      "ivo": 1899,
      "Ġassay": 1900,
      "Ġmyocardi": 1901,
      "Ġcardiac": 1902,
      "Ġrepres": 1903,
      "Ġmaterial": 1904,
      "Ġmulti": 1905,
      "Ġconst": 1906,
      "Ġresid": 1907,
      "Ġselec": 1908,
      "Ġcancer": 1909,
      "ural": 1910,
      "gth": 1911,
      "Ġsix": 1912,
      "Ġincidence": 1913,
      "tension": 1914,
      "Ġstructure": 1915,
      "Ġseem": 1916,
      "let": 1917,
      "Ġvolume": 1918,
      "try": 1919,
      "Ġpattern": 1920,
      "Ġphase": 1921,
      "ording": 1922,
      "Ġfollowed": 1923,
      "RNA": 1924,
      "Ġfive": 1925,
      "rosis": 1926,
      "izing": 1927,
      "Ġexperiments": 1928,
      "lusion": 1929,
      "Ġdiet": 1930,
      "troph": 1931,
      "Ġconsid": 1932,
      ")-": 1933,
      "Ġpreviously": 1934,
      "Ġerythro": 1935,
      "Ġmechanism": 1936,
      "Ġeffective": 1937,
      "Ġamong": 1938,
      "iological": 1939,
      "Ġprocedure": 1940,
      "pre": 1941,
      "Ġvivo": 1942,
      "Ġapproxim": 1943,
      "Ġartery": 1944,
      "iat": 1945,
      "Effec": 1946,
      "Ġperipher": 1947,
      "Ġven": 1948,
      "Ġremo": 1949,
      "treated": 1950,
      "Ġrange": 1951,
      "Ġestabl": 1952,
      "Ġtumors": 1953,
      "Ġhowever": 1954,
      "Ġwomen": 1955,
      "Ġmac": 1956,
      "Ġsurgery": 1957,
      "int": 1958,
      "Ġpanc": 1959,
      "Ġcalcium": 1960,
      "ospital": 1961,
      "ension": 1962,
      "Ġsecretion": 1963,
      "arc": 1964,
      "Ġelectroph": 1965,
      "ually": 1966,
      "Ġapparent": 1967,
      "Ġpopulation": 1968,
      "Ġcour": 1969,
      "Ġif": 1970,
      "Ġactivities": 1971,
      "rob": 1972,
      "ĠAt": 1973,
      "Ġ17": 1974,
      "Ġelev": 1975,
      "Ġgland": 1976,
      "Ġcontrols": 1977,
      "Ġcorrelation": 1978,
      "14": 1979,
      "Ġestim": 1980,
      "Ġmale": 1981,
      "Ġcontinu": 1982,
      "onucle": 1983,
      "Ġsize": 1984,
      "Ġline": 1985,
      "Ġinteraction": 1986,
      "Ġrepl": 1987,
      "ĠWhen": 1988,
      "Ġstrain": 1989,
      "onary": 1990,
      "Ġdoes": 1991,
      "Ġvac": 1992,
      "erase": 1993,
      "Ġloss": 1994,
      "tially": 1995,
      "chan": 1996,
      "venous": 1997,
      "icity": 1998,
      "Ġpotential": 1999,
      "Ġcarcinoma": 2000,
      "Ġmitochondr": 2001,
      "Ġ40": 2002,
      "Ġtransport": 2003,
      "rine": 2004,
      "ĠAfter": 2005,
      "Ġparticular": 2006,
      "led": 2007,
      "Ġinfluence": 2008,
      "Ġsubstra": 2009,
      "iratory": 2010,
      "Ġintest": 2011,
      "Ġadult": 2012,
      "Ġstate": 2013,
      "rad": 2014,
      "Ġfl": 2015,
      "Cl": 2016,
      "ird": 2017,
      "reg": 2018,
      "Ġventricular": 2019,
      "radi": 2020,
      "unts": 2021,
      "Ġplate": 2022,
      "ques": 2023,
      "Ġpurified": 2024,
      "inary": 2025,
      "ission": 2026,
      "Ġcompos": 2027,
      "lex": 2028,
      "umin": 2029,
      "tides": 2030,
      "Ġratio": 2031,
      "Ġdegree": 2032,
      "Ġcultures": 2033,
      "ined": 2034,
      "uter": 2035,
      "Ġarea": 2036,
      "Ġenzymes": 2037,
      "plo": 2038,
      "ont": 2039,
      "han": 2040,
      "Ġimpl": 2041,
      "ling": 2042,
      "Ġlo": 2043,
      "iable": 2044,
      "osomes": 2045,
      "Ġtissues": 2046,
      "Ġov": 2047,
      "eding": 2048,
      "Ġepithel": 2049,
      "ump": 2050,
      "Th": 2051,
      "Ġdiabe": 2052,
      "Ġfam": 2053,
      "Ġperipheral": 2054,
      "Ġindicated": 2055,
      "ogenesis": 2056,
      "Ġresistance": 2057,
      "Ġoxygen": 2058,
      "ward": 2059,
      "vir": 2060,
      "Ġmembranes": 2061,
      "Ġmat": 2062,
      "ave": 2063,
      "tle": 2064,
      "Ġrabbit": 2065,
      "Ġconside": 2066,
      "cence": 2067,
      "ococc": 2068,
      "ortal": 2069,
      "Ġmet": 2070,
      "olesterol": 2071,
      "Ġsymptoms": 2072,
      "sta": 2073,
      "Ġris": 2074,
      "Ġsurgical": 2075,
      "Ġsulf": 2076,
      "Ġnod": 2077,
      "ressive": 2078,
      "Ġchromatography": 2079,
      "Ġ-": 2080,
      "Ġpep": 2081,
      "ĠAll": 2082,
      "Ġadv": 2083,
      "Ġappears": 2084,
      "ised": 2085,
      "'-": 2086,
      "Ġdys": 2087,
      "Ġleast": 2088,
      "ĠAs": 2089,
      "Ġmalign": 2090,
      "Ġdefici": 2091,
      "Ġsites": 2092,
      "Ġdig": 2093,
      "arm": 2094,
      "Ġave": 2095,
      "Ġcr": 2096,
      "Ġeven": 2097,
      "Ġsamples": 2098,
      "pe": 2099,
      "patic": 2100,
      "enic": 2101,
      "Ġantigens": 2102,
      "Ġbil": 2103,
      "Ġapplic": 2104,
      "hyd": 2105,
      "Ġexpl": 2106,
      "Ġrib": 2107,
      "Ġx": 2108,
      "iving": 2109,
      "genase": 2110,
      "Ġmix": 2111,
      "ife": 2112,
      "Ġcourse": 2113,
      "yn": 2114,
      "Ġpolym": 2115,
      "Ġresulted": 2116,
      "Ġglyc": 2117,
      "Ġoral": 2118,
      "Ġneed": 2119,
      "anol": 2120,
      "Ġure": 2121,
      "Ġupon": 2122,
      "Ġhaem": 2123,
      "Ġreport": 2124,
      "otic": 2125,
      "ang": 2126,
      "Ġamount": 2127,
      "Ġaff": 2128,
      "Ġapproximately": 2129,
      "Ġmeans": 2130,
      "Ġexamination": 2131,
      "Ġbasis": 2132,
      "itation": 2133,
      "formation": 2134,
      "Ġcare": 2135,
      "Ġorder": 2136,
      "ias": 2137,
      "fac": 2138,
      "Ġconsidered": 2139,
      "ortic": 2140,
      "ially": 2141,
      "Ġsex": 2142,
      "Ġpossib": 2143,
      "Ġerythrocy": 2144,
      "osine": 2145,
      "Ġcoronary": 2146,
      "Ġstand": 2147,
      "lobulin": 2148,
      "Ġinitial": 2149,
      "Ġprovid": 2150,
      "methyl": 2151,
      "Ġsuccess": 2152,
      "Ġtak": 2153,
      "ensity": 2154,
      "Ġeff": 2155,
      "Ġchain": 2156,
      "Ġconfir": 2157,
      "eled": 2158,
      "alpha": 2159,
      "Ġbehavior": 2160,
      "Ġsepara": 2161,
      "ogenous": 2162,
      "orn": 2163,
      "Ġabsence": 2164,
      "like": 2165,
      "last": 2166,
      "(-": 2167,
      "Ġinfusion": 2168,
      "ton": 2169,
      "Ġcontain": 2170,
      "oprotein": 2171,
      "Ġcorresp": 2172,
      "Ġreactions": 2173,
      "Ġkidney": 2174,
      "Ġlate": 2175,
      "ring": 2176,
      "immun": 2177,
      "Ġbecause": 2178,
      "atal": 2179,
      "Ġcri": 2180,
      "ision": 2181,
      "Ġconcluded": 2182,
      "Ġpers": 2183,
      "Ġsite": 2184,
      "rapeu": 2185,
      "DP": 2186,
      "set": 2187,
      "Ġappeared": 2188,
      "ĠJ": 2189,
      "Ġforms": 2190,
      "essen": 2191,
      "Ġdifferenti": 2192,
      "Ġcyclic": 2193,
      "term": 2194,
      "Ġcomparison": 2195,
      "Ġion": 2196,
      "Ġseries": 2197,
      "Ġana": 2198,
      "osterone": 2199,
      "Ġincorp": 2200,
      "Ġdogs": 2201,
      "ĠNa": 2202,
      "sc": 2203,
      "active": 2204,
      "Ġfluores": 2205,
      "Ġarterial": 2206,
      "Ġnegative": 2207,
      "Ġdepend": 2208,
      "ressed": 2209,
      "Ġyo": 2210,
      "ĠATP": 2211,
      "Ġparame": 2212,
      "Ġmyocardial": 2213,
      "ull": 2214,
      "Ġexposure": 2215,
      "ults": 2216,
      "Ġevaluation": 2217,
      "olip": 2218,
      "Ġslow": 2219,
      "gin": 2220,
      "Ġfailure": 2221,
      "Ġthem": 2222,
      "Ġ60": 2223,
      "osomal": 2224,
      "Ġprac": 2225,
      "Ġinvolved": 2226,
      "Ġsimple": 2227,
      "activ": 2228,
      "Ġcause": 2229,
      "Ġconstant": 2230,
      "Ġplace": 2231,
      "uthors": 2232,
      "Ġcapac": 2233,
      "Ġtermin": 2234,
      "Ġmany": 2235,
      "Ġax": 2236,
      "itary": 2237,
      "Ġcomponents": 2238,
      "oe": 2239,
      "Ġagents": 2240,
      "Ġincreases": 2241,
      "ses": 2242,
      "Ġorigin": 2243,
      "Ġepid": 2244,
      "Ġurine": 2245,
      "Ġcer": 2246,
      "Ġshort": 2247,
      "Ġve": 2248,
      "Ġnecess": 2249,
      "hy": 2250,
      "Ġprog": 2251,
      "tribu": 2252,
      "omin": 2253,
      "app": 2254,
      "Ġinj": 2255,
      "atures": 2256,
      "Ġimmune": 2257,
      "Ġwork": 2258,
      "truction": 2259,
      "19": 2260,
      "amp": 2261,
      "atitis": 2262,
      "Ġslight": 2263,
      "oresis": 2264,
      "Ġthym": 2265,
      "Ġthen": 2266,
      "Ġfrag": 2267,
      "ection": 2268,
      "osa": 2269,
      "ontaneous": 2270,
      "ences": 2271,
      "tative": 2272,
      "Ġhand": 2273,
      "otherapy": 2274,
      "Ġsensitivity": 2275,
      "Ġtechniques": 2276,
      "Ġknown": 2277,
      "Ġcholesterol": 2278,
      "Ġour": 2279,
      "Ġcarried": 2280,
      "inf": 2281,
      "Ġexcretion": 2282,
      "tem": 2283,
      "Ġi": 2284,
      "Ġsensitive": 2285,
      "ulations": 2286,
      "Ġhy": 2287,
      "Ġaccum": 2288,
      "are": 2289,
      "Ġantibio": 2290,
      "Ġmm": 2291,
      "omer": 2292,
      "25": 2293,
      "ator": 2294,
      "Ġpeak": 2295,
      "SH": 2296,
      "fold": 2297,
      "Ġcentral": 2298,
      "oration": 2299,
      "Ġden": 2300,
      "Ġurinary": 2301,
      "Ġwill": 2302,
      "Ġcondition": 2303,
      "Ġill": 2304,
      "Ġsystems": 2305,
      "phosphate": 2306,
      "Ġsurvival": 2307,
      "Ġidentified": 2308,
      "tern": 2309,
      "rapeutic": 2310,
      "rose": 2311,
      "Ġvascular": 2312,
      "char": 2313,
      "Ġfeatures": 2314,
      "Ġintravenous": 2315,
      "onding": 2316,
      "Ġmuch": 2317,
      "ax": 2318,
      "ocyt": 2319,
      "Ġdensity": 2320,
      "Ġyoung": 2321,
      "year": 2322,
      "Ġindividual": 2323,
      "Ġpregnancy": 2324,
      "Ġembry": 2325,
      "cept": 2326,
      "rolog": 2327,
      "Ġcharacteristics": 2328,
      "Ġside": 2329,
      "Ġthrom": 2330,
      "Ġtryp": 2331,
      "Ġsolution": 2332,
      "Ġrequired": 2333,
      "Ġareas": 2334,
      "Ġoxid": 2335,
      "coh": 2336,
      "Ġap": 2337,
      "ergy": 2338,
      "Ġpreparations": 2339,
      "Ġfemale": 2340,
      "erox": 2341,
      "Ġtw": 2342,
      "adi": 2343,
      "Ġauthors": 2344,
      "inea": 2345,
      "Ġappear": 2346,
      "Ġbased": 2347,
      "Ġhospital": 2348,
      "lab": 2349,
      "ĠCh": 2350,
      "tase": 2351,
      "tex": 2352,
      "omal": 2353,
      "Ġneut": 2354,
      "Ġfractions": 2355,
      "ĠCon": 2356,
      "emic": 2357,
      "Ġsubsequ": 2358,
      "Ġcertain": 2359,
      "Ġcytoplas": 2360,
      "Ġaverage": 2361,
      "Ġseg": 2362,
      "Ġuseful": 2363,
      "Ġsera": 2364,
      "Ġprobably": 2365,
      "Ġincreasing": 2366,
      "Ġcolon": 2367,
      "tus": 2368,
      "Ġright": 2369,
      "Ġhalf": 2370,
      "Ġduration": 2371,
      "Ġpropor": 2372,
      "Ġtranspl": 2373,
      "Ġaffected": 2374,
      "Ġcapacity": 2375,
      "Ġml": 2376,
      "ĠmM": 2377,
      "Ġfatty": 2378,
      "Ġcompounds": 2379,
      "Ġrelation": 2380,
      "ronch": 2381,
      "Ġdehydro": 2382,
      "Ġexhib": 2383,
      "lasts": 2384,
      "Ġderiv": 2385,
      "yst": 2386,
      "Ġda": 2387,
      "Ġbre": 2388,
      "round": 2389,
      "ophil": 2390,
      "Ġher": 2391,
      "Ġability": 2392,
      "20": 2393,
      "rence": 2394,
      "Ġdiseases": 2395,
      "Ġadministered": 2396,
      "osome": 2397,
      "tation": 2398,
      "roup": 2399,
      "Ġmamm": 2400,
      "urs": 2401,
      "Ġinjur": 2402,
      "Ġanaly": 2403,
      "ye": 2404,
      "Ġprov": 2405,
      "Ġlipid": 2406,
      "fficient": 2407,
      "Ġexpres": 2408,
      "Ġdetermine": 2409,
      "gland": 2410,
      "Ġrespiratory": 2411,
      "Ġexperi": 2412,
      "verse": 2413,
      "Ġsple": 2414,
      "Ġmultiple": 2415,
      "Ġsecre": 2416,
      "ĠWith": 2417,
      "Ġfetal": 2418,
      "Ġpatterns": 2419,
      "ength": 2420,
      "Ġsmo": 2421,
      "ĠIgG": 2422,
      "Ġincluding": 2423,
      "Ġrese": 2424,
      "Ġprosta": 2425,
      "Ġtransfer": 2426,
      "Ġretin": 2427,
      "Ġvas": 2428,
      "lobin": 2429,
      "Ġclose": 2430,
      "%.": 2431,
      "Ġutil": 2432,
      "Ġinfected": 2433,
      "Ġactivation": 2434,
      "Ġnerv": 2435,
      "Ġcerebral": 2436,
      "put": 2437,
      "Ġear": 2438,
      "Ch": 2439,
      "Ġultras": 2440,
      "beta": 2441,
      "erence": 2442,
      "100": 2443,
      "Ġessen": 2444,
      "Ġcompara": 2445,
      "hydroxy": 2446,
      "Ġwall": 2447,
      "Ġwhere": 2448,
      "Ġbile": 2449,
      "Ġhepatic": 2450,
      "Ġstage": 2451,
      "ylase": 2452,
      "Ġallow": 2453,
      "Ġhighly": 2454,
      "Ġdeath": 2455,
      "Ġparameters": 2456,
      "Ġconsistent": 2457,
      "Ġmalignant": 2458,
      "ef": 2459,
      "ner": 2460,
      "Ġfunctional": 2461,
      "glut": 2462,
      "tate": 2463,
      "Ġlar": 2464,
      "Ġprof": 2465,
      "eth": 2466,
      "Ġbound": 2467,
      "Ġinfants": 2468,
      "Ġsecondary": 2469,
      "Ġdiagnostic": 2470,
      "Ġshe": 2471,
      "Ġthyroid": 2472,
      "Ġspontaneous": 2473,
      "Ġdiss": 2474,
      "ĠSe": 2475,
      "Ġpreparation": 2476,
      "Ġstrong": 2477,
      "Ġdam": 2478,
      "aring": 2479,
      "Ġmethyl": 2480,
      "Ġdetermination": 2481,
      "specific": 2482,
      "Ġach": 2483,
      "ogn": 2484,
      "Ġsuggests": 2485,
      "Ġvisual": 2486,
      "loride": 2487,
      "Ġlay": 2488,
      "Ġmagn": 2489,
      "man": 2490,
      "pair": 2491,
      "Ġrelatively": 2492,
      "Ġguinea": 2493,
      "Ġcross": 2494,
      "Ġmedical": 2495,
      "orrh": 2496,
      "Ġabsorption": 2497,
      "Ġstandard": 2498,
      "Ġlit": 2499,
      "Ġrisk": 2500,
      "inity": 2501,
      "Ġalthough": 2502,
      "Ġalcoh": 2503,
      "gluc": 2504,
      "amma": 2505,
      "Ġalone": 2506,
      "Ġcellular": 2507,
      "ĠEx": 2508,
      "pected": 2509,
      "lyc": 2510,
      "posed": 2511,
      "Ġcontained": 2512,
      "utaneous": 2513,
      "otor": 2514,
      "Ġalk": 2515,
      "ists": 2516,
      "tral": 2517,
      ".,": 2518,
      "ĠThus": 2519,
      "ĠLH": 2520,
      "ritis": 2521,
      "Ġkine": 2522,
      "Ġreceptors": 2523,
      "Ġestablished": 2524,
      "15": 2525,
      "Ġeth": 2526,
      "Ġlact": 2527,
      "Ġalte": 2528,
      "rated": 2529,
      "ulating": 2530,
      "Ġlife": 2531,
      "Ġmicroscopy": 2532,
      "ased": 2533,
      "Ġpancre": 2534,
      "Ġsch": 2535,
      "Ġhel": 2536,
      "Ġmechanisms": 2537,
      "day": 2538,
      "pep": 2539,
      "Ġbiop": 2540,
      "Ġhypertension": 2541,
      "Ġoften": 2542,
      "Ġwould": 2543,
      "ogene": 2544,
      "Ġcombination": 2545,
      "Ġed": 2546,
      "ĠBoth": 2547,
      "hest": 2548,
      "Ġspleen": 2549,
      "ortality": 2550,
      "Ġair": 2551,
      "ayed": 2552,
      "till": 2553,
      "itamin": 2554,
      "illin": 2555,
      "Ġobservations": 2556,
      "Ġgastric": 2557,
      "ger": 2558,
      "Ġinten": 2559,
      "Ġhypothe": 2560,
      "Ġcomplement": 2561,
      "Ġminim": 2562,
      "iety": 2563,
      "Ġfix": 2564,
      "Ġlater": 2565,
      "atase": 2566,
      "seud": 2567,
      "Ġ21": 2568,
      "Ġneuro": 2569,
      "Ġdouble": 2570,
      "Ġchemical": 2571,
      "Ġnoted": 2572,
      "Ġcorrelated": 2573,
      "bumin": 2574,
      "phyl": 2575,
      "Ġinform": 2576,
      "esthe": 2577,
      "Ġchem": 2578,
      "ĠAMP": 2579,
      "Ġcomplications": 2580,
      "Ġlabora": 2581,
      "Ġlys": 2582,
      "Ġpaper": 2583,
      "Ġinhibitory": 2584,
      "ovine": 2585,
      "Ġcomponent": 2586,
      "Ġrepe": 2587,
      "ications": 2588,
      "Ġextent": 2589,
      "Ġgood": 2590,
      "ella": 2591,
      "lied": 2592,
      "Ġcharacterized": 2593,
      "ational": 2594,
      "Ġphot": 2595,
      "oro": 2596,
      "Ġstatis": 2597,
      "glutin": 2598,
      "ĠAlthough": 2599,
      "free": 2600,
      "Ġlitera": 2601,
      "lan": 2602,
      "omes": 2603,
      "otrop": 2604,
      "tam": 2605,
      "Ġpain": 2606,
      "Ġbronch": 2607,
      "erate": 2608,
      "ĠIII": 2609,
      "itone": 2610,
      "ologically": 2611,
      "Ġmeasurements": 2612,
      "way": 2613,
      "Ġtend": 2614,
      "Ġreduc": 2615,
      "ĠCl": 2616,
      "Ġstructures": 2617,
      "Ġsubstrate": 2618,
      "Ġincubation": 2619,
      "br": 2620,
      "thal": 2621,
      "phas": 2622,
      "ĠNe": 2623,
      "Ġliterature": 2624,
      "resh": 2625,
      "henyl": 2626,
      "illary": 2627,
      "Ġevaluated": 2628,
      "Ġconsidera": 2629,
      "trum": 2630,
      "Ġachie": 2631,
      "Ġamounts": 2632,
      "Ġintact": 2633,
      "agement": 2634,
      "Ġneurons": 2635,
      "Ġmaximum": 2636,
      "erated": 2637,
      "Ġinfections": 2638,
      "Ġfield": 2639,
      "ĠNA": 2640,
      "mediate": 2641,
      "lets": 2642,
      "Ġdehydrogenase": 2643,
      "Ġirradi": 2644,
      "erum": 2645,
      "Ġrecom": 2646,
      "Ġmyel": 2647,
      "osin": 2648,
      "rior": 2649,
      "anine": 2650,
      "ĠFor": 2651,
      "Ġrecur": 2652,
      "test": 2653,
      "Ġfew": 2654,
      "des": 2655,
      "ticul": 2656,
      "Ġanalog": 2657,
      "Ġadvan": 2658,
      "Ġyear": 2659,
      "Ġproblems": 2660,
      "Ġver": 2661,
      "Ġadj": 2662,
      "Ġtransi": 2663,
      "Ġprop": 2664,
      "Ġlike": 2665,
      "Ġbacteria": 2666,
      "Ġblock": 2667,
      "Ġapplication": 2668,
      "Ġavail": 2669,
      "Ġadrenal": 2670,
      "Ġphosphor": 2671,
      "Ġrise": 2672,
      "Ġexerc": 2673,
      "Ġwhole": 2674,
      "orded": 2675,
      "atives": 2676,
      "Ġagg": 2677,
      "Ġacco": 2678,
      "Ġprocedures": 2679,
      "Ġthromb": 2680,
      "ynthe": 2681,
      "ned": 2682,
      "used": 2683,
      "uv": 2684,
      "omycin": 2685,
      "ening": 2686,
      "Ġphosphate": 2687,
      "overy": 2688,
      "Effect": 2689,
      "Ġpor": 2690,
      "Ġoste": 2691,
      "ryl": 2692,
      "lagen": 2693,
      "Ġmortality": 2694,
      "Ġmust": 2695,
      "Ġmu": 2696,
      "omatic": 2697,
      "Ġrather": 2698,
      "Ġdaily": 2699,
      "Ġchol": 2700,
      "Ġdistin": 2701,
      "ectomy": 2702,
      "enc": 2703,
      "Ġlength": 2704,
      "Ġinhibitor": 2705,
      "CG": 2706,
      "Ġrabbits": 2707,
      "Ġbase": 2708,
      "Ġtri": 2709,
      "very": 2710,
      "ales": 2711,
      "tured": 2712,
      "ichia": 2713,
      "TH": 2714,
      "Ġelectrophoresis": 2715,
      "atin": 2716,
      "Ġmusc": 2717,
      "Ġtur": 2718,
      "Ġsto": 2719,
      "Ġpyr": 2720,
      "estion": 2721,
      "ĠAd": 2722,
      "Ġabove": 2723,
      "Ġformed": 2724,
      "Ġsince": 2725,
      "lamm": 2726,
      "Ġbasal": 2727,
      "Ġhetero": 2728,
      "turb": 2729,
      "Ġpotenti": 2730,
      "Ġelevated": 2731,
      "gal": 2732,
      "Ġsupport": 2733,
      "cardi": 2734,
      "Ġposition": 2735,
      "ĠRes": 2736,
      "Ġdependent": 2737,
      "antation": 2738,
      "Ġmetabolic": 2739,
      "pecially": 2740,
      "herichia": 2741,
      "go": 2742,
      "armac": 2743,
      "Ġplac": 2744,
      "Ġhealthy": 2745,
      "ultaneous": 2746,
      "Ġdeficiency": 2747,
      "enter": 2748,
      "Ġexp": 2749,
      "Ġchick": 2750,
      "ĠRe": 2751,
      "Ġcomposition": 2752,
      "viron": 2753,
      "oglobin": 2754,
      "ying": 2755,
      "Ġtherapeutic": 2756,
      "arch": 2757,
      "Ġleukemia": 2758,
      "omat": 2759,
      "Ġ22": 2760,
      "ark": 2761,
      "cl": 2762,
      "dex": 2763,
      "Ġmass": 2764,
      "olol": 2765,
      "Ġtrial": 2766,
      "Ġextrac": 2767,
      "ging": 2768,
      "most": 2769,
      "Ġthus": 2770,
      "Ġvessel": 2771,
      "utes": 2772,
      "ticular": 2773,
      "Ġcoun": 2774,
      "Ġcurrent": 2775,
      "scherichia": 2776,
      "Ġnecessary": 2777,
      "flu": 2778,
      "Ġhypoth": 2779,
      "Ġreceived": 2780,
      "Ġinformation": 2781,
      "%,": 2782,
      "duce": 2783,
      "neum": 2784,
      "Ġdetec": 2785,
      "Ġdesign": 2786,
      "lysis": 2787,
      "Ġlin": 2788,
      "Ġvesic": 2789,
      "tized": 2790,
      "Ġthird": 2791,
      "Ġbloc": 2792,
      "Ġbovine": 2793,
      "plas": 2794,
      "Ġcombined": 2795,
      "Ġprior": 2796,
      "Ġhr": 2797,
      "Ġassociation": 2798,
      "Ġhydrox": 2799,
      "ways": 2800,
      "olution": 2801,
      "Ġlatter": 2802,
      "Ġviral": 2803,
      "Ġmanagement": 2804,
      "Ġimportance": 2805,
      "Ġenergy": 2806,
      "Ġmarrow": 2807,
      "Ġanterior": 2808,
      "Ġprolong": 2809,
      "acchar": 2810,
      "zyme": 2811,
      "ĠTwo": 2812,
      "Ġremained": 2813,
      "trial": 2814,
      "Ġseven": 2815,
      "itude": 2816,
      "tag": 2817,
      "Ġatt": 2818,
      "Ġimp": 2819,
      "Ġinvestigation": 2820,
      "ages": 2821,
      "Ġtract": 2822,
      "Ġsour": 2823,
      "uct": 2824,
      "Ġparticles": 2825,
      "Ġprepared": 2826,
      "Ġsitu": 2827,
      "Ġrecorded": 2828,
      "Ġstimulated": 2829,
      "Ġcorresponding": 2830,
      "Ġespecially": 2831,
      "Ġfas": 2832,
      "mal": 2833,
      "Ġmid": 2834,
      "ĠThey": 2835,
      "Ġapplied": 2836,
      "Ġderived": 2837,
      "Ġrecogn": 2838,
      "ired": 2839,
      "mission": 2840,
      "amb": 2841,
      "Ġgreat": 2842,
      "utri": 2843,
      "Ġcontinuous": 2844,
      "cine": 2845,
      "Ġconcer": 2846,
      "Ġacetyl": 2847,
      "Ġintestinal": 2848,
      "Ġprostagland": 2849,
      "ĠAm": 2850,
      "Ġcycle": 2851,
      "Ġexplain": 2852,
      "ĠEscherichia": 2853,
      "ĠOne": 2854,
      "Ġnuclei": 2855,
      "Ġdev": 2856,
      "Ġsigns": 2857,
      "rection": 2858,
      "Ġmonke": 2859,
      "Ġpredic": 2860,
      "Ġke": 2861,
      "Ġlaboratory": 2862,
      "Ġcortex": 2863,
      "Ġnitro": 2864,
      "Ġpreven": 2865,
      "Ġtaken": 2866,
      "entation": 2867,
      "Ġapproach": 2868,
      "iatric": 2869,
      "aemia": 2870,
      "Ġimmunog": 2871,
      "Ġinfar": 2872,
      "Ġinduction": 2873,
      "ulph": 2874,
      "Ġconn": 2875,
      "Ġmanif": 2876,
      "type": 2877,
      "ffer": 2878,
      "Ġexercise": 2879,
      "Ġfamily": 2880,
      "Ġstre": 2881,
      "Ġcontroll": 2882,
      "Ġcate": 2883,
      "ime": 2884,
      "Ġpersis": 2885,
      "imens": 2886,
      "Ġprolif": 2887,
      "anth": 2888,
      "Ġseems": 2889,
      "af": 2890,
      "Ġmight": 2891,
      "Ġenviron": 2892,
      "Ġnuclear": 2893,
      "Ġlittle": 2894,
      "Ġdiv": 2895,
      "Ġnor": 2896,
      "Ġgon": 2897,
      "Ġusually": 2898,
      "Ġtoward": 2899,
      "transf": 2900,
      "ram": 2901,
      "Ġconver": 2902,
      "Ġrare": 2903,
      "Ġanimal": 2904,
      "Ġsequence": 2905,
      "Ġren": 2906,
      "Ġwhether": 2907,
      "Ġagent": 2908,
      "Ġproduce": 2909,
      "Ġther": 2910,
      "Ġaspec": 2911,
      "Ġkin": 2912,
      "ituitary": 2913,
      "Ġnucleo": 2914,
      "ocal": 2915,
      "order": 2916,
      "adder": 2917,
      "Ġregions": 2918,
      "Ġaccording": 2919,
      "Ġpartial": 2920,
      "-(": 2921,
      "bl": 2922,
      "Ġinjected": 2923,
      "30": 2924,
      "Ġdim": 2925,
      "Ġlesion": 2926,
      "fficiency": 2927,
      "Ġincorporation": 2928,
      "Ġchlo": 2929,
      "Ġprogram": 2930,
      "Ġtherefore": 2931,
      "Ġsubun": 2932,
      "Ġrequire": 2933,
      "bly": 2934,
      "enty": 2935,
      "irth": 2936,
      "Ġphospholip": 2937,
      "Ġmes": 2938,
      "diol": 2939,
      "Ġcann": 2940,
      "Ġemplo": 2941,
      "Ġnorm": 2942,
      "ylation": 2943,
      "Ġstages": 2944,
      "orders": 2945,
      "Ġinactiv": 2946,
      "the": 2947,
      "Ġnm": 2948,
      "ĠDuring": 2949,
      "Ġprocesses": 2950,
      "Ġequal": 2951,
      "LA": 2952,
      "tention": 2953,
      "Ġparal": 2954,
      "Ġold": 2955,
      "rit": 2956,
      "Ġfer": 2957,
      "Ġdispl": 2958,
      "Ġserv": 2959,
      "Ġsynthes": 2960,
      "activity": 2961,
      "Ġindependent": 2962,
      "Ġtole": 2963,
      "Ġspecial": 2964,
      "Ġstress": 2965,
      "Ġanalys": 2966,
      "tox": 2967,
      "Ġproducts": 2968,
      "Ġcharacteristic": 2969,
      "ils": 2970,
      "cal": 2971,
      "Ġdil": 2972,
      "ĠFurther": 2973,
      "Ġaffinity": 2974,
      "ili": 2975,
      "Ġdisturb": 2976,
      "Ġcollagen": 2977,
      "Ġrecovery": 2978,
      "Ġoccurs": 2979,
      "Ġappearance": 2980,
      "Ġsubsequent": 2981,
      "Ġelimin": 2982,
      "11": 2983,
      "ok": 2984,
      "Ġstero": 2985,
      "ternal": 2986,
      "Ġaccumulation": 2987,
      "05": 2988,
      "Ġspinal": 2989,
      "cepti": 2990,
      "mental": 2991,
      "Ġnucleus": 2992,
      "dom": 2993,
      "ust": 2994,
      "Ġsperm": 2995,
      "aps": 2996,
      "Ġidentical": 2997,
      "Ġ'": 2998,
      "omic": 2999,
      "DH": 3000,
      "ulatory": 3001,
      "Ġconduc": 3002,
      "Ġconfirmed": 3003,
      "den": 3004,
      "teen": 3005,
      "Ġview": 3006,
      "Ġalmost": 3007,
      "Ġqual": 3008,
      "Ġsuccessful": 3009,
      "ibri": 3010,
      "Ġcommun": 3011,
      "crip": 3012,
      "atis": 3013,
      "Ġcomplexes": 3014,
      "Ġhepat": 3015,
      "Ġsignificance": 3016,
      "Ġcompletely": 3017,
      "Ġgenetic": 3018,
      "inic": 3019,
      "anning": 3020,
      "Ġcolum": 3021,
      "Ġmacro": 3022,
      "Ġmitochondria": 3023,
      "Ġdon": 3024,
      "ĠPG": 3025,
      "Ġcytotox": 3026,
      "Ġtrain": 3027,
      "Ġhead": 3028,
      "hanced": 3029,
      "Ġprovide": 3030,
      "Ġoff": 3031,
      "atus": 3032,
      "Ġmonit": 3033,
      "ams": 3034,
      "ĠOf": 3035,
      "Ġ37": 3036,
      "Ġweek": 3037,
      "Ġexposed": 3038,
      "equ": 3039,
      "tice": 3040,
      "Ġrecent": 3041,
      "Ġmelan": 3042,
      "change": 3043,
      "Ġoptim": 3044,
      "Ġperiods": 3045,
      "idal": 3046,
      "Ġadded": 3047,
      "Ġsw": 3048,
      "Ġcriter": 3049,
      "Ġfibers": 3050,
      "ominant": 3051,
      "40": 3052,
      "Ġdetection": 3053,
      "Ġmutants": 3054,
      "Ġmarkedly": 3055,
      "Ġabnormalities": 3056,
      "Ġdamage": 3057,
      "ompan": 3058,
      "Ġerythrocytes": 3059,
      "Ġavailable": 3060,
      "omized": 3061,
      "Ġaccura": 3062,
      "Ġgradi": 3063,
      "Ġprogn": 3064,
      "ometric": 3065,
      "Ġfood": 3066,
      "pine": 3067,
      "Ġcauses": 3068,
      "Ġpostoperative": 3069,
      "ected": 3070,
      "lected": 3071,
      "ximal": 3072,
      "Ġimproved": 3073,
      "Ġindex": 3074,
      "ylate": 3075,
      "Ġgranul": 3076,
      "Ġrepresent": 3077,
      "Ġvitamin": 3078,
      "Ġquantitative": 3079,
      "produc": 3080,
      "Ġmainly": 3081,
      "arcoma": 3082,
      "Ġsimultaneous": 3083,
      "Ġdisorders": 3084,
      "rec": 3085,
      "Ġgamma": 3086,
      "reast": 3087,
      "Ġinterpre": 3088,
      "osyl": 3089,
      "Ġnat": 3090,
      "Ġrespond": 3091,
      "Ġexperiment": 3092,
      "Ġalkal": 3093,
      "tage": 3094,
      "Ġjo": 3095,
      "bic": 3096,
      "Ġ23": 3097,
      "Ġtumour": 3098,
      "Ġangi": 3099,
      "chem": 3100,
      "Ġeight": 3101,
      "angl": 3102,
      "Ġconj": 3103,
      "Ġresponsible": 3104,
      "Ġhypothesis": 3105,
      "Ġbu": 3106,
      "Ġparticularly": 3107,
      "Ġcerv": 3108,
      "Ġalbumin": 3109,
      "tence": 3110,
      "oden": 3111,
      "assay": 3112,
      "Ġgastro": 3113,
      "Ġmeasurement": 3114,
      "sium": 3115,
      "Ġ80": 3116,
      "Ġbiological": 3117,
      "Ġonset": 3118,
      "lection": 3119,
      "Ġlateral": 3120,
      "otas": 3121,
      "Ġbirth": 3122,
      "oside": 3123,
      "Ġstill": 3124,
      "Ġlines": 3125,
      "Ġdiffer": 3126,
      "ĠBy": 3127,
      "Ġaccompan": 3128,
      "onate": 3129,
      "oral": 3130,
      "Ġdiffic": 3131,
      "lycer": 3132,
      "Ġenhanced": 3133,
      "Ġbetter": 3134,
      "yed": 3135,
      "Ġband": 3136,
      "choline": 3137,
      "uoden": 3138,
      "elled": 3139,
      "Ġmicrogram": 3140,
      "Ġ28": 3141,
      "Ġincluded": 3142,
      "carb": 3143,
      "phrine": 3144,
      "Ġsuggesting": 3145,
      "Ġfibrob": 3146,
      "Ġadditional": 3147,
      "otassium": 3148,
      "Ġmug": 3149,
      "trogen": 3150,
      "Ġfrequently": 3151,
      "read": 3152,
      "Ġstab": 3153,
      "Ġproposed": 3154,
      "Ġasc": 3155,
      "Ġtrig": 3156,
      "Ġbiochemical": 3157,
      "Ġdistinct": 3158,
      "irus": 3159,
      "Ġperfusion": 3160,
      "termin": 3161,
      "Ġminutes": 3162,
      "atid": 3163,
      "Ġcord": 3164,
      "Ġreviewed": 3165,
      "Ġshows": 3166,
      "Ġintracellular": 3167,
      "emb": 3168,
      "Ġ48": 3169,
      "Ġindicating": 3170,
      "ycin": 3171,
      "Ġpneum": 3172,
      "01": 3173,
      "ula": 3174,
      "osed": 3175,
      "Ġsero": 3176,
      "Ġpancreatic": 3177,
      "Ġbreast": 3178,
      "Ġbacterial": 3179,
      "Ġ35": 3180,
      "Ġlig": 3181,
      "Ġaggreg": 3182,
      "Ġproved": 3183,
      "Ġphenomen": 3184,
      "Ġalcohol": 3185,
      "less": 3186,
      "olytic": 3187,
      "Ġcre": 3188,
      "Ġrestric": 3189,
      "Ġperformance": 3190,
      "Ġpituitary": 3191,
      "Ġyield": 3192,
      "Ġfed": 3193,
      "athe": 3194,
      "Ġnature": 3195,
      "otyp": 3196,
      "Ġenti": 3197,
      "genital": 3198,
      "Ġprolonged": 3199,
      "Ġradiation": 3200,
      "Ġrapidly": 3201,
      "Ġinflamm": 3202,
      "Ġsystemic": 3203,
      "Ġessential": 3204,
      "bo": 3205,
      "Ġlymphocyte": 3206,
      "Ġtetra": 3207,
      "urg": 3208,
      "Ġchromosome": 3209,
      "Ġunits": 3210,
      "Ġspl": 3211,
      "Ġstructural": 3212,
      "eti": 3213,
      "tudi": 3214,
      "tributed": 3215,
      "Ġinfarction": 3216,
      "Ġreticul": 3217,
      "17": 3218,
      "ending": 3219,
      "tructural": 3220,
      "Ġ90": 3221,
      "Ġparen": 3222,
      "Ġoes": 3223,
      "Ġphysical": 3224,
      "umption": 3225,
      "Ġimprovement": 3226,
      "thyroid": 3227,
      "BA": 3228,
      "lasma": 3229,
      "Ġmuscles": 3230,
      "stim": 3231,
      "jection": 3232,
      "Ġhaving": 3233,
      "ocytic": 3234,
      "Ġfluorescence": 3235,
      "Ġproportion": 3236,
      "Ġslightly": 3237,
      "Ġexperience": 3238,
      "ĠQ": 3239,
      "ĠPro": 3240,
      "Ġpossibility": 3241,
      "actin": 3242,
      "Ġhepatitis": 3243,
      "Ġtrac": 3244,
      "Ġsel": 3245,
      "phages": 3246,
      "tagon": 3247,
      "Ġpoor": 3248,
      "quid": 3249,
      "Ġresidues": 3250,
      "ocial": 3251,
      "utions": 3252,
      "Ġthough": 3253,
      "Ġvia": 3254,
      "ensitive": 3255,
      "tatic": 3256,
      "Ġlipoprotein": 3257,
      "ochrome": 3258,
      "Ġpharmac": 3259,
      "AMP": 3260,
      "Ġmig": 3261,
      "Ġdecreas": 3262,
      "Ġpolypep": 3263,
      "Ġsuscepti": 3264,
      "Ġcontraction": 3265,
      "Ġrespect": 3266,
      "Ġprogressive": 3267,
      "Ġinternal": 3268,
      "Ġcatal": 3269,
      "oscop": 3270,
      "lastic": 3271,
      "Ġgangl": 3272,
      "Ġ45": 3273,
      "Ġspecificity": 3274,
      "Ġinjury": 3275,
      "Ġvag": 3276,
      "opamine": 3277,
      "Ġmil": 3278,
      "Ġng": 3279,
      "Ġdefin": 3280,
      "ema": 3281,
      "Ġiron": 3282,
      "transferase": 3283,
      "Ġuter": 3284,
      "Ġpercentage": 3285,
      "Ġestimated": 3286,
      "Ġneph": 3287,
      "Ġmaximal": 3288,
      "Ġmodified": 3289,
      "uals": 3290,
      "iting": 3291,
      "Ġanalyzed": 3292,
      "tudies": 3293,
      "osynthe": 3294,
      "Ġasp": 3295,
      "Ġoutput": 3296,
      "mend": 3297,
      "Ġdefec": 3298,
      "18": 3299,
      "ĠHe": 3300,
      "tingu": 3301,
      "Ġmales": 3302,
      "Ġinvolvement": 3303,
      "Ġsulfate": 3304,
      "namic": 3305,
      "Ġconven": 3306,
      "Ġprost": 3307,
      "terase": 3308,
      "Ġaspects": 3309,
      "ray": 3310,
      "Ġfibrin": 3311,
      "Ġalterations": 3312,
      "Ġplus": 3313,
      "ĠUn": 3314,
      "Ġmedia": 3315,
      "renergic": 3316,
      "Ġcathe": 3317,
      "Ġphysiological": 3318,
      "Ġheat": 3319,
      "Ġspecimens": 3320,
      "Ġachieved": 3321,
      "Ġhost": 3322,
      "Ġattem": 3323,
      "ropri": 3324,
      "Ġbel": 3325,
      "Ġrand": 3326,
      "Ġ26": 3327,
      "ps": 3328,
      "Ġresulting": 3329,
      "Ġresistant": 3330,
      "arin": 3331,
      "Ġlac": 3332,
      "Ġepithelium": 3333,
      "oked": 3334,
      "Ġcys": 3335,
      "Ġaortic": 3336,
      "Ġske": 3337,
      "Ġinoc": 3338,
      "tradiol": 3339,
      "We": 3340,
      "gg": 3341,
      "sol": 3342,
      "aryn": 3343,
      "ĠPh": 3344,
      "ĠMg": 3345,
      "Ġhistamine": 3346,
      "CO": 3347,
      "na": 3348,
      "amino": 3349,
      "Ġextracts": 3350,
      "ince": 3351,
      "Ġischem": 3352,
      "Ġbehavi": 3353,
      "RH": 3354,
      "icial": 3355,
      "Ġneoplas": 3356,
      "Ex": 3357,
      "Ġmutant": 3358,
      "oassay": 3359,
      "Ġmolecules": 3360,
      "Ġaffect": 3361,
      "raw": 3362,
      "acryl": 3363,
      "Ġmaintained": 3364,
      "Ġproduct": 3365,
      "Ġintens": 3366,
      "Ġpotassium": 3367,
      "Ġnewb": 3368,
      "Ġpopulations": 3369,
      "Ġvessels": 3370,
      "Ġer": 3371,
      "Ġsinus": 3372,
      "Ġremoval": 3373,
      "Ġneutral": 3374,
      "sing": 3375,
      "luores": 3376,
      "Ġinterv": 3377,
      "Ġdist": 3378,
      "Ġsample": 3379,
      "lyce": 3380,
      "Ġregard": 3381,
      "Ġhypothal": 3382,
      "Ġmother": 3383,
      "Ġcho": 3384,
      "Ġ32": 3385,
      "Ġderivatives": 3386,
      "bil": 3387,
      "Ġsurve": 3388,
      "acement": 3389,
      "Ġpartially": 3390,
      "Ġmedi": 3391,
      "Ġphosphatase": 3392,
      "Ġdemonstrate": 3393,
      "Ġfall": 3394,
      "Ġbiopsy": 3395,
      "rif": 3396,
      "Ġwide": 3397,
      "acy": 3398,
      "Ġtoge": 3399,
      "Ġhybr": 3400,
      "Ġtogether": 3401,
      "Ġantagon": 3402,
      "anding": 3403,
      "Ġexis": 3404,
      "Ġfailed": 3405,
      "aptic": 3406,
      "Ġscre": 3407,
      "genic": 3408,
      "Ġterms": 3409,
      "Ġdirectly": 3410,
      "Ġcalculated": 3411,
      "Ġpub": 3412,
      "Ġeye": 3413,
      "phy": 3414,
      "Ġcontrolled": 3415,
      "Ġchloride": 3416,
      "Ġindividuals": 3417,
      "opathy": 3418,
      "sp": 3419,
      "acetyl": 3420,
      "itoneal": 3421,
      "Ġmacrophages": 3422,
      "Ġbro": 3423,
      "omple": 3424,
      "Ġvaccin": 3425,
      "Ġdepression": 3426,
      "Ġindicates": 3427,
      "mitted": 3428,
      "Ġovar": 3429,
      "upp": 3430,
      "tamin": 3431,
      "Ġvenous": 3432,
      "Ġstable": 3433,
      "Ġmitochondrial": 3434,
      "enced": 3435,
      "Ġsuppor": 3436,
      "rotid": 3437,
      "Ġnutri": 3438,
      "Ġleads": 3439,
      "Ġce": 3440,
      "atients": 3441,
      "Ġfemales": 3442,
      "ided": 3443,
      "Ġhistory": 3444,
      "arily": 3445,
      "cyc": 3446,
      "Ġlabeled": 3447,
      "16": 3448,
      "Ġrevers": 3449,
      "Ġemphas": 3450,
      "incip": 3451,
      "ints": 3452,
      "Ġta": 3453,
      "Ġepithelial": 3454,
      "Ġfragments": 3455,
      "EA": 3456,
      "Ġty": 3457,
      "Ġten": 3458,
      "idity": 3459,
      "Ġenh": 3460,
      "Ġcytoplasmic": 3461,
      "PA": 3462,
      "generation": 3463,
      "Ġrecommend": 3464,
      "13": 3465,
      "ĠZ": 3466,
      "This": 3467,
      "Ġfrac": 3468,
      "rup": 3469,
      "Ġextre": 3470,
      "ker": 3471,
      "Ġcortic": 3472,
      "benz": 3473,
      "Ġretro": 3474,
      "Ġdifferential": 3475,
      "Ġprecip": 3476,
      "Ġproblem": 3477,
      "Ġselected": 3478,
      "Ġvaria": 3479,
      "lin": 3480,
      "Ġmetast": 3481,
      "phe": 3482,
      "Ġposterior": 3483,
      "ogram": 3484,
      "rological": 3485,
      "Ġrenin": 3486,
      "gene": 3487,
      "Ġglycop": 3488,
      "Ġdifferentiation": 3489,
      "Ġble": 3490,
      ".)": 3491,
      "Ġplatelet": 3492,
      "Ġantibiotic": 3493,
      "uch": 3494,
      "Ġhemo": 3495,
      "Ġhypox": 3496,
      "Ġirradiation": 3497,
      "cephal": 3498,
      "Ġshif": 3499,
      "matic": 3500,
      "Ġ70": 3501,
      "Ġsusp": 3502,
      "Ġstaining": 3503,
      "ulate": 3504,
      "Ġ196": 3505,
      "urine": 3506,
      "lase": 3507,
      "toph": 3508,
      "Ġexcess": 3509,
      "Ġgave": 3510,
      "Ġvary": 3511,
      "Ġtraum": 3512,
      "dominal": 3513,
      "Ġdimin": 3514,
      "Ġbac": 3515,
      "Ġexternal": 3516,
      "Ġinhibitors": 3517,
      "Ġmas": 3518,
      "Ġsmooth": 3519,
      "ĠY": 3520,
      "Ġhams": 3521,
      "Ġdiame": 3522,
      "Ġcultured": 3523,
      "Ġlinear": 3524,
      "Ġcriteria": 3525,
      "Ġethanol": 3526,
      "ropriate": 3527,
      "ĠSome": 3528,
      "more": 3529,
      "sorption": 3530,
      "gesterone": 3531,
      "odynamic": 3532,
      "Ġlonger": 3533,
      "hesia": 3534,
      "Ġexhibited": 3535,
      "Ġprincip": 3536,
      "overed": 3537,
      "Ġnervous": 3538,
      "Ġlayer": 3539,
      "Ġprovided": 3540,
      "Ġdiabetes": 3541,
      "tile": 3542,
      "ising": 3543,
      "Ġpoint": 3544,
      "Ġintervals": 3545,
      "letal": 3546,
      "Ġprostaglandin": 3547,
      "bacter": 3548,
      "oring": 3549,
      "aden": 3550,
      "paration": 3551,
      "ss": 3552,
      "Ġmotor": 3553,
      "Ġglomer": 3554,
      "ophage": 3555,
      "Ġkinase": 3556,
      "pose": 3557,
      "Ġsed": 3558,
      "erally": 3559,
      "ranial": 3560,
      "tors": 3561,
      "Ġmoderate": 3562,
      "Ġmanifest": 3563,
      "DL": 3564,
      "oz": 3565,
      "Ġdied": 3566,
      "Ġsheep": 3567,
      "Ġti": 3568,
      "Ġ27": 3569,
      "Ġglands": 3570,
      "esthesia": 3571,
      "kers": 3572,
      "ervation": 3573,
      "pecific": 3574,
      "Ġseparate": 3575,
      "iol": 3576,
      "mmun": 3577,
      "Ġperox": 3578,
      "leep": 3579,
      "Ġadenosine": 3580,
      "Ġpigs": 3581,
      "Con": 3582,
      "Ġfav": 3583,
      "Ġaltered": 3584,
      "Ġretur": 3585,
      "lier": 3586,
      "Ġunit": 3587,
      "Ġendogenous": 3588,
      "Ġlimited": 3589,
      "Ġthyro": 3590,
      "ĠAC": 3591,
      "Ġadults": 3592,
      "001": 3593,
      "Ġdefect": 3594,
      "renaline": 3595,
      "Ġvariation": 3596,
      "Ġlarger": 3597,
      "yg": 3598,
      "oglyc": 3599,
      "pper": 3600,
      "Ġanother": 3601,
      "tail": 3602,
      "Ġstatus": 3603,
      "Ġobservation": 3604,
      "Ġampl": 3605,
      "iae": 3606,
      "related": 3607,
      "Ġdegrad": 3608,
      "Ġnine": 3609,
      "eric": 3610,
      "otype": 3611,
      "Ġmaternal": 3612,
      "aw": 3613,
      "tility": 3614,
      "ii": 3615,
      "thritis": 3616,
      "agon": 3617,
      "treatment": 3618,
      "oun": 3619,
      "Ġbran": 3620,
      "itable": 3621,
      "Ġvalve": 3622,
      "Ġrepeated": 3623,
      "ik": 3624,
      "vis": 3625,
      "ices": 3626,
      "formed": 3627,
      "Ġexten": 3628,
      "Ġsubc": 3629,
      "nit": 3630,
      "iform": 3631,
      "Ġbladder": 3632,
      "Ġdelayed": 3633,
      "Ġmixed": 3634,
      "group": 3635,
      "Ġhighest": 3636,
      "Ġbal": 3637,
      "thm": 3638,
      "Ġpool": 3639,
      "Ġcomparable": 3640,
      "ool": 3641,
      "ored": 3642,
      "Ġsens": 3643,
      "Ġiso": 3644,
      "Ġextensive": 3645,
      "Ġaccompanied": 3646,
      "Ġpal": 3647,
      "Ġperme": 3648,
      "ĠMe": 3649,
      "Ġcirculation": 3650,
      "ocytosis": 3651,
      "Ġreas": 3652,
      "Ġconstitu": 3653,
      "Ġmetabolites": 3654,
      "Ġinjections": 3655,
      "Ġstatistically": 3656,
      "encies": 3657,
      "Ġglu": 3658,
      "perim": 3659,
      "CA": 3660,
      "Ġduoden": 3661,
      "ings": 3662,
      "sec": 3663,
      "Ġantic": 3664,
      "asal": 3665,
      "organ": 3666,
      "Ġparalle": 3667,
      "ilic": 3668,
      "Ġadequ": 3669,
      "Se": 3670,
      "ystal": 3671,
      "Ġobjec": 3672,
      "Ġprecurs": 3673,
      "EG": 3674,
      "Ġdisapp": 3675,
      "ĠComp": 3676,
      "roscop": 3677,
      "ivalent": 3678,
      "Ġvesicles": 3679,
      "iration": 3680,
      "Ġrecons": 3681,
      "Ġsolutions": 3682,
      "Ġsmaller": 3683,
      "Effects": 3684,
      "Ġinduc": 3685,
      "Ġpair": 3686,
      "Ġseparated": 3687,
      "Ġsynthesized": 3688,
      "acrylamide": 3689,
      "Ġaltern": 3690,
      "Ġ36": 3691,
      "atisfac": 3692,
      "Ġintensity": 3693,
      "Ġlabel": 3694,
      "III": 3695,
      "Ġfiltration": 3696,
      "Ġreceiving": 3697,
      "asis": 3698,
      "ĠSince": 3699,
      "Ġrecip": 3700,
      "Ġvariety": 3701,
      "Ġassessment": 3702,
      "Ġpersons": 3703,
      "Ġcop": 3704,
      "Ġdeli": 3705,
      "Ġcoup": 3706,
      "Ġfunctions": 3707,
      "Ġcarbon": 3708,
      "mediated": 3709,
      "Ġtoxic": 3710,
      "Ġearlier": 3711,
      "testinal": 3712,
      "ohyd": 3713,
      "Ġreflex": 3714,
      "Ġmeasures": 3715,
      "uvate": 3716,
      "Ġnumbers": 3717,
      "Ġselective": 3718,
      "Ġresearch": 3719,
      "Ġcontact": 3720,
      "otomy": 3721,
      "Ġadap": 3722,
      "Ġintrac": 3723,
      "tiz": 3724,
      "atura": 3725,
      "ococcus": 3726,
      "Ġsource": 3727,
      "heum": 3728,
      "ror": 3729,
      "Ġexchange": 3730,
      "Ġinsu": 3731,
      "Ġgenerally": 3732,
      "Ġimmunoglobulin": 3733,
      "Ġbo": 3734,
      "oli": 3735,
      "Ġcongenital": 3736,
      "ode": 3737,
      "Ġreference": 3738,
      "Ġclearance": 3739,
      "Ġkinetics": 3740,
      "Ġmilk": 3741,
      "Ġstom": 3742,
      "Ġtesting": 3743,
      "othel": 3744,
      "Ġhemorrh": 3745,
      "ofluores": 3746,
      "ulose": 3747,
      "Ġproximal": 3748,
      "Ġassessed": 3749,
      "Ġplacebo": 3750,
      "Ġgradient": 3751,
      "Ġmild": 3752,
      "ĠAc": 3753,
      "Ġstar": 3754,
      "Ġclinically": 3755,
      "Ġupper": 3756,
      "%).": 3757,
      "ilateral": 3758,
      "Ġcolumn": 3759,
      "ient": 3760,
      "reatment": 3761,
      "Ġocclusion": 3762,
      "po": 3763,
      "meth": 3764,
      "Ġcontrac": 3765,
      "Ġpathway": 3766,
      "Ġtraining": 3767,
      "Ġane": 3768,
      "Ġbehaviour": 3769,
      "unc": 3770,
      "Ġremoved": 3771,
      "nic": 3772,
      "Ġable": 3773,
      "Ġwhose": 3774,
      "ception": 3775,
      "Ġprevent": 3776,
      "oxin": 3777,
      "Ġcytochrome": 3778,
      "sacchar": 3779,
      "Ġderm": 3780,
      "ranolol": 3781,
      "Ġwhom": 3782,
      "Ġintestine": 3783,
      "Ġlikely": 3784,
      "eness": 3785,
      "rest": 3786,
      "Ġneon": 3787,
      "Ġdiabetic": 3788,
      "dim": 3789,
      "rim": 3790,
      "lying": 3791,
      "Ġfrequent": 3792,
      "Ġmicroscopic": 3793,
      "hyde": 3794,
      "Comp": 3795,
      "Two": 3796,
      "tensin": 3797,
      "Ġuns": 3798,
      "ĠLe": 3799,
      "pite": 3800,
      "lux": 3801,
      "Ġye": 3802,
      "Ġmajority": 3803,
      "Ġsubstances": 3804,
      "Ġapparently": 3805,
      "TA": 3806,
      "mented": 3807,
      "dehyde": 3808,
      "Ġregulation": 3809,
      "Ġdistal": 3810,
      "Ġset": 3811,
      "illus": 3812,
      "grams": 3813,
      "Ġbecame": 3814,
      "Ġprognosis": 3815,
      "Ġhemat": 3816,
      "Ġradioimmun": 3817,
      "Ġskeletal": 3818,
      "ident": 3819,
      "Ġexpected": 3820,
      "tub": 3821,
      "Ġdistingu": 3822,
      "Ġuntil": 3823,
      "clerosis": 3824,
      "Ġarteries": 3825,
      "Ġincubated": 3826,
      "fts": 3827,
      "ese": 3828,
      "Ġdefined": 3829,
      "Ġinvestigations": 3830,
      "oelec": 3831,
      "Ġbasic": 3832,
      "Ġoxidation": 3833,
      "Ġpic": 3834,
      "ugation": 3835,
      "Ġhistological": 3836,
      "ĠCO": 3837,
      "Ġsoluble": 3838,
      "Ġprolactin": 3839,
      "Ġegg": 3840,
      "ĠFrom": 3841,
      "Ġconclusion": 3842,
      "Ġrandom": 3843,
      "SF": 3844,
      "Ġsleep": 3845,
      "Ġfollic": 3846,
      "Ġequil": 3847,
      "Ġstimulus": 3848,
      "Ġsuperior": 3849,
      "reshold": 3850,
      "Ġsten": 3851,
      "Ġweak": 3852,
      "ophy": 3853,
      "entricular": 3854,
      "Ġaccount": 3855,
      "tum": 3856,
      "Ġdegradation": 3857,
      "opa": 3858,
      "Ġleuc": 3859,
      "Ġfacil": 3860,
      "spective": 3861,
      "Ġdelta": 3862,
      "197": 3863,
      "Ġintake": 3864,
      "ĠThree": 3865,
      "Ġgonad": 3866,
      "rected": 3867,
      "Ġpseud": 3868,
      "illed": 3869,
      "Ġrout": 3870,
      "Ġthroughout": 3871,
      "Ġpractice": 3872,
      "pathe": 3873,
      "cele": 3874,
      "Ġoverall": 3875,
      "Ġantibiotics": 3876,
      "itrate": 3877,
      "oses": 3878,
      "Ġcannot": 3879,
      "Ġconventional": 3880,
      "Ġanat": 3881,
      "ives": 3882,
      "Ġoccurrence": 3883,
      "Ġextracellular": 3884,
      "Ġmucosa": 3885,
      "Ġshor": 3886,
      "anted": 3887,
      "mentation": 3888,
      "Ġvaried": 3889,
      "Ġfibres": 3890,
      "olysis": 3891,
      "Ġdial": 3892,
      "opro": 3893,
      "paired": 3894,
      "ĠSim": 3895,
      "Ġdepos": 3896,
      "Ġsequences": 3897,
      "Ġtrypsin": 3898,
      "labeled": 3899,
      "bound": 3900,
      "fusion": 3901,
      "hal": 3902,
      "Ġ29": 3903,
      "ape": 3904,
      "iminary": 3905,
      "ĠOnly": 3906,
      "Ġvein": 3907,
      "Ġexpression": 3908,
      "otropic": 3909,
      "ibrium": 3910,
      "Ġfibroblasts": 3911,
      "mature": 3912,
      "ights": 3913,
      "Ġtuberc": 3914,
      "Ġroutine": 3915,
      "Re": 3916,
      "Ġwhite": 3917,
      "Ġconsiderable": 3918,
      "Ġpotentials": 3919,
      "Ġpap": 3920,
      "Ġdetectable": 3921,
      "Ġsocial": 3922,
      "own": 3923,
      "Ġphag": 3924,
      "Ġolig": 3925,
      "Ġtolerance": 3926,
      "Ġglycoprotein": 3927,
      "Pro": 3928,
      "Ġplasm": 3929,
      "Ġstrongly": 3930,
      "Ġturn": 3931,
      "plasia": 3932,
      "Ġthin": 3933,
      "Ġdiameter": 3934,
      "tetra": 3935,
      "ologous": 3936,
      "Ġcoe": 3937,
      "Ġtypical": 3938,
      "Ġminor": 3939,
      "urys": 3940,
      "Ġmolecule": 3941,
      "ze": 3942,
      "rous": 3943,
      "ionine": 3944,
      "iotensin": 3945,
      "function": 3946,
      "Ġeti": 3947,
      "ĠTo": 3948,
      "Ġ33": 3949,
      "Ġstren": 3950,
      "ociated": 3951,
      "Ġextraction": 3952,
      "Ġnatural": 3953,
      "osynthesis": 3954,
      "Ġdip": 3955,
      "Ġphysici": 3956,
      "Ġbodies": 3957,
      "Ġload": 3958,
      "Ġnewborn": 3959,
      "allen": 3960,
      "Ġmorphological": 3961,
      "Ġtarge": 3962,
      "uria": 3963,
      "Ġtumours": 3964,
      "Ġoccurring": 3965,
      "Ġappropriate": 3966,
      "Ġdoc": 3967,
      "asion": 3968,
      "Ġfo": 3969,
      "Ġrepair": 3970,
      "Ġopen": 3971,
      "Ġhormones": 3972,
      "containing": 3973,
      "Ġclosely": 3974,
      "Ġlocated": 3975,
      "ophys": 3976,
      "Ġcarbohyd": 3977,
      "Ġpron": 3978,
      "opic": 3979,
      "Ġspace": 3980,
      "Ġnear": 3981,
      "Ġliquid": 3982,
      "Ġpolymerase": 3983,
      "Ġcatheter": 3984,
      "Ġlack": 3985,
      "tran": 3986,
      "Ġtransformation": 3987,
      "Ġrheum": 3988,
      "Ġaged": 3989,
      "Ġquestion": 3990,
      "Ġtestosterone": 3991,
      "ibility": 3992,
      "Ġalong": 3993,
      "Ġalkaline": 3994,
      "nel": 3995,
      "Ġfar": 3996,
      "Ġexcept": 3997,
      "Ġsup": 3998,
      "range": 3999,
      "Ġconsumption": 4000,
      "Ġpathological": 4001,
      "Ġbr": 4002,
      "Ġcomputer": 4003,
      "trophy": 4004,
      "lytic": 4005,
      "ceed": 4006,
      "ophosph": 4007,
      "Ġhelp": 4008,
      "24": 4009,
      "Ġatrial": 4010,
      "Ġsections": 4011,
      "iveness": 4012,
      "Ġcervical": 4013,
      "Ġpredominant": 4014,
      "Ġvaccine": 4015,
      "Ġdopamine": 4016,
      "ators": 4017,
      "Ġconsequ": 4018,
      "Ġabdominal": 4019,
      "Ġpeptide": 4020,
      "Ġtit": 4021,
      "opera": 4022,
      "ĠEn": 4023,
      "Ġcortical": 4024,
      "Ġglucagon": 4025,
      "Ġintro": 4026,
      "Ġviruses": 4027,
      "Ġvel": 4028,
      "teb": 4029,
      "omon": 4030,
      "Ġavoid": 4031,
      "Ġtoxicity": 4032,
      "Ġmonkeys": 4033,
      "Ġproliferation": 4034,
      "Ġdental": 4035,
      "tiveness": 4036,
      "Ġself": 4037,
      "iaz": 4038,
      "Ġelectrical": 4039,
      "atidyl": 4040,
      "HA": 4041,
      "SA": 4042,
      "intestinal": 4043,
      "Ġshock": 4044,
      "lect": 4045,
      "erous": 4046,
      "Ġillness": 4047,
      "rich": 4048,
      "Ġeas": 4049,
      "Ġhex": 4050,
      "Ġundergo": 4051,
      "azole": 4052,
      "Ġfamil": 4053,
      "Ġben": 4054,
      "Ġbelow": 4055,
      "ĠIgM": 4056,
      "Ġcurves": 4057,
      "azine": 4058,
      "Ġhomogen": 4059,
      "Ġventil": 4060,
      ");": 4061,
      "ats": 4062,
      "Ġfact": 4063,
      "Ġsulph": 4064,
      "Ġpas": 4065,
      "Ġvariable": 4066,
      "Ġacetate": 4067,
      "Ġpass": 4068,
      "ĠmRNA": 4069,
      "elling": 4070,
      "Ġintermediate": 4071,
      "ĠResults": 4072,
      "ched": 4073,
      "para": 4074,
      "Ġpref": 4075,
      "Ġ75": 4076,
      "Ġstimuli": 4077,
      "aces": 4078,
      "Ġminimal": 4079,
      "Ġbar": 4080,
      "umed": 4081,
      "positive": 4082,
      "Ġions": 4083,
      "Ġnons": 4084,
      "rans": 4085,
      "Ġwound": 4086,
      "Ġbenz": 4087,
      "uture": 4088,
      "Ġrhy": 4089,
      "Ġidentification": 4090,
      "Ġemployed": 4091,
      "EM": 4092,
      "gi": 4093,
      "lus": 4094,
      "uron": 4095,
      "ocus": 4096,
      "Ġsubstitu": 4097,
      "uli": 4098,
      "hyp": 4099,
      "rog": 4100,
      "arcin": 4101,
      "Ġinterf": 4102,
      "Ġsuppression": 4103,
      "Ġorganisms": 4104,
      "Ġcontains": 4105,
      "esthetized": 4106,
      "ipp": 4107,
      "toc": 4108,
      "arded": 4109,
      "Ġthick": 4110,
      "Ġcapable": 4111,
      "ociation": 4112,
      "Ġsupple": 4113,
      "vascular": 4114,
      "tib": 4115,
      "Ġway": 4116,
      "Ġbind": 4117,
      "Ġrad": 4118,
      "Ġchallen": 4119,
      "ĠPre": 4120,
      "ectomized": 4121,
      "cription": 4122,
      "ĠPR": 4123,
      "lobul": 4124,
      "Ġterminal": 4125,
      "Ġbur": 4126,
      "Ġ200": 4127,
      "ophag": 4128,
      "Ġreleased": 4129,
      "Ġasym": 4130,
      "Ġerythrocyte": 4131,
      "orac": 4132,
      "Ġimmunofluores": 4133,
      "Ġinvolving": 4134,
      "enicillin": 4135,
      "60": 4136,
      "aem": 4137,
      "sh": 4138,
      "Ġ.": 4139,
      "Ġbest": 4140,
      "uscular": 4141,
      "Ġothers": 4142,
      "Ġgenes": 4143,
      "changed": 4144,
      "Ġchains": 4145,
      "SV": 4146,
      "Ġbra": 4147,
      "def": 4148,
      "Ġobstruction": 4149,
      "Ġcats": 4150,
      "Ġinteractions": 4151,
      "Ġeduc": 4152,
      "Ġret": 4153,
      "aturation": 4154,
      "Ġlast": 4155,
      "Ġestablish": 4156,
      "Ġterm": 4157,
      "loid": 4158,
      "ometry": 4159,
      "oxide": 4160,
      "Ġinterval": 4161,
      "Ġlocalization": 4162,
      "Ġplatelets": 4163,
      "Ġhybrid": 4164,
      "dle": 4165,
      "Ġindirect": 4166,
      "Ġyeast": 4167,
      "Ġsatisfac": 4168,
      "Ġchemotherapy": 4169,
      "Ġet": 4170,
      "Ġenzymatic": 4171,
      "Ġ125": 4172,
      "Ġsedim": 4173,
      "Ġgest": 4174,
      "actic": 4175,
      "Ġrecording": 4176,
      "ĠWh": 4177,
      "Ġestrogen": 4178,
      "Ġmeasuring": 4179,
      "Ġsubject": 4180,
      "OH": 4181,
      "Ġduct": 4182,
      "Ġresto": 4183,
      "Ġhydrolysis": 4184,
      "Ġprovides": 4185,
      "Ġtransplantation": 4186,
      "Ġcatechol": 4187,
      "Ac": 4188,
      "Ġrest": 4189,
      "Ġheav": 4190,
      "Ġnet": 4191,
      "Ġimmunity": 4192,
      "Ġorgans": 4193,
      "Ġschiz": 4194,
      "Ġcm": 4195,
      "pic": 4196,
      "idi": 4197,
      "ograms": 4198,
      "Ġnitrogen": 4199,
      "tophan": 4200,
      "alanine": 4201,
      "Ġreproduc": 4202,
      "Ġtransmission": 4203,
      "Ġplay": 4204,
      "Ġfeeding": 4205,
      "Ġveloc": 4206,
      "Ġgo": 4207,
      "trin": 4208,
      "Ġstomach": 4209,
      "Ġdone": 4210,
      "Ġfore": 4211,
      "ching": 4212,
      "Ġerror": 4213,
      "inated": 4214,
      "istic": 4215,
      "Ġelic": 4216,
      "erent": 4217,
      "Ġdex": 4218,
      "Ġspe": 4219,
      "Ġadhe": 4220,
      "iasis": 4221,
      "Ġsteroid": 4222,
      "yes": 4223,
      "Ġreached": 4224,
      "ovirus": 4225,
      "DNA": 4226,
      "bal": 4227,
      "Ġpotent": 4228,
      "Ġuni": 4229,
      "Ġsubstance": 4230,
      "Ġaneurys": 4231,
      "Ġtension": 4232,
      "rotic": 4233,
      "Ġbene": 4234,
      "acin": 4235,
      "Ġdetail": 4236,
      "erating": 4237,
      "Ġhypertensive": 4238,
      "Ġcrystal": 4239,
      "Ġphenomenon": 4240,
      "Ġiod": 4241,
      "Ġouter": 4242,
      "Ġled": 4243,
      "Ġsaline": 4244,
      "Ġsecretory": 4245,
      "ophren": 4246,
      "Ġbecome": 4247,
      "Ġvariations": 4248,
      "Ġmammary": 4249,
      "afe": 4250,
      "Ġentire": 4251,
      "Ġdecreases": 4252,
      "Ġfetus": 4253,
      "Ġcurve": 4254,
      "%),": 4255,
      "57": 4256,
      "Ġuntreated": 4257,
      "Ġpossess": 4258,
      "Ġbleeding": 4259,
      "ios": 4260,
      "Ġtas": 4261,
      "Ġthreshold": 4262,
      "Ġinterfer": 4263,
      "Ġrever": 4264,
      "Ġnow": 4265,
      "rief": 4266,
      "Ġactivated": 4267,
      "Ġremaining": 4268,
      "Ġnorad": 4269,
      "Ġlipids": 4270,
      "Ġju": 4271,
      "mediately": 4272,
      "Ġnode": 4273,
      "pass": 4274,
      "Ġou": 4275,
      "itory": 4276,
      "ecu": 4277,
      "ropath": 4278,
      "Ġprogesterone": 4279,
      "pathetic": 4280,
      "crimin": 4281,
      "tidine": 4282,
      "Ġinfluenz": 4283,
      "EC": 4284,
      "wh": 4285,
      "ollow": 4286,
      "sera": 4287,
      "tages": 4288,
      "ĠInc": 4289,
      "ĠHLA": 4290,
      "Ġsynthetic": 4291,
      "Ġpreval": 4292,
      "aine": 4293,
      "sensitive": 4294,
      "Ġreports": 4295,
      "Ġmodification": 4296,
      "Ġjoint": 4297,
      "Ġvarying": 4298,
      "Ġstrength": 4299,
      "effec": 4300,
      "Ġrelax": 4301,
      "ĠOur": 4302,
      "Ġenhance": 4303,
      "Ġpel": 4304,
      "Ġcortis": 4305,
      "Ġpancreas": 4306,
      "Ġscreening": 4307,
      "Ġunchanged": 4308,
      "erobic": 4309,
      "Ġremains": 4310,
      "Ġbilateral": 4311,
      "Ġkidneys": 4312,
      "Ġmixture": 4313,
      "Ġthymus": 4314,
      "izes": 4315,
      "Ġrecovered": 4316,
      "ĠIgA": 4317,
      "Ġparallel": 4318,
      "NP": 4319,
      "mol": 4320,
      "hea": 4321,
      "chlo": 4322,
      "Ġscanning": 4323,
      "ĠFurthermore": 4324,
      "Studies": 4325,
      "ctive": 4326,
      "ovascular": 4327,
      "ulmonary": 4328,
      "ope": 4329,
      "Ġevoked": 4330,
      "hanges": 4331,
      "Ġstenosis": 4332,
      "phen": 4333,
      "tious": 4334,
      "tryp": 4335,
      "Ġparticip": 4336,
      "Ġlactate": 4337,
      "Ġgall": 4338,
      "Ġmening": 4339,
      "Ġzinc": 4340,
      "Ġdelivery": 4341,
      "Ġprom": 4342,
      "ĠIf": 4343,
      "Ġcoag": 4344,
      "Ġdepressed": 4345,
      "Ġgraft": 4346,
      "Ġsalt": 4347,
      "Ġdietary": 4348,
      "pyr": 4349,
      "letion": 4350,
      "orated": 4351,
      "Ġsuspension": 4352,
      "nat": 4353,
      "Ġsqu": 4354,
      "chym": 4355,
      "Ġeffic": 4356,
      "Ġopp": 4357,
      "Ġwild": 4358,
      "trate": 4359,
      "Ġseparation": 4360,
      "Ġpathogenesis": 4361,
      "obarb": 4362,
      "Ġsurvey": 4363,
      "dents": 4364,
      "Ġregular": 4365,
      "Ġdisappe": 4366,
      "Ġequilibrium": 4367,
      "merc": 4368,
      "vements": 4369,
      "Ġinduce": 4370,
      "Ġinactivation": 4371,
      "Ġile": 4372,
      "Ġradioactivity": 4373,
      "-,": 4374,
      "com": 4375,
      "Ġenco": 4376,
      "Ġextract": 4377,
      "Ġcaps": 4378,
      "Ġinclude": 4379,
      "Ġclearly": 4380,
      "Ġdosage": 4381,
      "Ġmorphology": 4382,
      "Ġratios": 4383,
      "Ġsubstrates": 4384,
      "Ġadequate": 4385,
      "Ġbenign": 4386,
      "Co": 4387,
      "isation": 4388,
      "Ġimmunological": 4389,
      "Ġseverity": 4390,
      "BC": 4391,
      "Ph": 4392,
      "Ġ31": 4393,
      "Ġisolation": 4394,
      "Ġradioimmunoassay": 4395,
      "ilep": 4396,
      "ensitivity": 4397,
      "Ġportion": 4398,
      "Ġattac": 4399,
      "binding": 4400,
      "encephal": 4401,
      "Ġinfer": 4402,
      "tenance": 4403,
      "Ġcollected": 4404,
      "Ġpla": 4405,
      "Ġreactivity": 4406,
      "Ġcyclo": 4407,
      "Ġfixation": 4408,
      "Ġpropranolol": 4409,
      "Ġrecommended": 4410,
      "Ġsafe": 4411,
      "ĠSt": 4412,
      "Ġneck": 4413,
      "otoxin": 4414,
      "HT": 4415,
      "ire": 4416,
      "Ġelu": 4417,
      "Ġalways": 4418,
      "Ġinflammatory": 4419,
      "Ġpow": 4420,
      "Ġanomal": 4421,
      "Ġmetal": 4422,
      "Ġsubjected": 4423,
      "oretic": 4424,
      "Ġtriglycer": 4425,
      "cor": 4426,
      "ryp": 4427,
      "ĠIV": 4428,
      "Ġchromosomes": 4429,
      "Ġretinal": 4430,
      "Ġinst": 4431,
      "Ġeffectiveness": 4432,
      "Ġgranules": 4433,
      "Ġsubunits": 4434,
      "+/-": 4435,
      "hood": 4436,
      "Ġdors": 4437,
      "Ġmental": 4438,
      "ledge": 4439,
      "Ġmediated": 4440,
      "Ġsac": 4441,
      "alin": 4442,
      "Ġhyd": 4443,
      "Ġgeneration": 4444,
      "Ġantigenic": 4445,
      "Ġparent": 4446,
      "Ġdependence": 4447,
      "Ġ34": 4448,
      "ĠEEG": 4449,
      "rhy": 4450,
      "Ġconversion": 4451,
      "ĠACTH": 4452,
      "Ġsum": 4453,
      "Ġhor": 4454,
      "Ġsuppress": 4455,
      "Ġcytotoxic": 4456,
      "by": 4457,
      "Ġaround": 4458,
      "ellar": 4459,
      "Ġatten": 4460,
      "Ġcav": 4461,
      "rophy": 4462,
      "Ġstorage": 4463,
      "Ġexplained": 4464,
      "Ġenvironment": 4465,
      "rifugation": 4466,
      "Ġtrauma": 4467,
      "Ġschizophren": 4468,
      "Ġnative": 4469,
      "Ġsem": 4470,
      "ignific": 4471,
      "ĠMore": 4472,
      "Ġfeed": 4473,
      "Ġbreak": 4474,
      "pes": 4475,
      "Ġbrief": 4476,
      "veolar": 4477,
      "phase": 4478,
      "Ġimmediately": 4479,
      "Ġspectrum": 4480,
      "Ġjunction": 4481,
      "Ġhemoglobin": 4482,
      "ynamic": 4483,
      "lip": 4484,
      "wenty": 4485,
      "Ġche": 4486,
      "Ġunus": 4487,
      "aged": 4488,
      "Ġsaliv": 4489,
      "vent": 4490,
      "Ġresection": 4491,
      "ĠDe": 4492,
      "Ġoxidase": 4493,
      "Ġcleav": 4494,
      "Ġchromatin": 4495,
      "Ġcytoplasm": 4496,
      "Ġquality": 4497,
      "Ġbenef": 4498,
      "Ġcirculating": 4499,
      "Ġconsiderably": 4500,
      "Ġprevented": 4501,
      "osal": 4502,
      "Ġnum": 4503,
      "Ġgive": 4504,
      "Ġconcerning": 4505,
      "self": 4506,
      "Ġreplacement": 4507,
      "Ġsegment": 4508,
      "Ġtransient": 4509,
      "Ġaccurate": 4510,
      "Ġtubercul": 4511,
      "22": 4512,
      "bles": 4513,
      "ars": 4514,
      "cyt": 4515,
      "Ġprimarily": 4516,
      "+-": 4517,
      "De": 4518,
      "nucle": 4519,
      "itol": 4520,
      "Ġcompeti": 4521,
      "Ġcarotid": 4522,
      "Ġhere": 4523,
      "Ġspecif": 4524,
      "Ġconsecu": 4525,
      "Ġcataly": 4526,
      "ounced": 4527,
      "tron": 4528,
      "position": 4529,
      "Ġpneumon": 4530,
      "Ġtarget": 4531,
      "yc": 4532,
      "Ġbiosynthesis": 4533,
      "Ġdefects": 4534,
      "Ġamplitude": 4535,
      "Ġmovement": 4536,
      "LC": 4537,
      "ina": 4538,
      "35": 4539,
      "80": 4540,
      "ert": 4541,
      "rane": 4542,
      "Ġdiscrimin": 4543,
      "but": 4544,
      "Ġent": 4545,
      "Ġfull": 4546,
      "Ġentero": 4547,
      "Ġarthritis": 4548,
      "Ġoperative": 4549,
      "Ġgrad": 4550,
      "Ġmicrosomal": 4551,
      "Ġzone": 4552,
      "Ġurea": 4553,
      "oprote": 4554,
      "omonas": 4555,
      "Ġcorne": 4556,
      "Ġclear": 4557,
      "Ġpersonal": 4558,
      "Ġaor": 4559,
      "Ġpy": 4560,
      "icine": 4561,
      "Ġsuitable": 4562,
      "Ġisolates": 4563,
      "Ġmiddle": 4564,
      "Ġfixed": 4565,
      "Ġstrept": 4566,
      "Ġreticulum": 4567,
      "Ġunderst": 4568,
      "ĠtRNA": 4569,
      "Ġhum": 4570,
      "Ġhour": 4571,
      "resist": 4572,
      "Ġmechanical": 4573,
      "glutination": 4574,
      "Ġrecurrent": 4575,
      "ATP": 4576,
      "Ġpent": 4577,
      "ayer": 4578,
      "Ġagree": 4579,
      "Ġcyclase": 4580,
      "Ġreplication": 4581,
      "Ġconfirm": 4582,
      "Ġpermeability": 4583,
      "ady": 4584,
      "Ġendothel": 4585,
      "Ġmonitoring": 4586,
      "cul": 4587,
      "iologic": 4588,
      "Ġlas": 4589,
      "Ġcontamin": 4590,
      "Ġactin": 4591,
      "tual": 4592,
      "Ġsucrose": 4593,
      "Ġconclude": 4594,
      "Ġtom": 4595,
      "Ġposi": 4596,
      "Ġphosphatidyl": 4597,
      "Ġmorphine": 4598,
      "Ġpronounced": 4599,
      "NS": 4600,
      "enzyme": 4601,
      "Ġstep": 4602,
      "Ġelevation": 4603,
      "Ġmagnitude": 4604,
      "75": 4605,
      "Ġbab": 4606,
      "odes": 4607,
      "Ġinfant": 4608,
      "Ġparasi": 4609,
      "Ġconnec": 4610,
      "ches": 4611,
      "oic": 4612,
      "atoid": 4613,
      "ilities": 4614,
      "Ġ42": 4615,
      "Ġimplications": 4616,
      "yt": 4617,
      "ential": 4618,
      "ionic": 4619,
      "Ġrh": 4620,
      "Ġgrown": 4621,
      "Ġknowledge": 4622,
      "Ġpossibly": 4623,
      "Ġcorrespond": 4624,
      "Ġexpressed": 4625,
      "Ġpolypeptide": 4626,
      "Me": 4627,
      "PS": 4628,
      "ventricular": 4629,
      "Ġow": 4630,
      "Ġclos": 4631,
      "Ġdeveloping": 4632,
      "Ġnodes": 4633,
      "ĠFe": 4634,
      "Ġsarcoma": 4635,
      "Ġtop": 4636,
      "teral": 4637,
      "Ġhypo": 4638,
      "Ġabol": 4639,
      "oplasmic": 4640,
      "Ġmaintenance": 4641,
      "Ġremission": 4642,
      "Ġlocalized": 4643,
      "Ġuterine": 4644,
      "Ġsk": 4645,
      "trol": 4646,
      "Ġinfil": 4647,
      "Ġchanged": 4648,
      "Ġmake": 4649,
      "Ġepis": 4650,
      "Ġinsufficiency": 4651,
      "Al": 4652,
      "su": 4653,
      "Ġfa": 4654,
      "amus": 4655,
      "Ġevaluate": 4656,
      "kes": 4657,
      "Ġevery": 4658,
      "odec": 4659,
      "Ġtreat": 4660,
      "Ġglycogen": 4661,
      "Ġultrastructural": 4662,
      "Ġconducted": 4663,
      "Ġmigration": 4664,
      "Ġnerves": 4665,
      "hex": 4666,
      "ophageal": 4667,
      "lobulins": 4668,
      "serum": 4669,
      "Ġlens": 4670,
      "Ġraised": 4671,
      "ĠUni": 4672,
      "virus": 4673,
      "Ġcarbohydrate": 4674,
      "23": 4675,
      "inally": 4676,
      "Ġmol": 4677,
      "ĠCom": 4678,
      "Ġdiagnosed": 4679,
      "orbed": 4680,
      "Ġblocked": 4681,
      "ĠcAMP": 4682,
      "raz": 4683,
      "ylic": 4684,
      "alled": 4685,
      "epam": 4686,
      "Ġpolyacrylamide": 4687,
      "Ġorganism": 4688,
      "Ġheparin": 4689,
      "Ġdisturbances": 4690,
      "Ġmetastases": 4691,
      "Ġ000": 4692,
      "olone": 4693,
      "lecular": 4694,
      "Ġregional": 4695,
      "Ġnucleotide": 4696,
      "Ġefficacy": 4697,
      "Ġconsecutive": 4698,
      "Ġauthor": 4699,
      "teric": 4700,
      "Ġaccele": 4701,
      "Ġepilep": 4702,
      "ken": 4703,
      "ltra": 4704,
      "dial": 4705,
      "ĠBac": 4706,
      "romy": 4707,
      "ĠSal": 4708,
      "Ġelements": 4709,
      "onuclease": 4710,
      "arr": 4711,
      "Ġstability": 4712,
      "Ġextreme": 4713,
      "Ġantisera": 4714,
      "inergic": 4715,
      "Ġech": 4716,
      "unted": 4717,
      "Ġimpaired": 4718,
      "Ġdiffusion": 4719,
      "ĠRec": 4720,
      "Ġpeptides": 4721,
      "ann": 4722,
      "irty": 4723,
      "ĠAnal": 4724,
      "Ġsuffer": 4725,
      "uted": 4726,
      "ude": 4727,
      "ics": 4728,
      "Ġparts": 4729,
      "ancies": 4730,
      "ginine": 4731,
      "know": 4732,
      "aris": 4733,
      "Ġasth": 4734,
      "ĠSch": 4735,
      "Ġpsychiatric": 4736,
      "Ġdifficult": 4737,
      "Ġbelie": 4738,
      "rogen": 4739,
      "Ġnearly": 4740,
      "mag": 4741,
      "itud": 4742,
      "ulus": 4743,
      "ession": 4744,
      "ĠSc": 4745,
      "kinase": 4746,
      "Ġpregnant": 4747,
      "Ġneonatal": 4748,
      "Ġphenyl": 4749,
      "Ġvelocity": 4750,
      "come": 4751,
      "vious": 4752,
      "itant": 4753,
      "Ġimpair": 4754,
      "ĠFour": 4755,
      "Ġnecrosis": 4756,
      "Ġconsisted": 4757,
      "Ġnormally": 4758,
      "Ġconcept": 4759,
      "otroph": 4760,
      "ips": 4761,
      "amines": 4762,
      "adex": 4763,
      "aturated": 4764,
      "Ġnoradrenaline": 4765,
      "Ġpene": 4766,
      "Ġexogenous": 4767,
      "Ġphage": 4768,
      "ĠMy": 4769,
      "rix": 4770,
      "Ġinjuries": 4771,
      "opo": 4772,
      "Ġalter": 4773,
      "rosine": 4774,
      "Ġpurification": 4775,
      "Ġmitral": 4776,
      "Ġventricle": 4777,
      "Ġrelationships": 4778,
      "Ġepiderm": 4779,
      "Ġkinetic": 4780,
      "Ġadvanced": 4781,
      "Ġconjug": 4782,
      "Ġfacilit": 4783,
      "Ġrheumatoid": 4784,
      "ignificant": 4785,
      "etic": 4786,
      "Ġconformation": 4787,
      "ocular": 4788,
      "Ġexam": 4789,
      "ione": 4790,
      "ĠPA": 4791,
      "Ġclinic": 4792,
      "apse": 4793,
      "negative": 4794,
      "Ġlymphoma": 4795,
      "Ġammon": 4796,
      "Ġexaminations": 4797,
      "Ġdivided": 4798,
      "Ġger": 4799,
      "Ġgain": 4800,
      "ĠPatients": 4801,
      "Ġinfluenced": 4802,
      "ococcal": 4803,
      "Ġnucleotides": 4804,
      "Ġimmediate": 4805,
      "Ġexcre": 4806,
      "Ġgastrointestinal": 4807,
      "iology": 4808,
      "oyl": 4809,
      "alian": 4810,
      "phadex": 4811,
      "ocation": 4812,
      "Ġshowing": 4813,
      "Ġspermat": 4814,
      "Ġcortisol": 4815,
      "fib": 4816,
      "ories": 4817,
      "ostic": 4818,
      "Ġnic": 4819,
      "ĠTSH": 4820,
      "Ġbegin": 4821,
      "Ġdisorder": 4822,
      "Ġpressures": 4823,
      "Ġoperations": 4824,
      "adily": 4825,
      "amycin": 4826,
      "Ġsegments": 4827,
      "Ġdiminished": 4828,
      "+,": 4829,
      "Ġnar": 4830,
      "tructive": 4831,
      "tructure": 4832,
      "Ġunderw": 4833,
      "Ġsynthetase": 4834,
      "Ġmum": 4835,
      "Ġfresh": 4836,
      "ĠMost": 4837,
      "Ġsympathetic": 4838,
      "Ġoptimal": 4839,
      "ophosphate": 4840,
      "wor": 4841,
      "alc": 4842,
      "poral": 4843,
      "glucose": 4844,
      "Ġprecipit": 4845,
      "21": 4846,
      "Ġfung": 4847,
      "ometh": 4848,
      "ogens": 4849,
      "infected": 4850,
      "arp": 4851,
      "Ġdegeneration": 4852,
      "Ġspectra": 4853,
      "Ġdirection": 4854,
      "ĠUsing": 4855,
      "Ġpulse": 4856,
      "Ġadenylate": 4857,
      "Ġtube": 4858,
      "wise": 4859,
      "Ġreag": 4860,
      "sies": 4861,
      "queous": 4862,
      "Ġsimultaneously": 4863,
      "Ġdodec": 4864,
      "Ġmurine": 4865,
      "Ġeyes": 4866,
      "Ġvers": 4867,
      "ocrine": 4868,
      "Ġglyce": 4869,
      "Ġangiotensin": 4870,
      "Ġvariables": 4871,
      "Ġhamster": 4872,
      "Ġinterferon": 4873,
      "throm": 4874,
      "Ġald": 4875,
      "Ġevolution": 4876,
      "Ġweights": 4877,
      "aching": 4878,
      "Ġlymphoid": 4879,
      "Ġdesigned": 4880,
      "Ġefficiency": 4881,
      "Ġstem": 4882,
      "ĠSimilar": 4883,
      "resistant": 4884,
      "receptor": 4885,
      "ĠGroup": 4886,
      "astom": 4887,
      "Ġcharacterization": 4888,
      "Ġtowards": 4889,
      "Ġimmunofluorescence": 4890,
      "heal": 4891,
      "rates": 4892,
      "Ġbrom": 4893,
      "ergen": 4894,
      "Ġgal": 4895,
      "rosp": 4896,
      "Ġclassification": 4897,
      "Ġsubunit": 4898,
      "Ġexistence": 4899,
      "Ġpp": 4900,
      "Ġconduction": 4901,
      "ctomy": 4902,
      "Ġauto": 4903,
      "Ġschool": 4904,
      "pig": 4905,
      "onin": 4906,
      "Ġlam": 4907,
      "Ġacross": 4908,
      "Ġyiel": 4909,
      "ĠTherefore": 4910,
      "Ġheavy": 4911,
      "known": 4912,
      "Ġnone": 4913,
      "otal": 4914,
      "Ġ38": 4915,
      "Ġdetermining": 4916,
      "Ġoriginal": 4917,
      "Ġpyruvate": 4918,
      "Ġdonor": 4919,
      "Ġbuffer": 4920,
      "Ġunderwent": 4921,
      "DS": 4922,
      "Ġbypass": 4923,
      "Ġspread": 4924,
      "ĠEv": 4925,
      "Ġanalyses": 4926,
      "Ġprevalence": 4927,
      "Ġspecifically": 4928,
      "FA": 4929,
      "Ġduc": 4930,
      "ostero": 4931,
      "ida": 4932,
      "Ġselection": 4933,
      "Ġprel": 4934,
      "Ġorganic": 4935,
      "Ġtheory": 4936,
      "Ġcyst": 4937,
      "Ġple": 4938,
      "Ġfist": 4939,
      "ecause": 4940,
      "ĠHg": 4941,
      "Ġverteb": 4942,
      "pinephrine": 4943,
      "Ġsubcutaneous": 4944,
      "Ġla": 4945,
      "Ġseiz": 4946,
      "Ġstri": 4947,
      "ococci": 4948,
      "ĠNew": 4949,
      "Immun": 4950,
      "lined": 4951,
      "Ġcontrib": 4952,
      "hibition": 4953,
      "Ġprotection": 4954,
      "Ġunusual": 4955,
      "glyce": 4956,
      "Ġara": 4957,
      "Ġdynamic": 4958,
      "trac": 4959,
      "Ġabsent": 4960,
      "Ġreduce": 4961,
      "Ġovarian": 4962,
      "Ġleg": 4963,
      "artment": 4964,
      "Ġreductase": 4965,
      "Ġdorsal": 4966,
      "titis": 4967,
      "Ġexplo": 4968,
      "galact": 4969,
      "sulf": 4970,
      "Ġsufficient": 4971,
      "Ġcold": 4972,
      "Ġdocum": 4973,
      "dis": 4974,
      "Ġped": 4975,
      "icated": 4976,
      "acent": 4977,
      "Ġforce": 4978,
      "Ġitself": 4979,
      "Ġjud": 4980,
      "Ġperfused": 4981,
      "Ġturnover": 4982,
      "lusive": 4983,
      "Ġsuffering": 4984,
      "Ġprojec": 4985,
      "ĠCo": 4986,
      "Ġcartil": 4987,
      "Ġextracted": 4988,
      "Ġinitially": 4989,
      "angi": 4990,
      "Ġtwice": 4991,
      "Ġaggregation": 4992,
      "Ġdodecyl": 4993,
      "ush": 4994,
      "ĠTreatment": 4995,
      "Ġlabelled": 4996,
      "Ġdigestion": 4997,
      "Ġanalysed": 4998,
      "IC": 4999,
      "ination": 5000,
      "Ġyet": 5001,
      "Ġmono": 5002,
      "Ġcytos": 5003,
      "Ġorganization": 5004,
      "Ġulcer": 5005,
      "tition": 5006,
      "lue": 5007,
      "Ġstudents": 5008,
      "ometr": 5009,
      "Ġ65": 5010,
      "oracic": 5011,
      "ris": 5012,
      "Ġdrop": 5013,
      "Ġmature": 5014,
      "icol": 5015,
      "owel": 5016,
      "cha": 5017,
      "Ġstates": 5018,
      "Ġartif": 5019,
      "Ġexclu": 5020,
      "Ġleukocytes": 5021,
      "Ġmodels": 5022,
      "Ġful": 5023,
      "itative": 5024,
      "Ġencephal": 5025,
      "Ġpretreatment": 5026,
      "Ġgrowing": 5027,
      "Ġolder": 5028,
      "Ġmammalian": 5029,
      "Ġaorta": 5030,
      "Ġagreement": 5031,
      "Ġinner": 5032,
      "urrent": 5033,
      "Ġalveolar": 5034,
      "Ġfrequencies": 5035,
      "ystolic": 5036,
      "luc": 5037,
      "olism": 5038,
      "olved": 5039,
      "unte": 5040,
      "tivation": 5041,
      "ands": 5042,
      "Ġsolub": 5043,
      "Ġmaturation": 5044,
      "terminal": 5045,
      "Ġpreliminary": 5046,
      "olute": 5047,
      "rene": 5048,
      "time": 5049,
      "Ġreliable": 5050,
      "Ġsection": 5051,
      "oids": 5052,
      "Ġsusceptibility": 5053,
      "Ġsatisfactory": 5054,
      "mat": 5055,
      "Ġfocus": 5056,
      "chloride": 5057,
      "Ġregression": 5058,
      "Ġlungs": 5059,
      "Ġdepends": 5060,
      "aries": 5061,
      "Ġnit": 5062,
      "ĠAr": 5063,
      "ĠSta": 5064,
      "urable": 5065,
      "cardia": 5066,
      "Ġnumerous": 5067,
      "ds": 5068,
      "Ġinn": 5069,
      "Ġretention": 5070,
      "Ġcomparative": 5071,
      "Ġcommunity": 5072,
      "ĠUnder": 5073,
      "obarbital": 5074,
      "au": 5075,
      "natal": 5076,
      "Ġinges": 5077,
      "Ġfr": 5078,
      "iles": 5079,
      "Ġmutation": 5080,
      "Ġproducing": 5081,
      "Ġ--": 5082,
      "aments": 5083,
      "ĠCT": 5084,
      "tives": 5085,
      "Ġlear": 5086,
      "Ġhydrogen": 5087,
      "Ġvolunte": 5088,
      "Ġcritical": 5089,
      "Ġresemb": 5090,
      "seudomonas": 5091,
      "Ġchoice": 5092,
      "Ġmanifestations": 5093,
      "ltras": 5094,
      "cers": 5095,
      "entral": 5096,
      "Ġestradiol": 5097,
      "rectomy": 5098,
      "Ġfragment": 5099,
      "Ġmuta": 5100,
      "Ġmothers": 5101,
      "ollowing": 5102,
      "gu": 5103,
      "Ġevident": 5104,
      "achy": 5105,
      "olarization": 5106,
      "32": 5107,
      "imen": 5108,
      "inetic": 5109,
      "ilized": 5110,
      "Ġkind": 5111,
      "Ġcontinued": 5112,
      "Ġdysfunction": 5113,
      "Ġbili": 5114,
      "Ġsexual": 5115,
      "Ġembryos": 5116,
      "Ġpure": 5117,
      "Ġhypers": 5118,
      "Ġagar": 5119,
      "Ġallows": 5120,
      "Ġmovements": 5121,
      "Ġelimination": 5122,
      "urgical": 5123,
      "saccharide": 5124,
      "Ġreadily": 5125,
      "Ġisot": 5126,
      "Ġresting": 5127,
      "Ġserious": 5128,
      "Ġinfectious": 5129,
      "Ġcirrh": 5130,
      "Ġcommonly": 5131,
      "Ġradioactive": 5132,
      "Ġgreatly": 5133,
      "Ġfast": 5134,
      "Ġlum": 5135,
      "charge": 5136,
      "Ġhair": 5137,
      "ĠOther": 5138,
      "Ġmanner": 5139,
      "monella": 5140,
      "ĠATPase": 5141,
      "Ġsensory": 5142,
      "Ġgestation": 5143,
      "aria": 5144,
      "oman": 5145,
      "Ġnore": 5146,
      "ylated": 5147,
      "py": 5148,
      "Ġtechn": 5149,
      "thym": 5150,
      "Ġchamb": 5151,
      "chrom": 5152,
      "Ġneither": 5153,
      "Ġantiserum": 5154,
      "Ġfever": 5155,
      "Ġconcom": 5156,
      "ords": 5157,
      "Ġblocking": 5158,
      "Ġduodenal": 5159,
      "Ġinfluenza": 5160,
      "ek": 5161,
      "Ġcorrect": 5162,
      "Ġimmunos": 5163,
      "Ġtoxin": 5164,
      "Ġfluorescent": 5165,
      "Ġamb": 5166,
      "Ġsomat": 5167,
      "mean": 5168,
      "ej": 5169,
      "Ġprophyl": 5170,
      "opoly": 5171,
      "irc": 5172,
      "ĠSub": 5173,
      "Ġappara": 5174,
      "ket": 5175,
      "arbox": 5176,
      "ĠAmong": 5177,
      "Ġcateg": 5178,
      "Ġischemia": 5179,
      "Ġdialysis": 5180,
      "lim": 5181,
      "Ġau": 5182,
      "ifferen": 5183,
      "Ġpoints": 5184,
      "cellulose": 5185,
      "Ġsolid": 5186,
      "Ġpurpose": 5187,
      "Ġrequires": 5188,
      "Ġcircum": 5189,
      "irds": 5190,
      "Ġdiges": 5191,
      "Ġdefinite": 5192,
      "Ġalternative": 5193,
      "Ġbul": 5194,
      "aced": 5195,
      "Ġ44": 5196,
      "Ġinterven": 5197,
      "ameth": 5198,
      "Ġsupernat": 5199,
      "omplete": 5200,
      "inol": 5201,
      "Ġcow": 5202,
      "Ġfinal": 5203,
      "odg": 5204,
      "Ġsuppressed": 5205,
      "Ġtryptophan": 5206,
      "Ġpairs": 5207,
      "Ġbiliary": 5208,
      "gent": 5209,
      "tac": 5210,
      "Ġaqueous": 5211,
      "Ġchest": 5212,
      "Ġthi": 5213,
      "ople": 5214,
      "illing": 5215,
      "Ġester": 5216,
      "Ġinstrum": 5217,
      "Ġutilization": 5218,
      "Ġdifficul": 5219,
      "ari": 5220,
      "Ġ55": 5221,
      "Ġevents": 5222,
      "Ġanalges": 5223,
      "Ġcarbox": 5224,
      "Ġtemperatures": 5225,
      "Ġmatrix": 5226,
      "Ġribosomal": 5227,
      "Ġtiters": 5228,
      "EP": 5229,
      "nis": 5230,
      "Ġlog": 5231,
      "lline": 5232,
      "geal": 5233,
      "Ġattributed": 5234,
      "sions": 5235,
      "Ġlimit": 5236,
      "Ġattempt": 5237,
      "fric": 5238,
      "Ġadi": 5239,
      "Ġpenicillin": 5240,
      "Ġdeep": 5241,
      "irub": 5242,
      "ĠCSF": 5243,
      "earing": 5244,
      "Ġassays": 5245,
      "Ġevent": 5246,
      "Ġsupply": 5247,
      "Ġessentially": 5248,
      "Ġaccuracy": 5249,
      "Ġunique": 5250,
      "Ġapparatus": 5251,
      "draw": 5252,
      "enia": 5253,
      "semin": 5254,
      "Ġperitoneal": 5255,
      "ĠSp": 5256,
      "tents": 5257,
      "illi": 5258,
      "Ġglut": 5259,
      "ĠKm": 5260,
      "Ġlocus": 5261,
      "Ġsteady": 5262,
      "Ġcomplication": 5263,
      "Ġderivative": 5264,
      "Ġherpes": 5265,
      "Ġchallenge": 5266,
      "Ġencoun": 5267,
      "Ġbic": 5268,
      "Ġbund": 5269,
      "absorption": 5270,
      "ĠFSH": 5271,
      "Ġsurround": 5272,
      "Ġabsolute": 5273,
      "Ġtuberculosis": 5274,
      "poly": 5275,
      "esium": 5276,
      "asive": 5277,
      "Ġaccep": 5278,
      "rant": 5279,
      "Ġattention": 5280,
      "Ġinters": 5281,
      "Ġconstants": 5282,
      "Ġchicken": 5283,
      "Ġattemp": 5284,
      "Ġpol": 5285,
      "ĠPer": 5286,
      "Ġequivalent": 5287,
      "Ġembryo": 5288,
      "Ġacetylcholine": 5289,
      "Ġseroton": 5290,
      "Ġreversible": 5291,
      "ike": 5292,
      "Ġatr": 5293,
      "Ġflex": 5294,
      "ocarcin": 5295,
      "Ġrelev": 5296,
      "Ġelectrophoretic": 5297,
      "Ġbreath": 5298,
      "70": 5299,
      "back": 5300,
      "astatic": 5301,
      "Ġorth": 5302,
      "Ġmedian": 5303,
      "operatively": 5304,
      "ejun": 5305,
      "odgkin": 5306,
      "Pre": 5307,
      "itus": 5308,
      "Ġeducation": 5309,
      "sor": 5310,
      "osidase": 5311,
      "pping": 5312,
      "ĠSuch": 5313,
      "Ġfiber": 5314,
      "associated": 5315,
      "Ġtubular": 5316,
      "Ġmicroscope": 5317,
      "Ġrecurrence": 5318,
      "Ġmonkey": 5319,
      "Bs": 5320,
      "chron": 5321,
      "Ġ39": 5322,
      "Ġcapillary": 5323,
      "Ġdeficient": 5324,
      "osinophil": 5325,
      "Ev": 5326,
      "throp": 5327,
      "Ġperm": 5328,
      "Ġ500": 5329,
      "tidase": 5330,
      "Ġclasses": 5331,
      "Ġalteration": 5332,
      "Ġbeginning": 5333,
      "CT": 5334,
      "To": 5335,
      "Ġwave": 5336,
      "ĠElec": 5337,
      "Ġoccup": 5338,
      "Ġstere": 5339,
      "Ġsuspected": 5340,
      "Ġrecognition": 5341,
      "everal": 5342,
      "Ġ99": 5343,
      "Ġresponsiveness": 5344,
      "Ġmaterials": 5345,
      "Ġbronchial": 5346,
      "Ġrecognized": 5347,
      "Ġdonors": 5348,
      "PR": 5349,
      "men": 5350,
      "lys": 5351,
      "trus": 5352,
      "ĠCell": 5353,
      "Ġimmunization": 5354,
      "Ġamni": 5355,
      "Ġhypoxia": 5356,
      "hr": 5357,
      "Ġcorrection": 5358,
      "max": 5359,
      "Ġinhibits": 5360,
      "Ġ72": 5361,
      "Ġinterpreted": 5362,
      "Ġconcomitant": 5363,
      "lat": 5364,
      "vul": 5365,
      "Ġanastom": 5366,
      "Ġlith": 5367,
      "Ġcontents": 5368,
      "Ġrub": 5369,
      "omyel": 5370,
      "Ġlocation": 5371,
      "Ġdifferentiated": 5372,
      "flow": 5373,
      "oate": 5374,
      "alt": 5375,
      "ality": 5376,
      "Ġ46": 5377,
      "Ġchildhood": 5378,
      "Ġcattle": 5379,
      "Ġmucosal": 5380,
      "Ġsubsequently": 5381,
      "Ġenvironmental": 5382,
      "Ġpicture": 5383,
      "Ġoptic": 5384,
      "Ġdrain": 5385,
      "Ġfell": 5386,
      "omorph": 5387,
      "irl": 5388,
      "zymes": 5389,
      "Ġrhythm": 5390,
      "Ġpromo": 5391,
      "Ġtransformed": 5392,
      "Ġunknown": 5393,
      "Ġepidem": 5394,
      "Ġadjacent": 5395,
      "blind": 5396,
      "Ġhemorrhage": 5397,
      "phenyl": 5398,
      "trins": 5399,
      "Ġrose": 5400,
      "Ġedema": 5401,
      "Ġplaced": 5402,
      "Ġtrials": 5403,
      "Ġphospholipid": 5404,
      "Ġischemic": 5405,
      "Ġprecursor": 5406,
      "Ġpassive": 5407,
      "Ġportal": 5408,
      "ament": 5409,
      "Ġlethal": 5410,
      "ĠBecause": 5411,
      "Ġmembers": 5412,
      "Ġillus": 5413,
      "ĠClinical": 5414,
      "ĠAddition": 5415,
      "ients": 5416,
      "oa": 5417,
      "Ġoil": 5418,
      "Ġlamin": 5419,
      "Ġact": 5420,
      "forming": 5421,
      "Ġcentrifugation": 5422,
      "Ġcardiovascular": 5423,
      "Ġhistochemical": 5424,
      "onuclear": 5425,
      "glutinin": 5426,
      "Ġbands": 5427,
      "tization": 5428,
      "Ġfamilies": 5429,
      "Ġfuture": 5430,
      "stimulated": 5431,
      "Ġvolunteers": 5432,
      "45": 5433,
      "LV": 5434,
      "Ġformer": 5435,
      "Ġinser": 5436,
      "protein": 5437,
      "Ġsubstanti": 5438,
      "Ġbehavioral": 5439,
      "Ġaxons": 5440,
      "Ġhypothalamus": 5441,
      "ropathy": 5442,
      "DA": 5443,
      "otide": 5444,
      "Ġarteri": 5445,
      "Ġmicrob": 5446,
      "Ġhomogene": 5447,
      "Ġresidual": 5448,
      "Ġcoagulation": 5449,
      "IA": 5450,
      "globulin": 5451,
      "Ġanesthesia": 5452,
      "Ġdraw": 5453,
      "arts": 5454,
      "Ġethyl": 5455,
      "Ġpreced": 5456,
      "Ġfibrosis": 5457,
      "Ġionic": 5458,
      "Ġpersistent": 5459,
      "Ġcytotoxicity": 5460,
      "Ġprosthe": 5461,
      "Ġintracranial": 5462,
      "Ġsumm": 5463,
      "istry": 5464,
      "osamin": 5465,
      "Ġperman": 5466,
      "Ġshape": 5467,
      "Ġpigment": 5468,
      "opathic": 5469,
      "Ġdissociation": 5470,
      "omethacin": 5471,
      "Ġyielded": 5472,
      "hab": 5473,
      "ury": 5474,
      "uric": 5475,
      "opsy": 5476,
      "Ġspin": 5477,
      "Ġdespite": 5478,
      "Ġinitiation": 5479,
      "Ġsusceptible": 5480,
      "Ġpower": 5481,
      "Ġglycerol": 5482,
      "CP": 5483,
      "typ": 5484,
      "Ġmorb": 5485,
      "ocortic": 5486,
      "Ġdischarge": 5487,
      "Ġmedial": 5488,
      "Ġcarcinomas": 5489,
      "Ġcomposed": 5490,
      "Ġneutroph": 5491,
      "Ġganglion": 5492,
      "Ġabolished": 5493,
      "Ġnasal": 5494,
      "Ġge": 5495,
      "ĠMed": 5496,
      "Ġplan": 5497,
      "Ġsched": 5498,
      "Ġpolymorph": 5499,
      "Ġangiography": 5500,
      "Ġreason": 5501,
      "Na": 5502,
      "Ne": 5503,
      "Ġtachy": 5504,
      "Ġbond": 5505,
      "ĠPGE": 5506,
      "Ġmelanoma": 5507,
      "cycline": 5508,
      "Ig": 5509,
      "fil": 5510,
      "roz": 5511,
      "Ġretained": 5512,
      "ols": 5513,
      "Ġwithdraw": 5514,
      "Ġenl": 5515,
      "ĠPlasma": 5516,
      "ĠPseudomonas": 5517,
      "achment": 5518,
      "Ġaccess": 5519,
      "Ġoperated": 5520,
      "Ġgrafts": 5521,
      "Ġhemodynamic": 5522,
      "irubin": 5523,
      "MA": 5524,
      "Ġfund": 5525,
      "Ġathe": 5526,
      "ĠHist": 5527,
      "rill": 5528,
      "Ġ47": 5529,
      "Ġdepletion": 5530,
      "oradi": 5531,
      "Ġneuronal": 5532,
      "defici": 5533,
      "Ġreversed": 5534,
      "MS": 5535,
      "Ġstained": 5536,
      "Ġpac": 5537,
      "Ġcoll": 5538,
      "Ġloop": 5539,
      "Ġadvantages": 5540,
      "Ġperoxidase": 5541,
      "Ġscin": 5542,
      "ticle": 5543,
      "Ġroset": 5544,
      "Ġpathology": 5545,
      "Ġ150": 5546,
      "tituted": 5547,
      "Ġneural": 5548,
      "Ġsoft": 5549,
      "mg": 5550,
      "Ġpathways": 5551,
      "Ġmyocardium": 5552,
      "ogenetic": 5553,
      "Ġcoefficient": 5554,
      "BL": 5555,
      "tone": 5556,
      "Ġ:": 5557,
      "Ġcutaneous": 5558,
      "ĠAfric": 5559,
      "Ġdrin": 5560,
      "Ġmarker": 5561,
      "Ġtomography": 5562,
      "Ġcartilage": 5563,
      "Ġtable": 5564,
      "ramine": 5565,
      "romo": 5566,
      "ĠHospital": 5567,
      "Ġunilateral": 5568,
      "weight": 5569,
      "Ġabor": 5570,
      "Ġsuccessfully": 5571,
      "ready": 5572,
      "Ġetiology": 5573,
      "Ġencountered": 5574,
      "Ġsarc": 5575,
      "arding": 5576,
      "Ġalle": 5577,
      "Ġcorp": 5578,
      "astolic": 5579,
      "trept": 5580,
      "Ġguan": 5581,
      "hour": 5582,
      "aldehyde": 5583,
      "Ġanemia": 5584,
      "Ġliving": 5585,
      "Ġcounts": 5586,
      "Ġranged": 5587,
      "Ġclassified": 5588,
      "Ġfractures": 5589,
      "Ġown": 5590,
      "bre": 5591,
      "Ġdiffuse": 5592,
      "Ġoccasion": 5593,
      "aves": 5594,
      "antib": 5595,
      "Ġbacteri": 5596,
      "Ġchromatographic": 5597,
      "Ġsituation": 5598,
      "Ġphospholipids": 5599,
      "otypes": 5600,
      "comp": 5601,
      "Ġbowel": 5602,
      "Ġexist": 5603,
      "Ġarginine": 5604,
      "Ġmuscular": 5605,
      "Ġtemporal": 5606,
      "Ġincorporated": 5607,
      "Ġdimension": 5608,
      "27": 5609,
      "yto": 5610,
      "Ġdark": 5611,
      "Ġkg": 5612,
      "Ġintram": 5613,
      "Ġrefer": 5614,
      "Ġsurfaces": 5615,
      "Ġshift": 5616,
      "Ġdistinguish": 5617,
      "Ġplaque": 5618,
      "Ġcleavage": 5619,
      "glyc": 5620,
      "Ġcount": 5621,
      "Ġdiver": 5622,
      "Ġnewly": 5623,
      "Ġmetastatic": 5624,
      "Ġtransition": 5625,
      "Ġoptimum": 5626,
      "Ġcephal": 5627,
      "da": 5628,
      "Ġaid": 5629,
      "alse": 5630,
      "entgen": 5631,
      "idin": 5632,
      "Ġgirl": 5633,
      "Ġprot": 5634,
      "oneph": 5635,
      "rowth": 5636,
      "esthetic": 5637,
      "Ġstatistical": 5638,
      "Ġtake": 5639,
      "Ġundergoing": 5640,
      "Ġtreatments": 5641,
      "Ġnicot": 5642,
      "Ġfully": 5643,
      "trinsic": 5644,
      "PG": 5645,
      "Ġsole": 5646,
      "omical": 5647,
      "trated": 5648,
      "Ġexceed": 5649,
      "abain": 5650,
      "Ġventilation": 5651,
      "Ġsedimentation": 5652,
      "ncy": 5653,
      "Ġcad": 5654,
      "Ġlost": 5655,
      "Ġgent": 5656,
      "minal": 5657,
      "Ġpreoperative": 5658,
      "Ġdiffered": 5659,
      "Ġtrue": 5660,
      "press": 5661,
      "Ġelectrocardi": 5662,
      "Ġulce": 5663,
      "Ġranging": 5664,
      "Ġconsists": 5665,
      "amicin": 5666,
      "Ġintravenously": 5667,
      "axis": 5668,
      "Ġlayers": 5669,
      "Ġalcoholic": 5670,
      "Ġradical": 5671,
      "Ġelicited": 5672,
      "iant": 5673,
      "rib": 5674,
      "inger": 5675,
      "atient": 5676,
      "adrenergic": 5677,
      "Ġintraper": 5678,
      "Ġdetect": 5679,
      "Ġconsisting": 5680,
      "Ġsources": 5681,
      "Ġrestriction": 5682,
      "oscopy": 5683,
      "Ġadrenergic": 5684,
      "Ġ51": 5685,
      "Ġinteg": 5686,
      "Ġrecombin": 5687,
      "Ġppm": 5688,
      "ĠIm": 5689,
      "Ġ43": 5690,
      "ief": 5691,
      "Ġdecline": 5692,
      "Ġunderlying": 5693,
      "Ġmarkers": 5694,
      "Ġlyso": 5695,
      "Ġprevention": 5696,
      "Ġreturned": 5697,
      "oper": 5698,
      "ĠAb": 5699,
      "times": 5700,
      "Ġworkers": 5701,
      "otropin": 5702,
      "Ġpredominantly": 5703,
      "idation": 5704,
      "ĠIts": 5705,
      "Ġalready": 5706,
      "Ġresidue": 5707,
      "Ġcareful": 5708,
      "Ġallowed": 5709,
      "ophylline": 5710,
      "Ca": 5711,
      "Elec": 5712,
      "On": 5713,
      "Res": 5714,
      "titial": 5715,
      "Ġreal": 5716,
      "Ġlamb": 5717,
      "phthal": 5718,
      "dib": 5719,
      "Ġoutcome": 5720,
      "Ġvacu": 5721,
      "labelled": 5722,
      "Ġidi": 5723,
      "gest": 5724,
      "Ġimmo": 5725,
      "ĠBA": 5726,
      "Ġrup": 5727,
      "ĠIgE": 5728,
      "Ġlysine": 5729,
      "Ġheterogene": 5730,
      "Ġservices": 5731,
      "Ġimpairment": 5732,
      "dic": 5733,
      "Ġaud": 5734,
      "Ġsil": 5735,
      "anav": 5736,
      "roma": 5737,
      "Ġcompens": 5738,
      "Ġsynaptic": 5739,
      "Ġexplan": 5740,
      "Ġglomerular": 5741,
      "oelectric": 5742,
      "Ġlib": 5743,
      "ĠCol": 5744,
      "chain": 5745,
      "Ġhearing": 5746,
      "Ġrespiration": 5747,
      "ceptive": 5748,
      "Ġdense": 5749,
      "Ġminimum": 5750,
      "linked": 5751,
      "Ġeasily": 5752,
      "Ġcirrhosis": 5753,
      "isc": 5754,
      "ĠEach": 5755,
      "Ġmobility": 5756,
      "Ġphospho": 5757,
      "Three": 5758,
      "Ġbilirubin": 5759,
      "ĠNADP": 5760,
      "Ġirradiated": 5761,
      "Ġlink": 5762,
      "ots": 5763,
      "prop": 5764,
      "Ġpec": 5765,
      "Ġprograms": 5766,
      "ĠSix": 5767,
      "Ġminus": 5768,
      "Ġabnormality": 5769,
      "ĠSephadex": 5770,
      "Ġparents": 5771,
      "Ġhypothalamic": 5772,
      "Ġfracture": 5773,
      "Ġcorticostero": 5774,
      "He": 5775,
      "PD": 5776,
      "ense": 5777,
      "ĠDes": 5778,
      "Ġmode": 5779,
      "Ġsynap": 5780,
      "versity": 5781,
      "Ġtendency": 5782,
      "Ġphosphorylation": 5783,
      "Ġinterpretation": 5784,
      "Ġbalance": 5785,
      "Ġrelaxation": 5786,
      "auc": 5787,
      "affec": 5788,
      "land": 5789,
      "oes": 5790,
      "osts": 5791,
      "Ġsugar": 5792,
      "Ġcausing": 5793,
      "kground": 5794,
      "Ġtherm": 5795,
      "anavalin": 5796,
      "zing": 5797,
      "dia": 5798,
      "Ġring": 5799,
      "ynaptic": 5800,
      "Ġspontaneously": 5801,
      "Ġbiopsies": 5802,
      "roscopic": 5803,
      "dimethyl": 5804,
      "Ag": 5805,
      "Ġaure": 5806,
      "Ġread": 5807,
      "undred": 5808,
      "Ġpremature": 5809,
      "Ġkera": 5810,
      "Ġindices": 5811,
      "cribed": 5812,
      "Ġteeth": 5813,
      "rologic": 5814,
      "Ġprofiles": 5815,
      "Experim": 5816,
      "Ġplasmid": 5817,
      "Ġenhancement": 5818,
      "bu": 5819,
      "Ġwoman": 5820,
      "ĠTheir": 5821,
      "ptomatic": 5822,
      "Ġdescribe": 5823,
      "Ġdiets": 5824,
      "rophage": 5825,
      "Ġaneurysm": 5826,
      "mium": 5827,
      "Ġster": 5828,
      "Ġfine": 5829,
      "ecal": 5830,
      "Ġori": 5831,
      "plate": 5832,
      "Ġ41": 5833,
      "Ġproduces": 5834,
      "ucine": 5835,
      "taken": 5836,
      "pped": 5837,
      "Ġimmunized": 5838,
      "Ġroot": 5839,
      "Ġhomologous": 5840,
      "toxin": 5841,
      "ĠSalmonella": 5842,
      "Ġversus": 5843,
      "asing": 5844,
      "Ġback": 5845,
      "tri": 5846,
      "deoxy": 5847,
      "ĠFollowing": 5848,
      "acetate": 5849,
      "Ġdirected": 5850,
      "Ġqualitative": 5851,
      "Ġphysician": 5852,
      "28": 5853,
      "ontal": 5854,
      "any": 5855,
      "Ġdeoxy": 5856,
      "romes": 5857,
      "renol": 5858,
      "iolet": 5859,
      "Ġpolypeptides": 5860,
      "deficient": 5861,
      "-[": 5862,
      "pan": 5863,
      "uit": 5864,
      "Ġcas": 5865,
      "Ġfif": 5866,
      "Ġvs": 5867,
      "ocaine": 5868,
      "ĠSerum": 5869,
      "Ġaccom": 5870,
      "Ġdoub": 5871,
      "Clinical": 5872,
      "Ġsteroids": 5873,
      "Ġresponded": 5874,
      "Ġasthma": 5875,
      "Ġnorepinephrine": 5876,
      "aro": 5877,
      "Ġsick": 5878,
      "Ġdisrup": 5879,
      "Ġrun": 5880,
      "Ġesophag": 5881,
      "month": 5882,
      "rospinal": 5883,
      "ER": 5884,
      "tiated": 5885,
      "Ġcis": 5886,
      "Ġfit": 5887,
      "antial": 5888,
      "Ġones": 5889,
      "tened": 5890,
      "ĠNH": 5891,
      "Ġcyan": 5892,
      "hesus": 5893,
      "ygous": 5894,
      "ĠAnalysis": 5895,
      "26": 5896,
      "Ġcenter": 5897,
      "arter": 5898,
      "Ġeosinophil": 5899,
      "Ġcontin": 5900,
      "atible": 5901,
      "ĠED": 5902,
      "Ġinvestigate": 5903,
      "Ġreflect": 5904,
      "Ġblockade": 5905,
      "Ġrequirements": 5906,
      "Ġthought": 5907,
      "Ġcystic": 5908,
      "Ġsupra": 5909,
      "Ġmorbidity": 5910,
      "Ġaug": 5911,
      "Ġsilic": 5912,
      "Ġintensive": 5913,
      "icular": 5914,
      "Ġuniform": 5915,
      "Ġsplen": 5916,
      "+)": 5917,
      "]-": 5918,
      "Ġages": 5919,
      "ana": 5920,
      "ithin": 5921,
      "Ġscale": 5922,
      "Ġ95": 5923,
      "Ġleading": 5924,
      "Ġcarrier": 5925,
      "Ġneeded": 5926,
      "Ġembryonic": 5927,
      "ĠWhile": 5928,
      "ened": 5929,
      "asone": 5930,
      "icin": 5931,
      "ĠADP": 5932,
      "rier": 5933,
      "Ġcarry": 5934,
      "Ġcanine": 5935,
      "Ġobtain": 5936,
      "Ġhealing": 5937,
      "Ġlysis": 5938,
      "Ġassayed": 5939,
      "Ġrestricted": 5940,
      "aryngeal": 5941,
      "Ġextended": 5942,
      "',": 5943,
      "34": 5944,
      "lished": 5945,
      "Ġclo": 5946,
      "Ġgenerated": 5947,
      "Ġdelay": 5948,
      "Ġhomogenates": 5949,
      "affected": 5950,
      "Ad": 5951,
      "ern": 5952,
      "atest": 5953,
      "ilization": 5954,
      "Ġ56": 5955,
      "Ġfibrill": 5956,
      "ĠUV": 5957,
      "Ġparathyroid": 5958,
      "Ġmagnesium": 5959,
      "ĠAmeric": 5960,
      "Ġrecently": 5961,
      "Ġdistance": 5962,
      "Ġbackground": 5963,
      "200": 5964,
      "yel": 5965,
      "Ġprospective": 5966,
      "ysiological": 5967,
      "Ġdiscon": 5968,
      "grade": 5969,
      "elec": 5970,
      "vol": 5971,
      "Ġhundred": 5972,
      "umes": 5973,
      "Ġusual": 5974,
      "acetic": 5975,
      "ullary": 5976,
      "CC": 5977,
      "Ġpast": 5978,
      "Ġfusion": 5979,
      "Ġchond": 5980,
      "ĠApp": 5981,
      "ĠBi": 5982,
      "Ġhumans": 5983,
      "Ġpractical": 5984,
      "Ġascites": 5985,
      "Ġcontractile": 5986,
      "ES": 5987,
      "Ġfocal": 5988,
      "Ġcanal": 5989,
      "Ġradiological": 5990,
      "Ġaffecting": 5991,
      "Ġneurological": 5992,
      "Ġsustained": 5993,
      "immune": 5994,
      "Ġslowly": 5995,
      "ĠBacillus": 5996,
      "Ġect": 5997,
      "Ġacqui": 5998,
      "ĠCor": 5999,
      "Ġfemoral": 6000,
      "ĠNADH": 6001,
      "onomic": 6002,
      "rox": 6003,
      "Ġflo": 6004,
      "ĠStrept": 6005,
      "tability": 6006,
      "rophenyl": 6007,
      "Ġdry": 6008,
      "inesterase": 6009,
      "Ġrepresents": 6010,
      "Ġdeaths": 6011,
      "Ġdivision": 6012,
      "Ġextremely": 6013,
      "Ġgalact": 6014,
      "Ġaz": 6015,
      "idate": 6016,
      "inemia": 6017,
      "Ġinclusion": 6018,
      "trop": 6019,
      "Ġgreatest": 6020,
      "Ġdemonstration": 6021,
      "Ġmetabolite": 6022,
      "Ġjejun": 6023,
      "work": 6024,
      "tance": 6025,
      "Ġpromin": 6026,
      "Ġgastrin": 6027,
      "Ġprogress": 6028,
      "Ġutilized": 6029,
      "Ġmyelin": 6030,
      "Ġtyph": 6031,
      "Ġserotonin": 6032,
      "MT": 6033,
      "Ġblast": 6034,
      "icardi": 6035,
      "Ġhab": 6036,
      "trical": 6037,
      "Ġclon": 6038,
      "Ġclosed": 6039,
      "Ġdepr": 6040,
      "Ġdeterminants": 6041,
      "Ġgram": 6042,
      "Ġpreferen": 6043,
      "Ġtriglyceride": 6044,
      "38": 6045,
      "part": 6046,
      "idium": 6047,
      "Ġmotion": 6048,
      "lices": 6049,
      "Ġfollows": 6050,
      "CoA": 6051,
      "Ġunderstanding": 6052,
      "tia": 6053,
      "Ġinactive": 6054,
      "ĠSo": 6055,
      "Ġarrhy": 6056,
      "formations": 6057,
      "Ġseemed": 6058,
      "Ġreducing": 6059,
      "Ġimmunoglobulins": 6060,
      "Ġinoculation": 6061,
      "Ġlabeling": 6062,
      "Ġgenome": 6063,
      "Ġdepending": 6064,
      "Ġlithium": 6065,
      "col": 6066,
      "nia": 6067,
      "violet": 6068,
      "ochem": 6069,
      "Ġreson": 6070,
      "ĠIns": 6071,
      "Ġunaffected": 6072,
      "aluation": 6073,
      "Ġsuccin": 6074,
      "Ġexcision": 6075,
      "Ġinvolves": 6076,
      "Ġsynov": 6077,
      "EAE": 6078,
      "umably": 6079,
      "Ġlep": 6080,
      "Ġgross": 6081,
      "ĠBe": 6082,
      "Ġagon": 6083,
      "Ġreactive": 6084,
      "Ġhyperplasia": 6085,
      "cellent": 6086,
      "Ġlargely": 6087,
      "Ġpublished": 6088,
      "Ġcontribute": 6089,
      "Ġhome": 6090,
      "ĠCA": 6091,
      "Ġ85": 6092,
      "Ġlongitud": 6093,
      "Ġmutations": 6094,
      "Ġpeople": 6095,
      "Ġribosomes": 6096,
      "Ġexhibit": 6097,
      "Ġlipoproteins": 6098,
      "Ġendothelial": 6099,
      "yle": 6100,
      "Ġsystolic": 6101,
      "Ġblue": 6102,
      "Ġfrog": 6103,
      "Ġmeta": 6104,
      "Ġindomethacin": 6105,
      "Ġcircular": 6106,
      "Ġstimulate": 6107,
      "trophic": 6108,
      "Ġbroad": 6109,
      "Ġaldosterone": 6110,
      "90": 6111,
      "Ġbed": 6112,
      "Ġcompe": 6113,
      "Ġpoison": 6114,
      "Ġindications": 6115,
      "Ġendotoxin": 6116,
      "Ġtesticular": 6117,
      "Ġadenine": 6118,
      "Ġtaking": 6119,
      "omatous": 6120,
      "Ġsupported": 6121,
      "Ġaureus": 6122,
      "Ġsclerosis": 6123,
      "Ġmis": 6124,
      "Ġfalse": 6125,
      "ĠMic": 6126,
      "Ġlysosomal": 6127,
      "Ġthermal": 6128,
      "Ġeggs": 6129,
      "Ġchl": 6130,
      "Ġcaud": 6131,
      "Ġpresentation": 6132,
      "Ġdescribes": 6133,
      "Ġplacent": 6134,
      "Ġlinked": 6135,
      "Ġinoculated": 6136,
      "iation": 6137,
      "par": 6138,
      "Ġocular": 6139,
      "roc": 6140,
      "Ġextension": 6141,
      "tually": 6142,
      "opress": 6143,
      "Ġstimulating": 6144,
      "onucleic": 6145,
      "ĠExperim": 6146,
      "tamate": 6147,
      "Ġvaginal": 6148,
      "ĠMoreover": 6149,
      "Ġgentamicin": 6150,
      "37": 6151,
      "Ġborder": 6152,
      "Ġthal": 6153,
      "Ġlute": 6154,
      "ĠAcc": 6155,
      "ĠIs": 6156,
      "Ġcommerc": 6157,
      "agic": 6158,
      "Ġfacial": 6159,
      "Ġundertaken": 6160,
      "Ġmyosin": 6161,
      "Ġscores": 6162,
      "Ġcalf": 6163,
      "Ġfluids": 6164,
      "Ġ120": 6165,
      "Ġcerebrospinal": 6166,
      "Ġestimation": 6167,
      "Ġcolony": 6168,
      "ĠmuM": 6169,
      "uctose": 6170,
      "Ġrecipients": 6171,
      "Ġouabain": 6172,
      "Ġnarrow": 6173,
      "Ġmolar": 6174,
      "educ": 6175,
      "osamine": 6176,
      "iral": 6177,
      "Ġ300": 6178,
      "Ġchannel": 6179,
      "Ġmax": 6180,
      "Ġhistologic": 6181,
      "Ġadjuv": 6182,
      "iliary": 6183,
      "brain": 6184,
      "Ġtheore": 6185,
      "Ġmerc": 6186,
      "atch": 6187,
      "omers": 6188,
      "Ġlumb": 6189,
      "Ġexists": 6190,
      "load": 6191,
      "omegal": 6192,
      "Ġdiscre": 6193,
      "Ġhydrochloride": 6194,
      "Ġirre": 6195,
      "Ġcavity": 6196,
      "En": 6197,
      "acid": 6198,
      "Ġmicron": 6199,
      "Ġallergic": 6200,
      "Ġindication": 6201,
      "Ġquite": 6202,
      "uanti": 6203,
      "itin": 6204,
      "omotor": 6205,
      "ĠSV": 6206,
      "ĠEC": 6207,
      "Ġroom": 6208,
      "Ġureth": 6209,
      "Ġconsistently": 6210,
      "Ġeliminated": 6211,
      "Ġneoplasms": 6212,
      "Ġobjective": 6213,
      "Ġcopper": 6214,
      "Ġcost": 6215,
      "Ġhip": 6216,
      "ĠTwenty": 6217,
      "Ġgives": 6218,
      "Ġsud": 6219,
      "Ġphases": 6220,
      "week": 6221,
      "Ġroentgen": 6222,
      "Ġpotency": 6223,
      "Ġlimb": 6224,
      "thyroidism": 6225,
      "CB": 6226,
      "It": 6227,
      "mor": 6228,
      "Ġandrogen": 6229,
      "ley": 6230,
      "Ġchole": 6231,
      "Ġallo": 6232,
      "Ġradiotherapy": 6233,
      "Ġdevelopmental": 6234,
      "Ġimprove": 6235,
      "mittent": 6236,
      "Ġ1974": 6237,
      "Ġsubstantial": 6238,
      "ĠNaCl": 6239,
      "Ġheteroz": 6240,
      "Ġmonitored": 6241,
      "Ġfibrinogen": 6242,
      "Ġaw": 6243,
      "rot": 6244,
      "Ġhow": 6245,
      "aging": 6246,
      "venile": 6247,
      "pharose": 6248,
      "Ġmineral": 6249,
      "Ġprofile": 6250,
      "Ġinflammation": 6251,
      "Ġtyrosine": 6252,
      "Ġsulphate": 6253,
      "dibular": 6254,
      "Ġimmobil": 6255,
      "Ġauditory": 6256,
      "\".": 6257,
      "asure": 6258,
      "idazole": 6259,
      "oglyce": 6260,
      "ĠHb": 6261,
      "Ġtransf": 6262,
      "ĠGA": 6263,
      "Ġminute": 6264,
      "cobacter": 6265,
      "Ġsuperf": 6266,
      "Ġthymidine": 6267,
      "Ġprecursors": 6268,
      "Ġtask": 6269,
      "Ġpermanent": 6270,
      "gre": 6271,
      "vic": 6272,
      "icks": 6273,
      "Ġunf": 6274,
      "Ġreflux": 6275,
      "Ġpregnancies": 6276,
      "Ġemphasized": 6277,
      "Ġimmunosupp": 6278,
      "Ġmatter": 6279,
      "Ġbirds": 6280,
      "ĠACh": 6281,
      "Ġdistributed": 6282,
      "ĠCF": 6283,
      "Ġdihydro": 6284,
      "Ġinterest": 6285,
      "Ġrepresented": 6286,
      "Ġanaesthesia": 6287,
      "Ġcholinergic": 6288,
      "Ġamniotic": 6289,
      "Changes": 6290,
      "RI": 6291,
      "mide": 6292,
      "tan": 6293,
      "Ġide": 6294,
      "Ġthoracic": 6295,
      "Ġchlor": 6296,
      "erved": 6297,
      "Ġadenocarcin": 6298,
      "Ġsalts": 6299,
      "Ġretina": 6300,
      "Ġcontractions": 6301,
      "pon": 6302,
      "xine": 6303,
      "Ġefficient": 6304,
      "Ġisoelectric": 6305,
      "Ġ59": 6306,
      "Ġsimpl": 6307,
      "Ġidentify": 6308,
      "Ġgeneralized": 6309,
      "oproterenol": 6310,
      "Ġinterstitial": 6311,
      "cious": 6312,
      "lav": 6313,
      "oag": 6314,
      "Ġpup": 6315,
      "ester": 6316,
      "Ġactions": 6317,
      "iring": 6318,
      "Ġatrop": 6319,
      "Ġshunt": 6320,
      "Ġsharp": 6321,
      "Ġrhesus": 6322,
      "Ġdestruction": 6323,
      "Ġtrim": 6324,
      "Ġcorrelations": 6325,
      "phosphamide": 6326,
      "Ġprecise": 6327,
      "Ġelder": 6328,
      "embrane": 6329,
      "Ġreasons": 6330,
      "33": 6331,
      "patient": 6332,
      "Ġconcep": 6333,
      "Ġonce": 6334,
      "Ġexcellent": 6335,
      "Ġmethionine": 6336,
      "triction": 6337,
      "Ġanaerobic": 6338,
      "Ġthrombosis": 6339,
      "atinine": 6340,
      "Ġinferior": 6341,
      "MN": 6342,
      "four": 6343,
      "glu": 6344,
      "son": 6345,
      "Ġaer": 6346,
      "Ġcen": 6347,
      "ises": 6348,
      "Ġdent": 6349,
      "Ġtoo": 6350,
      "Ġroute": 6351,
      "Ġmitotic": 6352,
      "Ġtwenty": 6353,
      "Ġhypersensitivity": 6354,
      "Ġsar": 6355,
      "Ġmill": 6356,
      "iagn": 6357,
      "ĠEM": 6358,
      "Ġtransfusion": 6359,
      "Ġkilled": 6360,
      "Ġmicrosomes": 6361,
      "Ġcombinations": 6362,
      "Ġadaptation": 6363,
      "Ġdiscontinu": 6364,
      "opressin": 6365,
      "CM": 6366,
      "SP": 6367,
      "two": 6368,
      "inephrine": 6369,
      "Ġorally": 6370,
      "Ġcompr": 6371,
      "ĠIntra": 6372,
      "Ġscan": 6373,
      "Ġflux": 6374,
      "Ġhydroph": 6375,
      "Ġcorrelate": 6376,
      "Ġ1975": 6377,
      "solation": 6378,
      "Ġdocumented": 6379,
      "Ġlearning": 6380,
      "habil": 6381,
      "dose": 6382,
      "rip": 6383,
      "Ġlob": 6384,
      "Ġatrophy": 6385,
      "ĠSh": 6386,
      "state": 6387,
      "Ġpresumably": 6388,
      "arative": 6389,
      "Ġdeterminations": 6390,
      "Ġequally": 6391,
      "Ġhormonal": 6392,
      "versely": 6393,
      "bearing": 6394,
      "Ġtrop": 6395,
      "Ġapprec": 6396,
      "ervative": 6397,
      "Ġsignal": 6398,
      "Ġuncom": 6399,
      "Ġnoise": 6400,
      "Ġregarding": 6401,
      "Ġpresenting": 6402,
      "Ġfluor": 6403,
      "Ġperson": 6404,
      "Ġaccounted": 6405,
      "Ġdisplayed": 6406,
      "Ġfoot": 6407,
      "SR": 6408,
      "eria": 6409,
      "tudy": 6410,
      "Ġattitu": 6411,
      "ichlo": 6412,
      "Ġendoplasmic": 6413,
      "Ġpsychological": 6414,
      "Ġprofession": 6415,
      "Ġcorneal": 6416,
      "Ġstriking": 6417,
      "Ġdrainage": 6418,
      "Ġdrinking": 6419,
      "PP": 6420,
      "Ġchar": 6421,
      "tories": 6422,
      "ĠFive": 6423,
      "Ġserial": 6424,
      "Ġlowered": 6425,
      "Ġcatab": 6426,
      "Ġbecomes": 6427,
      "125": 6428,
      "enteric": 6429,
      "ĠComparison": 6430,
      "Ġasymptomatic": 6431,
      "Ġatheros": 6432,
      "Ġelderly": 6433,
      "life": 6434,
      "rug": 6435,
      "inter": 6436,
      "Ġsaturation": 6437,
      "Ġanesthetized": 6438,
      "Ġcond": 6439,
      "Ġproton": 6440,
      "tatively": 6441,
      "Ġdegen": 6442,
      "Ġnever": 6443,
      "tening": 6444,
      "Ġsurge": 6445,
      "ubation": 6446,
      "Ġproportional": 6447,
      "Ġadvantage": 6448,
      "Ġretarded": 6449,
      "Ġexcreted": 6450,
      "Ġchamber": 6451,
      "Ġsudden": 6452,
      "pop": 6453,
      "osus": 6454,
      "Ġmicrotub": 6455,
      "Ġprostaglandins": 6456,
      "Ġattached": 6457,
      "Ġcompetitive": 6458,
      "Ġprominent": 6459,
      "29": 6460,
      "itals": 6461,
      "phrag": 6462,
      "ĠDEAE": 6463,
      "Ġ58": 6464,
      "iotic": 6465,
      "Ġsupernatant": 6466,
      "inosa": 6467,
      "Ġpolar": 6468,
      "anal": 6469,
      "Ġcontribution": 6470,
      "Ġpermit": 6471,
      "ĠDep": 6472,
      "ĠHigh": 6473,
      "Ġassumed": 6474,
      "molecular": 6475,
      "athione": 6476,
      "endri": 6477,
      "Ġpathologic": 6478,
      "Ġemp": 6479,
      "Ġautopsy": 6480,
      "ogeneic": 6481,
      "nitros": 6482,
      "Ġexample": 6483,
      "LH": 6484,
      "Ġserological": 6485,
      "Ġadoles": 6486,
      "ĠSw": 6487,
      "ĠECG": 6488,
      "Ġlesser": 6489,
      "uramin": 6490,
      "Ġclassical": 6491,
      "Ġconsideration": 6492,
      "ĠEvidence": 6493,
      "Ġseizures": 6494,
      "Ġwid": 6495,
      "Ġfron": 6496,
      "Ġventral": 6497,
      "Ġresolution": 6498,
      "tries": 6499,
      "urea": 6500,
      "ĠHodgkin": 6501,
      "ĠFinally": 6502,
      "Ġdiaz": 6503,
      "Ġprocessing": 6504,
      "Ġgels": 6505,
      "Ġchloro": 6506,
      "lation": 6507,
      "Ġslices": 6508,
      "Ġpyro": 6509,
      "Ġdown": 6510,
      "Ġgiant": 6511,
      "Ġ54": 6512,
      "cells": 6513,
      "Ġhistologically": 6514,
      "Ġmacrophage": 6515,
      "Ġestimate": 6516,
      "Ġlarv": 6517,
      "Ġclosure": 6518,
      "Ġwithdrawal": 6519,
      "Ġlongitudinal": 6520,
      "lain": 6521,
      "Ġ&": 6522,
      "osides": 6523,
      "ads": 6524,
      "ietic": 6525,
      "Ġkne": 6526,
      "Ġvariant": 6527,
      "Ġcolonies": 6528,
      "phylococcus": 6529,
      "Ġdilution": 6530,
      "oscopic": 6531,
      "Ġnonspecific": 6532,
      "Ġattenu": 6533,
      "Ġepisodes": 6534,
      "Ġtachycardia": 6535,
      "rozen": 6536,
      "CH": 6537,
      "Ġplant": 6538,
      "racil": 6539,
      "Ġabsorbed": 6540,
      "Ġimplantation": 6541,
      "Ġfeedback": 6542,
      "Ġlapa": 6543,
      "inv": 6544,
      "Ġsph": 6545,
      "atine": 6546,
      "ffered": 6547,
      "ĠHyp": 6548,
      "Ġchromosomal": 6549,
      "Ġmaintain": 6550,
      "Ġvaluable": 6551,
      "Ġsurvived": 6552,
      "Ġwalls": 6553,
      "fluence": 6554,
      "Ġdevice": 6555,
      "Ġinactivated": 6556,
      "Ġconnective": 6557,
      "Ultras": 6558,
      "cap": 6559,
      "tioned": 6560,
      "astric": 6561,
      "uginosa": 6562,
      "Ġclus": 6563,
      "Ġintermittent": 6564,
      "apan": 6565,
      "Ġlymphob": 6566,
      "Ġhypertrophy": 6567,
      "Ġhydroly": 6568,
      "Ġexclusive": 6569,
      "Ġprednis": 6570,
      "pregn": 6571,
      "lastoma": 6572,
      "Ġphysicians": 6573,
      "Nase": 6574,
      "RP": 6575,
      "here": 6576,
      "urity": 6577,
      "cere": 6578,
      "Ġbearing": 6579,
      "Ġfeature": 6580,
      "tigra": 6581,
      "pression": 6582,
      "ippoc": 6583,
      "Ġhorse": 6584,
      "Ar": 6585,
      "Hyp": 6586,
      "Plasma": 6587,
      "tere": 6588,
      "Ġadren": 6589,
      "ĠNone": 6590,
      "Ġrough": 6591,
      "Ġepinephrine": 6592,
      "Ġremark": 6593,
      "response": 6594,
      "Ġimplanted": 6595,
      "Ġbreathing": 6596,
      "BP": 6597,
      "Cell": 6598,
      "pr": 6599,
      "Ġexer": 6600,
      "Ġchor": 6601,
      "Ġhemag": 6602,
      "Ġimmunore": 6603,
      "Ġsampl": 6604,
      "Ġtubules": 6605,
      "chloro": 6606,
      "36": 6607,
      "del": 6608,
      "idox": 6609,
      "Ġ52": 6610,
      "Ġinstitu": 6611,
      "Ġabscess": 6612,
      "Ġprotease": 6613,
      "Ġnutrition": 6614,
      "Ġhamsters": 6615,
      "ergency": 6616,
      "Ġstain": 6617,
      "Ġdra": 6618,
      "eces": 6619,
      "actor": 6620,
      "inetics": 6621,
      "ĠPa": 6622,
      "Ġclot": 6623,
      "Ġlowest": 6624,
      "Ġsometimes": 6625,
      "Ġvolumes": 6626,
      "Ġ1973": 6627,
      "oea": 6628,
      "what": 6629,
      "Ġoppos": 6630,
      "Ġstro": 6631,
      "rating": 6632,
      "Ġtooth": 6633,
      "osarcoma": 6634,
      "urium": 6635,
      "tax": 6636,
      "ĠImmun": 6637,
      "ĠCH": 6638,
      "ysteine": 6639,
      "Ġesophageal": 6640,
      "Ġinhibiting": 6641,
      "fficiently": 6642,
      "ospitals": 6643,
      "Ġexperimentally": 6644,
      "Ġdefective": 6645,
      "Ġdetailed": 6646,
      "Ġatropine": 6647,
      "Ġaeruginosa": 6648,
      "42": 6649,
      "alk": 6650,
      "ocor": 6651,
      "Ġincomplete": 6652,
      "ĠSeveral": 6653,
      "ĠMa": 6654,
      "Ġphosphodies": 6655,
      "Ġquantities": 6656,
      "Ġextrem": 6657,
      "Ġreconstruction": 6658,
      "Ġcoupled": 6659,
      "Ġcoupling": 6660,
      "Ġpassage": 6661,
      "Ġinstances": 6662,
      "Ġadjuvant": 6663,
      "Ġirrevers": 6664,
      "SO": 6665,
      "Ġcitrate": 6666,
      "Ġdin": 6667,
      "Ġreverse": 6668,
      "ĠType": 6669,
      "Ġloci": 6670,
      "ĠCM": 6671,
      "ĠCP": 6672,
      "Ġspite": 6673,
      "ystem": 6674,
      "Ġhemis": 6675,
      "Ġworking": 6676,
      "trophoresis": 6677,
      "enicill": 6678,
      "Ġplacental": 6679,
      "Ġvaccination": 6680,
      "Ġprecipitation": 6681,
      "55": 6682,
      "hist": 6683,
      "rd": 6684,
      "Ġcore": 6685,
      "ering": 6686,
      "diff": 6687,
      "Ġ49": 6688,
      "Ġaber": 6689,
      "oxyr": 6690,
      "Ġintox": 6691,
      "Ġlivers": 6692,
      "ogenicity": 6693,
      "Ġvasodi": 6694,
      "Ġrequirement": 6695,
      "Ġprogressively": 6696,
      "Ġtiter": 6697,
      "Ġcatecholamines": 6698,
      "Ġfistula": 6699,
      "five": 6700,
      "Ġpate": 6701,
      "Ġpump": 6702,
      "icidal": 6703,
      "Ġexception": 6704,
      "ĠStudies": 6705,
      "Ġmicrome": 6706,
      "Ġacidic": 6707,
      "Ġsomewhat": 6708,
      "Ġfourth": 6709,
      "ĠAlso": 6710,
      "Ġultraviolet": 6711,
      "Ġpeaks": 6712,
      "Ġreturn": 6713,
      "uncture": 6714,
      "Ġdisappearance": 6715,
      "oxyrib": 6716,
      "LDL": 6717,
      "ier": 6718,
      "Ġsial": 6719,
      "ister": 6720,
      "ulent": 6721,
      "usc": 6722,
      "Ġcontral": 6723,
      "ĠRh": 6724,
      "opathological": 6725,
      "ensional": 6726,
      "Ġsimplex": 6727,
      "Ġphenomena": 6728,
      "Ġvariability": 6729,
      "Ġintroduced": 6730,
      "Ġjuvenile": 6731,
      "ped": 6732,
      "Ġcation": 6733,
      "ymph": 6734,
      "Ġmye": 6735,
      "Ġapproac": 6736,
      "Ġsteps": 6737,
      "Ġdisturbance": 6738,
      "Ġdecreasing": 6739,
      "ippocamp": 6740,
      "+.": 6741,
      "cies": 6742,
      "eros": 6743,
      "ld": 6744,
      "Ġaim": 6745,
      "Ġcry": 6746,
      "Ġfig": 6747,
      "Ġrelia": 6748,
      "tructed": 6749,
      "Ġstudying": 6750,
      "Ġsensitized": 6751,
      "Ġaxis": 6752,
      "Ġdistinguished": 6753,
      "Ġacquired": 6754,
      "aff": 6755,
      "cos": 6756,
      "rative": 6757,
      "atibility": 6758,
      "ĠAg": 6759,
      "ĠSignificant": 6760,
      "Ġstop": 6761,
      "ctin": 6762,
      "lication": 6763,
      "Ġglauc": 6764,
      "Ġforming": 6765,
      "Ġindicator": 6766,
      "Ġendocrine": 6767,
      "Intra": 6768,
      "ocardial": 6769,
      "Ġtempora": 6770,
      "Ġefflux": 6771,
      "Ġconcerned": 6772,
      "Ġchlorop": 6773,
      "Ġdeposits": 6774,
      "Ġrestored": 6775,
      "Ġbundle": 6776,
      "Ġpermits": 6777,
      "onephritis": 6778,
      "Per": 6779,
      "ST": 6780,
      "Serum": 6781,
      "rils": 6782,
      "Ġtheophylline": 6783,
      "orr": 6784,
      "itch": 6785,
      "olgi": 6786,
      "Ġnal": 6787,
      "uretic": 6788,
      "elve": 6789,
      "Ġimmuno": 6790,
      "Ġstaff": 6791,
      "antigen": 6792,
      "Ġlimits": 6793,
      "uterine": 6794,
      "Ġneeds": 6795,
      "anthine": 6796,
      "Ġartificial": 6797,
      "02": 6798,
      "LB": 6799,
      "lac": 6800,
      "Ġadmission": 6801,
      "Ġrecords": 6802,
      "Ġseptal": 6803,
      "Ġdiabetics": 6804,
      "tributions": 6805,
      "Ġtended": 6806,
      "Ġuterus": 6807,
      "Ġthickness": 6808,
      "bral": 6809,
      "Ġcod": 6810,
      "Ġface": 6811,
      "Ġlu": 6812,
      "acyl": 6813,
      "Ġenvelop": 6814,
      "ĠHis": 6815,
      "Ġ57": 6816,
      "Ġregulatory": 6817,
      "Ġreact": 6818,
      "angu": 6819,
      "Ġcholec": 6820,
      "Ġconsequence": 6821,
      "Ġasymme": 6822,
      "BV": 6823,
      "dec": 6824,
      "Ġintrinsic": 6825,
      "ostr": 6826,
      "Ġnurs": 6827,
      "ify": 6828,
      "Ġenter": 6829,
      "Ġmakes": 6830,
      "Ġavian": 6831,
      "Ġmodifications": 6832,
      "mann": 6833,
      "Ġhypothyroid": 6834,
      "Ġhepatoma": 6835,
      "Ġyields": 6836,
      "Ġanomalies": 6837,
      "Ġechocardi": 6838,
      "Ġspermatoz": 6839,
      "nitro": 6840,
      "path": 6841,
      "xt": 6842,
      "ica": 6843,
      "Ġregen": 6844,
      "Ġvul": 6845,
      "ĠMA": 6846,
      "ĠRadi": 6847,
      "Ġradiographic": 6848,
      "phosphatase": 6849,
      "Ġ250": 6850,
      "Ġseverely": 6851,
      "Ġutilizing": 6852,
      "Ġcreatinine": 6853,
      "Ġganglia": 6854,
      "Ġprostate": 6855,
      "thrombin": 6856,
      "Ġintervention": 6857,
      "99": 6858,
      "Human": 6859,
      "LL": 6860,
      "ber": 6861,
      "uran": 6862,
      "otre": 6863,
      "Ġmem": 6864,
      "ĠNor": 6865,
      "ĠFc": 6866,
      "rometry": 6867,
      "arbonate": 6868,
      "Ġautoradi": 6869,
      "Ġhepatocytes": 6870,
      "Ġglycoproteins": 6871,
      "Ġbarrier": 6872,
      "piratory": 6873,
      "rele": 6874,
      "Ġdye": 6875,
      "izations": 6876,
      "oreceptor": 6877,
      "ried": 6878,
      "Ġlive": 6879,
      "Ġcalves": 6880,
      "Ġconcanavalin": 6881,
      "Ġelectrodes": 6882,
      "Ġ1976": 6883,
      "trophot": 6884,
      "Ġhaemat": 6885,
      "Ġmassive": 6886,
      "Ġcyclophosphamide": 6887,
      "subs": 6888,
      "Ġingestion": 6889,
      "Ġsound": 6890,
      "Ġfu": 6891,
      "Ġrehabil": 6892,
      "Ġwash": 6893,
      "oderm": 6894,
      "motic": 6895,
      "Ġplastic": 6896,
      "Ġexcit": 6897,
      "Ġchickens": 6898,
      "Ġdetecting": 6899,
      "otypic": 6900,
      "Ġbelong": 6901,
      "geneic": 6902,
      "organic": 6903,
      "Ġshorter": 6904,
      "Ġphagocytosis": 6905,
      "chymal": 6906,
      "Ġdrawn": 6907,
      "SD": 6908,
      "cm": 6909,
      "Ġhospitals": 6910,
      "semb": 6911,
      "Ġhearts": 6912,
      "Ġabund": 6913,
      "Ġmonol": 6914,
      "Ġelectroly": 6915,
      "Ġquantitatively": 6916,
      "Ġterminals": 6917,
      "Ġhyal": 6918,
      "Ġpredicted": 6919,
      "Ġcolumns": 6920,
      "Ġneoplastic": 6921,
      "Ġwidely": 6922,
      "Ġfetuses": 6923,
      "Ġadipose": 6924,
      "Ġintramuscular": 6925,
      "bis": 6926,
      "his": 6927,
      "tRNA": 6928,
      "ony": 6929,
      "Ġinhal": 6930,
      "Ġname": 6931,
      "phic": 6932,
      "Ġdissemin": 6933,
      "Ġheight": 6934,
      "ĠBlood": 6935,
      "Ġ64": 6936,
      "oidosis": 6937,
      "Ġelectrode": 6938,
      "ĠNeither": 6939,
      "Ġpapill": 6940,
      "Ġretard": 6941,
      "Ġerrors": 6942,
      "Ġfructose": 6943,
      "Ġemo": 6944,
      "Ġadsorption": 6945,
      "Ġunlike": 6946,
      "enstr": 6947,
      "Ġrefrac": 6948,
      "Ġsuccessive": 6949,
      "ĠNAD": 6950,
      "Ġcounter": 6951,
      "Ġfasting": 6952,
      "tumor": 6953,
      "Ġexcluded": 6954,
      "Ġexplanation": 6955,
      "ested": 6956,
      "Ġmell": 6957,
      "Ġspas": 6958,
      "chid": 6959,
      "Ġarticle": 6960,
      "Ġglycine": 6961,
      "Ġthyroxine": 6962,
      "Ġdeposition": 6963,
      "picillin": 6964,
      "altons": 6965,
      "500": 6966,
      "din": 6967,
      "Ġphe": 6968,
      "Ġdominant": 6969,
      "Ġcompatible": 6970,
      "Ġwhat": 6971,
      "Ġamyl": 6972,
      "Ġdefic": 6973,
      "Ġreflec": 6974,
      "Ġneurom": 6975,
      "rown": 6976,
      "Ġquantity": 6977,
      "Ġovulation": 6978,
      "Ġdigoxin": 6979,
      "Ġcrude": 6980,
      "Ġanalogues": 6981,
      "bladder": 6982,
      "Ġdisappeared": 6983,
      "Ġsuppressor": 6984,
      "ĠStaphylococcus": 6985,
      "Ġrupture": 6986,
      "Ġmemory": 6987,
      "FC": 6988,
      "after": 6989,
      "iosis": 6990,
      "aric": 6991,
      "Ġgold": 6992,
      "Ġassign": 6993,
      "Ġmedication": 6994,
      "ĠGolgi": 6995,
      "Ġprotective": 6996,
      "Ġsplenic": 6997,
      "Ġpharmacological": 6998,
      "Ġcut": 6999,
      "amous": 7000,
      "Ġassis": 7001,
      "othane": 7002,
      "Ġdiastolic": 7003,
      "Ġsynchron": 7004,
      "ĠJapan": 7005,
      "Ġconditioned": 7006,
      "Ġsmoking": 7007,
      "Ġconnection": 7008,
      "Ġascorb": 7009,
      "Ġcysts": 7010,
      "thmias": 7011,
      "Ġdiscrimination": 7012,
      "glycerol": 7013,
      "Ġjudged": 7014,
      "Ġcows": 7015,
      "Ġlysozyme": 7016,
      "lig": 7017,
      "Ġinver": 7018,
      "Ġrequ": 7019,
      "Ġvin": 7020,
      "romat": 7021,
      "traction": 7022,
      "Ġcompare": 7023,
      "ĠPur": 7024,
      "andida": 7025,
      "Ġdescription": 7026,
      "Ġmedul": 7027,
      "yrin": 7028,
      "soluble": 7029,
      "Ġdermat": 7030,
      "Ġfollicles": 7031,
      "Ġsuspensions": 7032,
      "Ġbriefly": 7033,
      "mus": 7034,
      "oin": 7035,
      "van": 7036,
      "tium": 7037,
      "Ġreabsorption": 7038,
      "ocomp": 7039,
      "Ġcompression": 7040,
      "tens": 7041,
      "Ġplanning": 7042,
      "Ġesters": 7043,
      "Ġlymphocytic": 7044,
      "Ġsimilarly": 7045,
      "Ġparticle": 7046,
      "Ġsyndromes": 7047,
      "Ġpolymer": 7048,
      "Ġhaemorrh": 7049,
      "Ġhydroxy": 7050,
      "Ġkept": 7051,
      "toxic": 7052,
      "Ġcommunication": 7053,
      "Ġhumoral": 7054,
      "amethasone": 7055,
      "Ġinher": 7056,
      "idol": 7057,
      "Ġgerm": 7058,
      "irradi": 7059,
      "quin": 7060,
      "Ġdecarbox": 7061,
      "ĠOver": 7062,
      "insulin": 7063,
      "Ġporcine": 7064,
      "Ġpoorly": 7065,
      "Ġnutritional": 7066,
      "Ġammonium": 7067,
      "Ġcytosol": 7068,
      "Ġlambda": 7069,
      "Hg": 7070,
      "IF": 7071,
      "no": 7072,
      "divid": 7073,
      "oprop": 7074,
      "Ġmeal": 7075,
      "Ġdischar": 7076,
      "Ġatyp": 7077,
      "ĠSA": 7078,
      "Ġserve": 7079,
      "Ġbio": 7080,
      "Ġultrastructure": 7081,
      "Comparison": 7082,
      "tranded": 7083,
      "Ġhomogeneous": 7084,
      "ien": 7085,
      "Ġdendri": 7086,
      "Ġtransm": 7087,
      "Ġ66": 7088,
      "eptide": 7089,
      "Ġangle": 7090,
      "Ġfilaments": 7091,
      "Ġmixtures": 7092,
      "Ġveins": 7093,
      "Ġconverted": 7094,
      "Ġrarely": 7095,
      "Ġbicarbonate": 7096,
      "Ġtheoretical": 7097,
      "Rec": 7098,
      "ocl": 7099,
      "Ġorb": 7100,
      "Ġinfused": 7101,
      "ĠBCG": 7102,
      "ographs": 7103,
      "Ġobvious": 7104,
      "Ġfatal": 7105,
      "regular": 7106,
      "Ġglomerul": 7107,
      "Ġanatomical": 7108,
      "effective": 7109,
      "Ġresonance": 7110,
      "Ġlumbar": 7111,
      "Radi": 7112,
      "oline": 7113,
      "Ġincre": 7114,
      "Ġcoinc": 7115,
      "Ġsubtil": 7116,
      "Ġsolvent": 7117,
      "Ġjust": 7118,
      "Ġblack": 7119,
      "fficients": 7120,
      "Ġinfusions": 7121,
      "Ġileum": 7122,
      "ATPase": 7123,
      "Ġaccompl": 7124,
      "Ġpoisoning": 7125,
      "95": 7126,
      "itic": 7127,
      "iver": 7128,
      "enal": 7129,
      "olus": 7130,
      "olate": 7131,
      "openia": 7132,
      "Ġcomputed": 7133,
      "Ġtrend": 7134,
      "Ġcompleted": 7135,
      "ĠPGF": 7136,
      "Ġgradients": 7137,
      "carbon": 7138,
      "Ġsalivary": 7139,
      "Ġglutathione": 7140,
      "PC": 7141,
      "nes": 7142,
      "pto": 7143,
      "stranded": 7144,
      "uous": 7145,
      "Ġreinf": 7146,
      "Ġec": 7147,
      "ffe": 7148,
      "Ġdisper": 7149,
      "Ġcomparing": 7150,
      "eli": 7151,
      "Influence": 7152,
      "tified": 7153,
      "Ġhistone": 7154,
      "Ġinitiated": 7155,
      "Ġspeech": 7156,
      "Ġpositions": 7157,
      "Ġdifficulties": 7158,
      "Ġrelevant": 7159,
      "alth": 7160,
      "oric": 7161,
      "Ġlup": 7162,
      "atial": 7163,
      "Ġcharge": 7164,
      "ivation": 7165,
      "Ġ67": 7166,
      "Ġdepth": 7167,
      "Ġglucocortic": 7168,
      "Ġrespective": 7169,
      "Ġcarriers": 7170,
      "eroxide": 7171,
      "Ġfaster": 7172,
      "Ġcadmium": 7173,
      "Ġsuperficial": 7174,
      "Ġcontralateral": 7175,
      "bred": 7176,
      "ria": 7177,
      "sil": 7178,
      "tead": 7179,
      "Ġfrozen": 7180,
      "Ġprobe": 7181,
      "amel": 7182,
      "elles": 7183,
      "Ġlipase": 7184,
      "Ġvoltage": 7185,
      "Ġsyngeneic": 7186,
      "Ġzones": 7187,
      "Ġflav": 7188,
      "Ġyounger": 7189,
      "phasic": 7190,
      "Ġpelvic": 7191,
      "Ġcholera": 7192,
      "zard": 7193,
      "ĠTRH": 7194,
      "Ġregimen": 7195,
      "Ġtrip": 7196,
      "acterial": 7197,
      "Ġpostnatal": 7198,
      "Ġleukocyte": 7199,
      "Ġvariants": 7200,
      "activated": 7201,
      "Ġcatecholamine": 7202,
      "Ġgradually": 7203,
      "Ġprosthesis": 7204,
      "Ġmellitus": 7205,
      "Rel": 7206,
      "Ġsib": 7207,
      "Ġwar": 7208,
      "Ġether": 7209,
      "oster": 7210,
      "Ġacyl": 7211,
      "ĠChanges": 7212,
      "Ġadverse": 7213,
      "ĠDA": 7214,
      "ervated": 7215,
      "ĠGH": 7216,
      "uresis": 7217,
      "Inc": 7218,
      "physe": 7219,
      "Ġcoefficients": 7220,
      "uronidase": 7221,
      "hyper": 7222,
      "Ġouts": 7223,
      "Ġpersonality": 7224,
      "Ġstroke": 7225,
      "Ġphosphodiesterase": 7226,
      "450": 7227,
      "ru": 7228,
      "Ġtone": 7229,
      "teg": 7230,
      "Ġdaltons": 7231,
      "Ġmast": 7232,
      "unting": 7233,
      "lla": 7234,
      "Ġlec": 7235,
      "Ġpresents": 7236,
      "Ġcoval": 7237,
      "moid": 7238,
      "ostatin": 7239,
      "Ġdiarr": 7240,
      "ĠVIII": 7241,
      "Ġexperienced": 7242,
      "Ġimpul": 7243,
      "Ġcontamination": 7244,
      "uantitative": 7245,
      "..": 7246,
      "Ġadmitted": 7247,
      "ĠPar": 7248,
      "lective": 7249,
      "Ġeffectively": 7250,
      "Ġobstructive": 7251,
      "tinal": 7252,
      "Ġcapill": 7253,
      "Ġprincipal": 7254,
      "cortis": 7255,
      "Ġidiopathic": 7256,
      "ĠAmerican": 7257,
      "MR": 7258,
      "VP": 7259,
      "haps": 7260,
      "ius": 7261,
      "itions": 7262,
      "Ġtric": 7263,
      "Ġanx": 7264,
      "Ġmor": 7265,
      "uridine": 7266,
      "Ġdisulf": 7267,
      "Ġcomplain": 7268,
      "Ġ53": 7269,
      "Ġspect": 7270,
      "Ġmedicine": 7271,
      "Ġemergency": 7272,
      "Ġleukaemia": 7273,
      "Ġfilm": 7274,
      "Ġpancreatitis": 7275,
      "Ġfields": 7276,
      "ochemistry": 7277,
      "Trans": 7278,
      "scop": 7279,
      "reac": 7280,
      "Ġpu": 7281,
      "Ġrejection": 7282,
      "Ġcolitis": 7283,
      "ministration": 7284,
      "Ġincludes": 7285,
      "ossible": 7286,
      "Ġprostatic": 7287,
      "Ġstored": 7288,
      "Ġsurrounding": 7289,
      "Ġsubtilis": 7290,
      "bac": 7291,
      "Ġstric": 7292,
      "Ġdup": 7293,
      "Ġhippocamp": 7294,
      "Ġnas": 7295,
      "dihydro": 7296,
      "Ġviable": 7297,
      "uting": 7298,
      "ibration": 7299,
      "opulmonary": 7300,
      "Ġcyto": 7301,
      "Ġintegra": 7302,
      "tification": 7303,
      "Ġpartly": 7304,
      "Ġ1972": 7305,
      "Ġlobe": 7306,
      "Ġthrombin": 7307,
      "Ġcholine": 7308,
      "Ġfavo": 7309,
      "Ġbranches": 7310,
      "Ġconclusions": 7311,
      "ĠDespite": 7312,
      "Ġorientation": 7313,
      "Ġexclusively": 7314,
      "Ġspermatozoa": 7315,
      "RS": 7316,
      "ha": 7317,
      "lact": 7318,
      "itonin": 7319,
      "Ġregeneration": 7320,
      "ulum": 7321,
      "ĠPHA": 7322,
      "ĠEffec": 7323,
      "Ġtranscription": 7324,
      "robial": 7325,
      "Ġstandardi": 7326,
      "ophilic": 7327,
      "cyclic": 7328,
      "Ġsetting": 7329,
      "rangement": 7330,
      "Ġjunctions": 7331,
      "Ġlumen": 7332,
      "omyelitis": 7333,
      "Ġlarvae": 7334,
      "31": 7335,
      "CN": 7336,
      "ience": 7337,
      "ract": 7338,
      "itre": 7339,
      "accha": 7340,
      "Ġ62": 7341,
      "Ġdesc": 7342,
      "Ġdiaphrag": 7343,
      "Ġscar": 7344,
      "adequ": 7345,
      "Ġpredomin": 7346,
      "Ġmalignancy": 7347,
      "Ġpharmacok": 7348,
      "Ġpublic": 7349,
      "Ġrandomly": 7350,
      "Ġinfiltration": 7351,
      "++": 7352,
      "patients": 7353,
      "Ġisoproterenol": 7354,
      "chn": 7355,
      "Ġhered": 7356,
      "Ġpostulated": 7357,
      "Ġselectively": 7358,
      "Ġtransplant": 7359,
      "Ġanalogue": 7360,
      "rimary": 7361,
      "65": 7362,
      "Ġbones": 7363,
      "leb": 7364,
      "ĠTrans": 7365,
      "Ġcolor": 7366,
      "Ġintermedi": 7367,
      "aped": 7368,
      "Ġglyco": 7369,
      "Ġangina": 7370,
      "Ġovary": 7371,
      "ĠSeven": 7372,
      "Ġmyeloma": 7373,
      "Ġpersisted": 7374,
      "Ġdimethyl": 7375,
      "Ġservice": 7376,
      "Ġligation": 7377,
      "Ġquestionna": 7378,
      "ĠUnited": 7379,
      "types": 7380,
      "Ġscintigra": 7381,
      "Ġknee": 7382,
      "48": 7383,
      "Treatment": 7384,
      "otides": 7385,
      "Ġpil": 7386,
      "erine": 7387,
      "Ġhard": 7388,
      "romatic": 7389,
      "riched": 7390,
      "Ġstaphyl": 7391,
      "Ġphenotype": 7392,
      "Ġfasc": 7393,
      "ramphen": 7394,
      "Ġvaccines": 7395,
      "Ġleucine": 7396,
      "Ġbabies": 7397,
      "Ġopposite": 7398,
      "Ġnursing": 7399,
      "FR": 7400,
      "IP": 7401,
      "down": 7402,
      "ste": 7403,
      "Ġfind": 7404,
      "Ġprove": 7405,
      "ills": 7406,
      "Ġarm": 7407,
      "Ġconscious": 7408,
      "Ġrotation": 7409,
      "Ġdemonstrates": 7410,
      "Ġcycles": 7411,
      "Ġreplic": 7412,
      "lings": 7413,
      "Ġphosphorus": 7414,
      "Ġconnected": 7415,
      "Ġswine": 7416,
      "Ġtracheal": 7417,
      "Ġbranch": 7418,
      "Ġanastomosis": 7419,
      "ramphenicol": 7420,
      "istribution": 7421,
      "ulti": 7422,
      "ocons": 7423,
      "Ġexamine": 7424,
      "Ġunex": 7425,
      "ostomy": 7426,
      "uclear": 7427,
      "inson": 7428,
      "Ġfunctioning": 7429,
      "Ġirregular": 7430,
      "Ġlatency": 7431,
      "ophila": 7432,
      "Ġepilepsy": 7433,
      "zol": 7434,
      "inhib": 7435,
      "esity": 7436,
      "otryp": 7437,
      "Ġimmature": 7438,
      "Ġacidosis": 7439,
      "Ġstressed": 7440,
      "Ġdeclined": 7441,
      "Ġmotility": 7442,
      "Ġmaking": 7443,
      "Ġmeasles": 7444,
      "Ġintraocular": 7445,
      "Ġmmol": 7446,
      "eroxidase": 7447,
      "Ġultrasound": 7448,
      "Ġsituations": 7449,
      "Ġcategories": 7450,
      "thropo": 7451,
      "Am": 7452,
      "CS": 7453,
      "NH": 7454,
      "tine": 7455,
      "Ġcranial": 7456,
      "Ġglass": 7457,
      "ineal": 7458,
      "irin": 7459,
      "rile": 7460,
      "oplastic": 7461,
      "Ġsymptomatic": 7462,
      "Ġprobable": 7463,
      "Ġtransplanted": 7464,
      "Ġanalogs": 7465,
      "Ġcontinuously": 7466,
      "Ġexcessive": 7467,
      "Ġchec": 7468,
      "Ġmutagen": 7469,
      "Ġplacenta": 7470,
      "Ġhemisphe": 7471,
      "Ġlutein": 7472,
      "Ġrehabilitation": 7473,
      "cutaneous": 7474,
      "vation": 7475,
      "Ġcure": 7476,
      "roxim": 7477,
      "aminergic": 7478,
      "ĠWhe": 7479,
      "Ġinvolve": 7480,
      "Ġeluc": 7481,
      "Ġdigital": 7482,
      "Ġduodenum": 7483,
      "thymidine": 7484,
      "Ġsynovial": 7485,
      "Ġglaucoma": 7486,
      "Ġcapillaries": 7487,
      "Ġinput": 7488,
      "oluble": 7489,
      "Ġglob": 7490,
      "Ġglobulin": 7491,
      "ĠAP": 7492,
      "Ġimage": 7493,
      "Ġallogra": 7494,
      "Ġallogeneic": 7495,
      "ocyan": 7496,
      "Ġdestro": 7497,
      "Ġconservative": 7498,
      "certain": 7499,
      "Ġlabor": 7500,
      "Ġprotected": 7501,
      "Ġhalothane": 7502,
      "Ġslower": 7503,
      "Ġvasopressin": 7504,
      "Ġexpan": 7505,
      "Ġproliferative": 7506,
      "Ġmumol": 7507,
      "Ġcommercial": 7508,
      "Fe": 7509,
      "arose": 7510,
      "imurium": 7511,
      "ĠCNS": 7512,
      "timulation": 7513,
      "Ġhypera": 7514,
      "Ġobese": 7515,
      "Ġampicillin": 7516,
      "Ġvestib": 7517,
      "selves": 7518,
      "Ġcomplicated": 7519,
      "Ġneedle": 7520,
      "Ġprognostic": 7521,
      "Ġoestrogen": 7522,
      "groups": 7523,
      "ĠEDTA": 7524,
      "Six": 7525,
      "eight": 7526,
      "with": 7527,
      "hepatic": 7528,
      "Ġborn": 7529,
      "arious": 7530,
      "thase": 7531,
      "six": 7532,
      "ĠMn": 7533,
      "ĠHBs": 7534,
      "Ġunrelated": 7535,
      "Ġautom": 7536,
      "Ġdystrophy": 7537,
      "Ġcorticosterone": 7538,
      "Ġinduces": 7539,
      "Ġdeprivation": 7540,
      "Le": 7541,
      "enzymes": 7542,
      "Ġpace": 7543,
      "Ġcolonic": 7544,
      "Ġimmunologic": 7545,
      "Ġexcitation": 7546,
      "ethylene": 7547,
      "ĠReg": 7548,
      "Ġparenteral": 7549,
      "Ġsaliva": 7550,
      "ĠUniversity": 7551,
      "Ġabortion": 7552,
      "Ġlinkage": 7553,
      "Ġtyphimurium": 7554,
      "Ġadenocarcinoma": 7555,
      "Ġcenters": 7556,
      "vision": 7557,
      "Ġpg": 7558,
      "Ġdeform": 7559,
      "ocys": 7560,
      "train": 7561,
      "ĠPO": 7562,
      "ĠData": 7563,
      "ĠDifferen": 7564,
      "Ġhypother": 7565,
      "Ġspectral": 7566,
      "Ġamph": 7567,
      "Ġinfluences": 7568,
      "Ġsurviv": 7569,
      "Ġfluc": 7570,
      "Ġmatched": 7571,
      "Ġafferent": 7572,
      "Ġtakes": 7573,
      "Ġmagnetic": 7574,
      "Ġdisplay": 7575,
      "oglycan": 7576,
      "dialysis": 7577,
      "arisons": 7578,
      "Ġfibrillation": 7579,
      "Ġmedulla": 7580,
      "RA": 7581,
      "ban": 7582,
      "lies": 7583,
      "Ġfoci": 7584,
      "lyl": 7585,
      "Ġdeoxyrib": 7586,
      "Ġlev": 7587,
      "Ġresponding": 7588,
      "ĠBased": 7589,
      "Ġplasmin": 7590,
      "Ġreacted": 7591,
      "Ġtris": 7592,
      "Ġhyperlip": 7593,
      "Ġreflected": 7594,
      "Ġautologous": 7595,
      "Ġvisible": 7596,
      "Ġreplaced": 7597,
      "unctiv": 7598,
      "dimensional": 7599,
      "opoietic": 7600,
      "Ġschedule": 7601,
      "Ġdiazepam": 7602,
      "GH": 7603,
      "Isolation": 7604,
      "Tc": 7605,
      "dl": 7606,
      "enes": 7607,
      "Ġineffective": 7608,
      "thmic": 7609,
      "Ġcollection": 7610,
      "Ġ96": 7611,
      "liter": 7612,
      "Ġfractionation": 7613,
      "Ġusefulness": 7614,
      "Ġcountries": 7615,
      "Ġattachment": 7616,
      "Ġjoints": 7617,
      "Ġcervix": 7618,
      "organisms": 7619,
      "Comparative": 7620,
      "Ġintroduction": 7621,
      "Ġmeningitis": 7622,
      "ĠStates": 7623,
      "Ġesophagus": 7624,
      "Pur": 7625,
      "aund": 7626,
      "yond": 7627,
      "Ġinadequ": 7628,
      "Ġpen": 7629,
      "rogenic": 7630,
      "ĠmV": 7631,
      "vered": 7632,
      "oms": 7633,
      "Ġdecom": 7634,
      "Ġdepress": 7635,
      "Ġnucleic": 7636,
      "obic": 7637,
      "Ġhistidine": 7638,
      "Ġfilter": 7639,
      "Ġadrenaline": 7640,
      "Ġfavora": 7641,
      "Ġspeed": 7642,
      "Ġsquamous": 7643,
      "Ġcapsule": 7644,
      "Ġpediatric": 7645,
      "Ġneutrophils": 7646,
      "ĠAccording": 7647,
      "During": 7648,
      "ygo": 7649,
      "ositol": 7650,
      "trim": 7651,
      "Ġsept": 7652,
      "ported": 7653,
      "Ġrectal": 7654,
      "Ġinterview": 7655,
      "Ġequip": 7656,
      "lammatory": 7657,
      "Ġglutamate": 7658,
      "uraminidase": 7659,
      "Ġretardation": 7660,
      "fen": 7661,
      "Ġmenstr": 7662,
      "thanol": 7663,
      "Ġattribu": 7664,
      "ĠCandida": 7665,
      "Ġspatial": 7666,
      "Ġregis": 7667,
      "Ġsoil": 7668,
      "Ġtransferred": 7669,
      "opolysaccharide": 7670,
      "Ġintoxication": 7671,
      "Ġplex": 7672,
      "icle": 7673,
      "Ġnur": 7674,
      "Ġ1000": 7675,
      "Ġord": 7676,
      "Ġalanine": 7677,
      "Ġspind": 7678,
      "cytes": 7679,
      "Ġstrand": 7680,
      "inese": 7681,
      "Ġmorphologic": 7682,
      "Ġelong": 7683,
      "terolog": 7684,
      "adian": 7685,
      "Ġswelling": 7686,
      "Ġexisting": 7687,
      "ĠZn": 7688,
      "Ġtib": 7689,
      "Ġcalled": 7690,
      "Ġbip": 7691,
      "usal": 7692,
      "three": 7693,
      "Ġenc": 7694,
      "Ġsubcellular": 7695,
      "rosophila": 7696,
      "Ġcancers": 7697,
      "Ġinterrup": 7698,
      "hemat": 7699,
      "Ġmostly": 7700,
      "Ġvalidity": 7701,
      "Ġsurgically": 7702,
      "Ġpotentially": 7703,
      "Ġteaching": 7704,
      "Ġthemselves": 7705,
      "Ġfamilial": 7706,
      "Ġgallbladder": 7707,
      "Ġepidermal": 7708,
      "ED": 7709,
      "GA": 7710,
      "bor": 7711,
      "cill": 7712,
      "rehen": 7713,
      "ithine": 7714,
      "dium": 7715,
      "odon": 7716,
      "Ġexact": 7717,
      "Ġperhaps": 7718,
      "Ġaddi": 7719,
      "Ġ400": 7720,
      "Ġelectric": 7721,
      "Ġlymphomas": 7722,
      "respons": 7723,
      "Ġ1977": 7724,
      "Ġnodules": 7725,
      "encing": 7726,
      "tetrahydro": 7727,
      "Ġbelieved": 7728,
      "Ġlupus": 7729,
      "67": 7730,
      "HR": 7731,
      "haem": 7732,
      "mer": 7733,
      "Ġscle": 7734,
      "lled": 7735,
      "Ġacting": 7736,
      "Ġpreservation": 7737,
      "Ġregarded": 7738,
      "unctional": 7739,
      "Ġmicrograms": 7740,
      "ferred": 7741,
      "Ġstriat": 7742,
      "Ġcerebellar": 7743,
      "Ġmentioned": 7744,
      "Ġmultipl": 7745,
      "Ġflap": 7746,
      "rosemide": 7747,
      "Character": 7748,
      "ritin": 7749,
      "Ġantagonist": 7750,
      "Ġboys": 7751,
      "Ġeluted": 7752,
      "Ġpneumonia": 7753,
      "break": 7754,
      "Ġchondro": 7755,
      "ĠSouth": 7756,
      "Ġdiarrhea": 7757,
      "xate": 7758,
      "Ġreticular": 7759,
      "olamine": 7760,
      "ffusion": 7761,
      "Ġpericardi": 7762,
      "ĠCons": 7763,
      "Ġground": 7764,
      "Ġobesity": 7765,
      "Ġtestis": 7766,
      "Ġuro": 7767,
      "Ġproteolytic": 7768,
      "Ġapplications": 7769,
      "Ġaccumulated": 7770,
      "Ġoxidized": 7771,
      "Ġkinds": 7772,
      "Ġtechnical": 7773,
      "ĠBALB": 7774,
      "Ġfluctu": 7775,
      "aemic": 7776,
      "late": 7777,
      "thel": 7778,
      "uts": 7779,
      "leucine": 7780,
      "otactic": 7781,
      "Ġenab": 7782,
      "toid": 7783,
      "Ġrelations": 7784,
      "ĠLDL": 7785,
      "Ġevaluating": 7786,
      "hydroxyp": 7787,
      "Ġcryp": 7788,
      "Acute": 7789,
      "Ġtopical": 7790,
      "Cr": 7791,
      "Some": 7792,
      "hn": 7793,
      "oy": 7794,
      "asic": 7795,
      "uses": 7796,
      "ibly": 7797,
      "Ġeffector": 7798,
      "ĠInf": 7799,
      "Ġhazard": 7800,
      "Ġarg": 7801,
      "Ġlymphatic": 7802,
      "Ġdegra": 7803,
      "ians": 7804,
      "Ġreveals": 7805,
      "Ġdiethyl": 7806,
      "Ġneurones": 7807,
      "Ġmacromo": 7808,
      "Ġestimates": 7809,
      "Ġpossibilities": 7810,
      "Ġepidemic": 7811,
      "Ġretrospective": 7812,
      "Ġwounds": 7813,
      "Ġprompt": 7814,
      "Ġphenylalanine": 7815,
      "Ġrequiring": 7816,
      "Ġaccomplished": 7817,
      "accharomy": 7818,
      "As": 7819,
      "Ġinotropic": 7820,
      "Ġecon": 7821,
      "Ġrecess": 7822,
      "eptidase": 7823,
      "Ġdetergent": 7824,
      "Ġelect": 7825,
      "ophore": 7826,
      "Ġblind": 7827,
      "Ġsymme": 7828,
      "Ġairway": 7829,
      "Ġintense": 7830,
      "recip": 7831,
      "Ġfibroblast": 7832,
      "Ġdextran": 7833,
      "Ġschizophrenia": 7834,
      "Ġfair": 7835,
      "Ġcarrying": 7836,
      "otrexate": 7837,
      "39": 7838,
      "Be": 7839,
      "dig": 7840,
      "Ġpall": 7841,
      "Ġlaryn": 7842,
      "Ġheme": 7843,
      "erases": 7844,
      "ĠLow": 7845,
      "oval": 7846,
      "Ġtranslocation": 7847,
      "roline": 7848,
      "Ġattack": 7849,
      "Ġimpact": 7850,
      "Ġconductance": 7851,
      "Ġretrograde": 7852,
      "Ġreferred": 7853,
      "Ġgirls": 7854,
      "roximately": 7855,
      "Ġexpansion": 7856,
      "For": 7857,
      "Sp": 7858,
      "layer": 7859,
      "inamide": 7860,
      "alas": 7861,
      "Ġdib": 7862,
      "cein": 7863,
      "Ġging": 7864,
      "Ġchicks": 7865,
      "Ġleak": 7866,
      "ĠEA": 7867,
      "monophosphate": 7868,
      "odiffusion": 7869,
      "Ġmalformations": 7870,
      "ocarditis": 7871,
      "Ġleukemic": 7872,
      "Ġgranular": 7873,
      "Ġconsiderations": 7874,
      "Ġsplit": 7875,
      "Ġinterfere": 7876,
      "Ġbinds": 7877,
      "Ġpenetration": 7878,
      "Ġepidemiological": 7879,
      "fe": 7880,
      "heme": 7881,
      "Ġdich": 7882,
      "Ġtool": 7883,
      "Ġhar": 7884,
      "Ġthre": 7885,
      "tamic": 7886,
      "Ġacceptor": 7887,
      "amil": 7888,
      "Ġassemb": 7889,
      "gel": 7890,
      "Ġchanging": 7891,
      "Ġ68": 7892,
      "Ġindus": 7893,
      "ographically": 7894,
      "Ġfewer": 7895,
      "Ġdesignated": 7896,
      "Ġdisplacement": 7897,
      "Ġtolerated": 7898,
      "Ġaggregates": 7899,
      "Ġdistress": 7900,
      "ĠPRL": 7901,
      "Ġrecordings": 7902,
      "Ġdynamics": 7903,
      "ĠNADPH": 7904,
      "Ġgalactose": 7905,
      "Ġneuromuscular": 7906,
      "Ġoutside": 7907,
      "ET": 7908,
      "water": 7909,
      "Ġophthal": 7910,
      "Ġsomatic": 7911,
      "Ġinorganic": 7912,
      "Ġpan": 7913,
      "Ġwaves": 7914,
      "resis": 7915,
      "opy": 7916,
      "ĠST": 7917,
      "ĠHz": 7918,
      "Ġsubpop": 7919,
      "erat": 7920,
      "pect": 7921,
      "Ġrod": 7922,
      "Ġ74": 7923,
      "Ġquick": 7924,
      "Ġflat": 7925,
      "regation": 7926,
      "Ġproviding": 7927,
      "Ġdiffering": 7928,
      "termination": 7929,
      "Ġfollicular": 7930,
      "Ġreproducible": 7931,
      "Ġelution": 7932,
      "Ġparental": 7933,
      "Ġcorpus": 7934,
      "Ġbacteriophage": 7935,
      "Ġdimensions": 7936,
      "Ġexceeded": 7937,
      "Ġchlorp": 7938,
      "ga": 7939,
      "mm": 7940,
      "urally": 7941,
      "acute": 7942,
      "Ġspike": 7943,
      "Ġtreating": 7944,
      "allik": 7945,
      "aminase": 7946,
      "reliminary": 7947,
      "Ġscal": 7948,
      "Ġsubjective": 7949,
      "Ġsensitization": 7950,
      "Ġfreeze": 7951,
      "Ġlimiting": 7952,
      "ĠWithin": 7953,
      "Ġchloramphenicol": 7954,
      "producing": 7955,
      "Ġangiographic": 7956,
      "ĠMean": 7957,
      "point": 7958,
      "Ġemotional": 7959,
      "Ġpacema": 7960,
      "fed": 7961,
      "Ġcros": 7962,
      "Ġsoci": 7963,
      "Ġmsec": 7964,
      "erpine": 7965,
      "Ġhind": 7966,
      "Ġbeyond": 7967,
      "Ġproven": 7968,
      "ocin": 7969,
      "Ġmonos": 7970,
      "Ġiris": 7971,
      "Ġ1971": 7972,
      "Ġlysosomes": 7973,
      "Ġreduces": 7974,
      "Ġphosphorylase": 7975,
      "Ġmesenteric": 7976,
      "Ġserved": 7977,
      "Ġregardless": 7978,
      "Ġforeign": 7979,
      "Ġconformational": 7980,
      "Ġoccasionally": 7981,
      "Experimental": 7982,
      "Ġseptum": 7983,
      "accharomyces": 7984,
      "%;": 7985,
      "Cor": 7986,
      "Four": 7987,
      "Ġtro": 7988,
      "rein": 7989,
      "Ġoocytes": 7990,
      "Ġsig": 7991,
      "seven": 7992,
      "ymethyl": 7993,
      "ĠNine": 7994,
      "Ġspectro": 7995,
      "oxone": 7996,
      "amination": 7997,
      "Ġmonocytes": 7998,
      "Ġdeterio": 7999,
      "Ġintravascular": 8000,
      "Ġquin": 8001,
      "Ġjaund": 8002,
      "obut": 8003,
      "Ġneuros": 8004,
      "Ġadenovirus": 8005,
      "Ġtermination": 8006,
      "Ġmanifested": 8007,
      "Ġantagonists": 8008,
      "Ġinterference": 8009,
      "yclic": 8010,
      "Ġphosphatidylcholine": 8011,
      "Ġparasite": 8012,
      "Ġattempts": 8013,
      "68": 8014,
      "La": 8015,
      "sal": 8016,
      "tte": 8017,
      "tity": 8018,
      "adren": 8019,
      "ĠEight": 8020,
      "Ġmedullary": 8021,
      "Ġtechnic": 8022,
      "Ġdemonstrable": 8023,
      "Ġjus": 8024,
      "Ġavera": 8025,
      "Ġnormo": 8026,
      "Ġtrained": 8027,
      "Ġreversal": 8028,
      "Ġprinciples": 8029,
      "oelectrophoresis": 8030,
      "Ġaccelerated": 8031,
      "64": 8032,
      "ming": 8033,
      "Ġtent": 8034,
      "teraction": 8035,
      "Ġann": 8036,
      "ĠRA": 8037,
      "Ġconcentrated": 8038,
      "Ġarterio": 8039,
      "Ġdiscussion": 8040,
      "Ġsequential": 8041,
      "ithelial": 8042,
      "Ġoxidative": 8043,
      "Ġentity": 8044,
      "Ġoestradiol": 8045,
      "phetamine": 8046,
      "Ġbrady": 8047,
      "Ġdexamethasone": 8048,
      "trypsin": 8049,
      "Ġvertebral": 8050,
      "Ġuncommon": 8051,
      "Ġfrontal": 8052,
      "Ġsampling": 8053,
      "CF": 8054,
      "chemical": 8055,
      "Ã¶": 8056,
      "Ġaerobic": 8057,
      "Ġcations": 8058,
      "Ġburs": 8059,
      "idia": 8060,
      "atile": 8061,
      "Ġperi": 8062,
      "Ġadop": 8063,
      "stances": 8064,
      "ayers": 8065,
      "Ġspectrophot": 8066,
      "ĠOr": 8067,
      "Ġmarg": 8068,
      "Ġsimilarity": 8069,
      "Ġcontrary": 8070,
      "Ġavailability": 8071,
      "Ġgranulocytes": 8072,
      "Ġshifts": 8073,
      "Ġiodine": 8074,
      "Ġattacks": 8075,
      "Ġprophylactic": 8076,
      "Ġarrhythmias": 8077,
      "Ġirreversible": 8078,
      "Ġlecithin": 8079,
      "CR": 8080,
      "for": 8081,
      "Ġod": 8082,
      "tection": 8083,
      "Ġsn": 8084,
      "Ġwa": 8085,
      "dihydroxy": 8086,
      "ipramine": 8087,
      "Ġthereby": 8088,
      "azol": 8089,
      "Ġsynthase": 8090,
      "Anti": 8091,
      "ĠmmHg": 8092,
      "fluoro": 8093,
      "Ġanticoag": 8094,
      "saccharides": 8095,
      "tocin": 8096,
      "Ġpneumoniae": 8097,
      "Ġsubstantially": 8098,
      "Ġpacing": 8099,
      "otrypsin": 8100,
      "Twenty": 8101,
      "human": 8102,
      "econd": 8103,
      "Ġacqu": 8104,
      "amate": 8105,
      "Ġsea": 8106,
      "Ġspaces": 8107,
      "Ġantimic": 8108,
      "ĠNeu": 8109,
      "ĠrRNA": 8110,
      "Ġrelapse": 8111,
      "Ġrelief": 8112,
      "Ġarrest": 8113,
      "Ġ86": 8114,
      "ochle": 8115,
      "phosphor": 8116,
      "Ġtubule": 8117,
      "Ġhomoz": 8118,
      "ĠAss": 8119,
      "peptide": 8120,
      "Ġexpon": 8121,
      "Ġcontrolling": 8122,
      "Ġhybrids": 8123,
      "Ġmetastasis": 8124,
      "Ġprinciple": 8125,
      "Ġheterogeneity": 8126,
      "mall": 8127,
      "Ã©": 8128,
      "titive": 8129,
      "Ġphyto": 8130,
      "Ġposts": 8131,
      "Ġcover": 8132,
      "Ġrig": 8133,
      "Ġarise": 8134,
      "Ġotherwise": 8135,
      "Ġgraf": 8136,
      "Ġpathogenic": 8137,
      "ĠAnti": 8138,
      "Ġsalic": 8139,
      "Ġconfig": 8140,
      "Ġgenetically": 8141,
      "otoxic": 8142,
      "Ġaspiration": 8143,
      "ĠHealth": 8144,
      "Ġhemodialysis": 8145,
      "Ġrecipient": 8146,
      "Ġgonadotropin": 8147,
      "Ġentirely": 8148,
      "Ġtriglycerides": 8149,
      "Ġcatalytic": 8150,
      "Ġreagent": 8151,
      "Ġtablets": 8152,
      "rotomy": 8153,
      "Ġconcepts": 8154,
      "Ġdecarboxylase": 8155,
      "Ġatypical": 8156,
      "cortisone": 8157,
      "Ġluteinizing": 8158,
      "63": 8159,
      "off": 8160,
      "vi": 8161,
      "Ġfish": 8162,
      "Ġgiving": 8163,
      "Ġislets": 8164,
      "romazine": 8165,
      "Ġmoiety": 8166,
      "ixed": 8167,
      "coplas": 8168,
      "aking": 8169,
      "Ġfibre": 8170,
      "Ġorganelles": 8171,
      "oplasm": 8172,
      "mitter": 8173,
      "stage": 8174,
      "Ġlatent": 8175,
      "Ġtendon": 8176,
      "Ġindependently": 8177,
      "carbox": 8178,
      "Ġconstituents": 8179,
      "Ġsupplemented": 8180,
      "effects": 8181,
      "Ġschizophrenic": 8182,
      "Ġammonia": 8183,
      "Ġsolubilized": 8184,
      "Ġsuccinate": 8185,
      "Ġapproaches": 8186,
      "Hist": 8187,
      "gia": 8188,
      "Ġfilling": 8189,
      "ĠTe": 8190,
      "Ġprotoc": 8191,
      "ĠDi": 8192,
      "ĠBut": 8193,
      "Ġunable": 8194,
      "Ġvirtually": 8195,
      "omyces": 8196,
      "Ġscans": 8197,
      "Ġulcers": 8198,
      "ancing": 8199,
      "azep": 8200,
      "Ġparameter": 8201,
      "riton": 8202,
      "Ġlacking": 8203,
      "roscopy": 8204,
      "Ġpseudo": 8205,
      "Ġepidermis": 8206,
      "LE": 8207,
      "PO": 8208,
      "sulph": 8209,
      "yron": 8210,
      "isions": 8211,
      "trates": 8212,
      "ĠCR": 8213,
      "Ġads": 8214,
      "ĠPoly": 8215,
      "ĠDrosophila": 8216,
      "Ġrich": 8217,
      "Ġrural": 8218,
      "artments": 8219,
      "Ġchronically": 8220,
      "Ġerythropo": 8221,
      "Ġpsychiat": 8222,
      "Ġaxon": 8223,
      "amphe": 8224,
      "Ġstandards": 8225,
      "Ġcurrently": 8226,
      "methionine": 8227,
      "uliar": 8228,
      "Ġtemporary": 8229,
      "44": 8230,
      "After": 8231,
      "Im": 8232,
      "called": 8233,
      "mut": 8234,
      "uro": 8235,
      "Ġwt": 8236,
      "rays": 8237,
      "osing": 8238,
      "ĠTA": 8239,
      "Ġproceed": 8240,
      "ĠIU": 8241,
      "tivated": 8242,
      "ietal": 8243,
      "Ġimmunop": 8244,
      "Ġmonomer": 8245,
      "Ġabsorb": 8246,
      "Ġactivator": 8247,
      "Ġlabelling": 8248,
      "Ġeffort": 8249,
      "Ġprogression": 8250,
      "Ġbasement": 8251,
      "Ġphospholipase": 8252,
      "Ġsupports": 8253,
      "Ġmanifestation": 8254,
      "Ġbromide": 8255,
      "Ġmercury": 8256,
      "delta": 8257,
      "Ġnamely": 8258,
      "Ġrefractory": 8259,
      "Ġanxiety": 8260,
      "ler": 8261,
      "vin": 8262,
      "Ġways": 8263,
      "idge": 8264,
      "ĠAus": 8265,
      "Ġnext": 8266,
      "ĠPe": 8267,
      "ĠPi": 8268,
      "ĠRNase": 8269,
      "Ġclones": 8270,
      "ivered": 8271,
      "yryl": 8272,
      "Ġphenobarbital": 8273,
      "Ġcleft": 8274,
      "Ġstret": 8275,
      "Ġbroth": 8276,
      "Ġaneurysms": 8277,
      "Ġbenefit": 8278,
      "Ġentry": 8279,
      "ĠCells": 8280,
      "ĠStreptococcus": 8281,
      "ĠGABA": 8282,
      "amphetamine": 8283,
      "69": 8284,
      "fish": 8285,
      "gamma": 8286,
      "Ġumb": 8287,
      "Ġtail": 8288,
      "aster": 8289,
      "lep": 8290,
      "Ġisop": 8291,
      "trating": 8292,
      "trous": 8293,
      "ĠDis": 8294,
      "ĠHSV": 8295,
      "005": 8296,
      "Ġpoin": 8297,
      "plantation": 8298,
      "Ġcorrected": 8299,
      "Ġclar": 8300,
      "Ġindis": 8301,
      "Ġgenera": 8302,
      "Ġquantif": 8303,
      "ĠChinese": 8304,
      "ynthesis": 8305,
      "pyruvate": 8306,
      "Ġhoriz": 8307,
      "Ġstreptococci": 8308,
      "Ġintraperitoneal": 8309,
      "ichloro": 8310,
      "Ġwidth": 8311,
      "allikrein": 8312,
      "47": 8313,
      "PL": 8314,
      "ca": 8315,
      "rity": 8316,
      "Ġcran": 8317,
      "Ġput": 8318,
      "Ġmessen": 8319,
      "imide": 8320,
      "imidine": 8321,
      "Ġacts": 8322,
      "ellum": 8323,
      "ĠAM": 8324,
      "chicine": 8325,
      "stre": 8326,
      "ĠPC": 8327,
      "ologist": 8328,
      "ometer": 8329,
      "Ġarch": 8330,
      "Ġendometr": 8331,
      "Ġmyof": 8332,
      "requency": 8333,
      "oplasty": 8334,
      "kinin": 8335,
      "obacter": 8336,
      "Ġtele": 8337,
      "cholate": 8338,
      "otoxicity": 8339,
      "Ġdifferentiate": 8340,
      "calc": 8341,
      "tizing": 8342,
      "Ġhemorrhagic": 8343,
      "Ġconsequences": 8344,
      "Ġreproductive": 8345,
      "Ġsafety": 8346,
      "Ġmutagenic": 8347,
      "ĠElectron": 8348,
      "Ġenvelope": 8349,
      "nine": 8350,
      "themat": 8351,
      "Ġaeros": 8352,
      "Ġelastic": 8353,
      "Ġtook": 8354,
      "Ġonc": 8355,
      "perg": 8356,
      "Ġinvasion": 8357,
      "Ġinstead": 8358,
      "Ġoutbreak": 8359,
      "Ġoxal": 8360,
      "Ġpostoperatively": 8361,
      "erob": 8362,
      "Ġsecreted": 8363,
      "Ġportions": 8364,
      "utrition": 8365,
      "urgery": 8366,
      "Ġreagents": 8367,
      "antibody": 8368,
      "invasive": 8369,
      "Ġmicrometer": 8370,
      "lite": 8371,
      "vestig": 8372,
      "ido": 8373,
      "Ġgut": 8374,
      "Ġconges": 8375,
      "Ġ(-": 8376,
      "Ġactual": 8377,
      "Ġpermitted": 8378,
      "ĠCD": 8379,
      "Ġincon": 8380,
      "ĠSpec": 8381,
      "Ġneuraminidase": 8382,
      "Ġnovel": 8383,
      "Ġaging": 8384,
      "Ġmouth": 8385,
      "Ġdepolarization": 8386,
      "liance": 8387,
      "Ġphysiologic": 8388,
      "exchange": 8389,
      "Ġprobability": 8390,
      "orous": 8391,
      "Ġpyridox": 8392,
      "Ġglutamine": 8393,
      "Evaluation": 8394,
      "Ġenlarge": 8395,
      "Ġawa": 8396,
      "Ġreliability": 8397,
      "Ġglomerulonephritis": 8398,
      "silon": 8399,
      "terologous": 8400,
      "One": 8401,
      "aran": 8402,
      "uate": 8403,
      "hema": 8404,
      "uccess": 8405,
      "ĠMon": 8406,
      "ĠHem": 8407,
      "Ġcoord": 8408,
      "cycl": 8409,
      "Ġoxide": 8410,
      "Ġdelivered": 8411,
      "Ġosmotic": 8412,
      "Ġeffusion": 8413,
      "Ġhydroxylase": 8414,
      "Ġinducing": 8415,
      "Ġducts": 8416,
      "Ġmicrobial": 8417,
      "Ġatherosclerosis": 8418,
      "Anal": 8419,
      "Ġcand": 8420,
      "Ġseas": 8421,
      "Ġspor": 8422,
      "ĠSaccharomyces": 8423,
      "Ġmethotrexate": 8424,
      "Ġdioxide": 8425,
      "Ġoperating": 8426,
      "Ġpolys": 8427,
      "Inhibition": 8428,
      "Ġidentity": 8429,
      "Ġelement": 8430,
      "Ġoscill": 8431,
      "Ġproportions": 8432,
      "ophilus": 8433,
      "Ġoffers": 8434,
      "Ġprophylaxis": 8435,
      "Ġdigestive": 8436,
      "lysine": 8437,
      "Ġlamina": 8438,
      "Ġhydrophobic": 8439,
      "Ġfurosemide": 8440,
      "Ġsurvivors": 8441,
      "\",": 8442,
      "49": 8443,
      "nec": 8444,
      "herent": 8445,
      "Ġcall": 8446,
      "Ġbot": 8447,
      "Ġreach": 8448,
      "Ġejection": 8449,
      "umatic": 8450,
      "trone": 8451,
      "ĠDM": 8452,
      "Ġhypophys": 8453,
      "Ġisolate": 8454,
      "ortun": 8455,
      "opathologic": 8456,
      "Ġvariance": 8457,
      "ploid": 8458,
      "inflammatory": 8459,
      "Ġcreatine": 8460,
      "Ġparticipation": 8461,
      "Ġcorticosteroids": 8462,
      "Ġinclusions": 8463,
      "Ġhemagglutination": 8464,
      "Ġreinfor": 8465,
      "Ġdescending": 8466,
      "Ġantimicrobial": 8467,
      "sized": 8468,
      "osoma": 8469,
      "iding": 8470,
      "Ġexud": 8471,
      "reduc": 8472,
      "Ġcomprehen": 8473,
      "Ġspine": 8474,
      "Ġ61": 8475,
      "ĠGMP": 8476,
      "Ġmaln": 8477,
      "relation": 8478,
      "ĠKCl": 8479,
      "Ġmicroc": 8480,
      "Ġcorrelates": 8481,
      "otherapeutic": 8482,
      "ĠAntib": 8483,
      "Ġstimulatory": 8484,
      "Ġerythemat": 8485,
      "Ġovari": 8486,
      "Ġcatheterization": 8487,
      "Ġtitres": 8488,
      "tropin": 8489,
      "Ġabundant": 8490,
      "Ġvestibular": 8491,
      "58": 8492,
      "tally": 8493,
      "rase": 8494,
      "ĠTotal": 8495,
      "lution": 8496,
      "Ġpretreated": 8497,
      "ĠHL": 8498,
      "ĠHaem": 8499,
      "Ġstart": 8500,
      "Ġ63": 8501,
      "aving": 8502,
      "Ġzero": 8503,
      "olipid": 8504,
      "Ġvege": 8505,
      "Ġalkyl": 8506,
      "Ġrepresenting": 8507,
      "Com": 8508,
      "Cyt": 8509,
      "Using": 8510,
      "VA": 8511,
      "gulation": 8512,
      "my": 8513,
      "mod": 8514,
      "xual": 8515,
      "Ġsti": 8516,
      "Ġsizes": 8517,
      "Ġsaturated": 8518,
      "esides": 8519,
      "idym": 8520,
      "ilical": 8521,
      "Ġhen": 8522,
      "ĠPossible": 8523,
      "ĠHM": 8524,
      "oxic": 8525,
      "ĠLA": 8526,
      "Ġplates": 8527,
      "Ġround": 8528,
      "Ġfibrous": 8529,
      "Ġoutflow": 8530,
      "Ġinteres": 8531,
      "Ġhistones": 8532,
      "Ġmorphologically": 8533,
      "Ġanaemia": 8534,
      "Ġvasocons": 8535,
      "ethanol": 8536,
      "Ġboy": 8537,
      "Ġhybridization": 8538,
      "Ġfluoride": 8539,
      "59": 8540,
      "oemb": 8541,
      "Ġite": 8542,
      "Ġsap": 8543,
      "Ġmap": 8544,
      "Ġfra": 8545,
      "omies": 8546,
      "Ġ(\"": 8547,
      "Ġrating": 8548,
      "Ġperin": 8549,
      "ĠCal": 8550,
      "Ġenough": 8551,
      "Ġimaging": 8552,
      "ĠPB": 8553,
      "ĠDec": 8554,
      "iet": 8555,
      "derived": 8556,
      "ditional": 8557,
      "ioventricular": 8558,
      "ethod": 8559,
      "Ġcomplementary": 8560,
      "omestic": 8561,
      "spring": 8562,
      "Ġemphasis": 8563,
      "Ġsubstitution": 8564,
      "Ġbrains": 8565,
      "Ġbeneficial": 8566,
      "Ġattitudes": 8567,
      "Ġdisseminated": 8568,
      "):": 8569,
      "62": 8570,
      "Bi": 8571,
      "xy": 8572,
      "Ġot": 8573,
      "orns": 8574,
      "ĠTriton": 8575,
      "Ġreserpine": 8576,
      "Ġsee": 8577,
      "Ġenriched": 8578,
      "ĠPost": 8579,
      "oneur": 8580,
      "Ġunco": 8581,
      "iesis": 8582,
      "ĠRel": 8583,
      "istar": 8584,
      "Ġagglutination": 8585,
      "Ġdiscovered": 8586,
      "Ġcirculatory": 8587,
      "Ġanalytical": 8588,
      "Ġexperiences": 8589,
      "Ġmoderately": 8590,
      "Ġsomatostatin": 8591,
      "Ġaccepted": 8592,
      "Ġrosette": 8593,
      "electro": 8594,
      "Ġimmobilized": 8595,
      "Ġfigures": 8596,
      "rig": 8597,
      "xia": 8598,
      "ishes": 8599,
      "omed": 8600,
      "irst": 8601,
      "Ġsuffered": 8602,
      "oustic": 8603,
      "Ġendocarditis": 8604,
      "bino": 8605,
      "Ġtracer": 8606,
      "exis": 8607,
      "Ġ180": 8608,
      "Ġembolism": 8609,
      "Ġparalysis": 8610,
      "visiae": 8611,
      "Ġfollicle": 8612,
      "Ġlasting": 8613,
      "Ġattributable": 8614,
      "88": 8615,
      "dal": 8616,
      "dopa": 8617,
      "lam": 8618,
      "Ġaeti": 8619,
      "onine": 8620,
      "ensis": 8621,
      "Ġpsor": 8622,
      "Ġmot": 8623,
      "edema": 8624,
      "Ġrepro": 8625,
      "ulative": 8626,
      "osum": 8627,
      "ophen": 8628,
      "ĠRep": 8629,
      "ĠOp": 8630,
      "Ġsystematic": 8631,
      "Ġ78": 8632,
      "Ġ82": 8633,
      "cotic": 8634,
      "Ġpurine": 8635,
      "Ġcerevisiae": 8636,
      "Ġolfac": 8637,
      "Ġrepetitive": 8638,
      "tamide": 8639,
      "Ġachieve": 8640,
      "Ġadjust": 8641,
      "Ġtetracycline": 8642,
      "ĠMeasure": 8643,
      "Ġstarted": 8644,
      "Ġpapillary": 8645,
      "Ġsemi": 8646,
      "Ġhypotension": 8647,
      "Ġepileptic": 8648,
      "Ġanalgesia": 8649,
      "Ġhereditary": 8650,
      "Ġequipment": 8651,
      "Mic": 8652,
      "hion": 8653,
      "nithine": 8654,
      "ino": 8655,
      "hemag": 8656,
      "reactive": 8657,
      "anced": 8658,
      "atation": 8659,
      "Ġcontex": 8660,
      "ilis": 8661,
      "ĠCyt": 8662,
      "ĠSer": 8663,
      "Ġhypoglyce": 8664,
      "Ġinvasive": 8665,
      "Ġ76": 8666,
      "rought": 8667,
      "pread": 8668,
      "temp": 8669,
      "ĠPRA": 8670,
      "Ġbreakdown": 8671,
      "otrophic": 8672,
      "Ġrecessive": 8673,
      "Hem": 8674,
      "base": 8675,
      "uracil": 8676,
      "yrate": 8677,
      "iton": 8678,
      "ulant": 8679,
      "ospor": 8680,
      "Ġnitrate": 8681,
      "igare": 8682,
      "Ġresolved": 8683,
      "Ġcellulose": 8684,
      "Ġenamel": 8685,
      "ĠNormal": 8686,
      "Ġagarose": 8687,
      "Ġserine": 8688,
      "pared": 8689,
      "Ġdecay": 8690,
      "Ġmobil": 8691,
      "Ġmononuclear": 8692,
      "Ġoptical": 8693,
      "clerotic": 8694,
      "ximide": 8695,
      "Ġnucleoside": 8696,
      "Ġ98": 8697,
      "Ġpepsin": 8698,
      "Ġcris": 8699,
      "Ġbabo": 8700,
      "Ġinstrument": 8701,
      "Ġrecombination": 8702,
      "Ġmessenger": 8703,
      ".).": 8704,
      "DO": 8705,
      "TC": 8706,
      "sub": 8707,
      "Ġips": 8708,
      "Ġbull": 8709,
      "osen": 8710,
      "ceeding": 8711,
      "tracted": 8712,
      "Ġdistributions": 8713,
      "Ġheterologous": 8714,
      "ĠIndi": 8715,
      "Ġwheat": 8716,
      "Ġdemonstrating": 8717,
      "turally": 8718,
      "Ġcasein": 8719,
      "Ġfractionated": 8720,
      "Ġnmol": 8721,
      "Ġinnervation": 8722,
      "osaminidase": 8723,
      "ĠAfrican": 8724,
      "Ġpeculiar": 8725,
      "Ġflora": 8726,
      "Ġmicrotubules": 8727,
      "Ġassigned": 8728,
      "ffeine": 8729,
      "Ġquestionnaire": 8730,
      "mTc": 8731,
      "rs": 8732,
      "wave": 8733,
      "eng": 8734,
      "ulas": 8735,
      "Ġprogen": 8736,
      "Ġchoro": 8737,
      "Ġdisl": 8738,
      "Ġstation": 8739,
      "Ġassumption": 8740,
      "Ġopera": 8741,
      "Ġmicroorganisms": 8742,
      "Ġinflux": 8743,
      "Ġautomatic": 8744,
      "Ġepididym": 8745,
      "Ġsecretions": 8746,
      "Ġchemically": 8747,
      "ĠPhys": 8748,
      "Ġrestoration": 8749,
      "galactosidase": 8750,
      "Ġascorbic": 8751,
      "Ġspectrometry": 8752,
      "yronine": 8753,
      "Ġporph": 8754,
      "uming": 8755,
      "ĠSC": 8756,
      "ologists": 8757,
      "ĠLD": 8758,
      "Ġendonuclease": 8759,
      "Ġcontraceptive": 8760,
      "Ġtubes": 8761,
      "Ġslope": 8762,
      "Ġperfus": 8763,
      "omatosis": 8764,
      "accharides": 8765,
      "Ġlambs": 8766,
      "Ġfocusing": 8767,
      "Ġisotope": 8768,
      "omorphine": 8769,
      "Ġpolymorphonuclear": 8770,
      "Ġectopic": 8771,
      "cobacterium": 8772,
      "51": 8773,
      "HC": 8774,
      "Use": 8775,
      "oar": 8776,
      "Ġerg": 8777,
      "incter": 8778,
      "onia": 8779,
      "Ġsuture": 8780,
      "Ġmating": 8781,
      "Ġbrought": 8782,
      "aned": 8783,
      "ecre": 8784,
      "olk": 8785,
      "Ġnig": 8786,
      "Ġcompliance": 8787,
      "Ġimages": 8788,
      "ĠMS": 8789,
      "tole": 8790,
      "ĠNE": 8791,
      "Ġparv": 8792,
      "ĠGu": 8793,
      "ĠGra": 8794,
      "ronic": 8795,
      "ildren": 8796,
      "Ġamphetamine": 8797,
      "Ġradiol": 8798,
      "graphy": 8799,
      "Ġferritin": 8800,
      "Ġnaturally": 8801,
      "Ġhomogenate": 8802,
      "Ġinadequate": 8803,
      "Ġmenstrual": 8804,
      "ev": 8805,
      "lines": 8806,
      "sw": 8807,
      "Ġpi": 8808,
      "Ġfinger": 8809,
      "version": 8810,
      "chlor": 8811,
      "ignant": 8812,
      "Ġcool": 8813,
      "ĠLPS": 8814,
      "Ġantibacterial": 8815,
      "Ġassessing": 8816,
      "Ġmammals": 8817,
      "Ġligand": 8818,
      "Ġaspirin": 8819,
      "Ġpreventing": 8820,
      "Ġaudi": 8821,
      "New": 8822,
      "Ġvacuoles": 8823,
      "differen": 8824,
      "Ġspectroscop": 8825,
      "End": 8826,
      "Ġbis": 8827,
      "ico": 8828,
      "Ġprojection": 8829,
      "ĠThirty": 8830,
      "Ġkary": 8831,
      "poses": 8832,
      "Ġparotid": 8833,
      "ĠUDP": 8834,
      "Ġurban": 8835,
      "untary": 8836,
      "Ġmitogen": 8837,
      "depend": 8838,
      "Ġaffects": 8839,
      "Ġtetan": 8840,
      "Ġconfined": 8841,
      "Ġpige": 8842,
      "Ġbaseline": 8843,
      "Ġconjugates": 8844,
      "Ġsilver": 8845,
      "chnoid": 8846,
      "theless": 8847,
      "Ġaveraged": 8848,
      "Ġnormotensive": 8849,
      "rist": 8850,
      "ĠPo": 8851,
      "Ġtranscrip": 8852,
      "rosta": 8853,
      "Ġmanip": 8854,
      "Ġintrauterine": 8855,
      "Ġdefine": 8856,
      "Ġperiodic": 8857,
      "Ġcardiopulmonary": 8858,
      "Ġlowering": 8859,
      "Ġhisti": 8860,
      "Ġhaemoglobin": 8861,
      "Ġapical": 8862,
      "tillation": 8863,
      "plastic": 8864,
      "Ġfashion": 8865,
      "Ġstrepto": 8866,
      "Ġoffspring": 8867,
      "Ġnewborns": 8868,
      "shaped": 8869,
      "tryptamine": 8870,
      "vuls": 8871,
      "Ġenlar": 8872,
      "ultiple": 8873,
      "72": 8874,
      "Val": 8875,
      "pH": 8876,
      "rocal": 8877,
      "Ġdomestic": 8878,
      "Ġtotally": 8879,
      "Ġdet": 8880,
      "ometrial": 8881,
      "pective": 8882,
      "Ġthereafter": 8883,
      "kines": 8884,
      "obenz": 8885,
      "enetic": 8886,
      "Ġhistology": 8887,
      "Ġtransplants": 8888,
      "imetric": 8889,
      "opausal": 8890,
      "Ġhelpful": 8891,
      "Ġclotting": 8892,
      "Ġdeficit": 8893,
      "Ġintegrated": 8894,
      "ocellular": 8895,
      "yzed": 8896,
      "Ġcigare": 8897,
      "Ġpineal": 8898,
      "Ġflas": 8899,
      "itated": 8900,
      "Ġbegan": 8901,
      "resia": 8902,
      "ifty": 8903,
      "operation": 8904,
      "Ġration": 8905,
      "Ġchim": 8906,
      "ĠSD": 8907,
      "Ġsham": 8908,
      "Ġpreferred": 8909,
      "Ġintercellular": 8910,
      "Ġesterase": 8911,
      "Ġmann": 8912,
      "ĠVLDL": 8913,
      "Ġpulp": 8914,
      "Ġmaturity": 8915,
      "Ġsexes": 8916,
      "Ġpotentiated": 8917,
      "Ġballo": 8918,
      "odeoxy": 8919,
      "Ġdermatitis": 8920,
      "Ġnetwork": 8921,
      "Ġfacilitate": 8922,
      "ĠMedical": 8923,
      "cosity": 8924,
      "Purification": 8925,
      "ĠAustral": 8926,
      "Ġhorizontal": 8927,
      "46": 8928,
      "77": 8929,
      "85": 8930,
      "face": 8931,
      "iph": 8932,
      "Ġsul": 8933,
      "Ġdivalent": 8934,
      "leted": 8935,
      "Ġdehyd": 8936,
      "Ġprep": 8937,
      "trolled": 8938,
      "ĠPara": 8939,
      "Ġarising": 8940,
      "Ġques": 8941,
      "Ġmargin": 8942,
      "Ġautosomal": 8943,
      "Ġconditioning": 8944,
      "Ġsecretin": 8945,
      "Ġsheath": 8946,
      "Ġsynthesize": 8947,
      "Ġlactic": 8948,
      "Ġavoidance": 8949,
      "Ġimmunosuppressive": 8950,
      "Ġprofessional": 8951,
      "Ġspindle": 8952,
      "zation": 8953,
      "Ġaf": 8954,
      "onyl": 8955,
      "Ġcef": 8956,
      "aling": 8957,
      "ulae": 8958,
      "Ġvec": 8959,
      "ocrit": 8960,
      "ĠSur": 8961,
      "Ġ69": 8962,
      "Ġplays": 8963,
      "Ġgenital": 8964,
      "Ġaccid": 8965,
      "Ġ87": 8966,
      "Ġoutlined": 8967,
      "Ġfluo": 8968,
      "Ġpolysaccharide": 8969,
      "Ġmicrov": 8970,
      "Ġpathophys": 8971,
      "urate": 8972,
      "Ġtemplate": 8973,
      "Ġneurologic": 8974,
      "Ġoxytocin": 8975,
      "ĠControl": 8976,
      "Ġlactose": 8977,
      "Ġdiploid": 8978,
      "Ġexamples": 8979,
      "Ġchannels": 8980,
      "Ġnaloxone": 8981,
      "Morph": 8982,
      "PH": 8983,
      "sue": 8984,
      "Ġfel": 8985,
      "Ġrein": 8986,
      "Ġlid": 8987,
      "Ġvic": 8988,
      "ilia": 8989,
      "Ġornithine": 8990,
      "Ġpreserved": 8991,
      "ĠHA": 8992,
      "timal": 8993,
      "Ġeviden": 8994,
      "liquid": 8995,
      "Ġcerebellum": 8996,
      "Ġdysplasia": 8997,
      "Ġillumin": 8998,
      "Ġdissociated": 8999,
      "Ġendothelium": 9000,
      "Ġlaser": 9001,
      "Ġbulb": 9002,
      "Ġanalgesic": 9003,
      "alasin": 9004,
      "Ġquestions": 9005,
      "+)-": 9006,
      ".\"": 9007,
      "Col": 9008,
      "bit": 9009,
      "fraction": 9010,
      "uity": 9011,
      "isition": 9012,
      "Ġbases": 9013,
[...]
